</s>	0.0000
<unk>	0.0000
.	-3.5870
▁the	-2.6972
,	-3.1814
▁of	-3.1280
▁and	-3.4459
،	-3.4712
▁to	-3.6415
▁في	-3.5874
▁in	-3.9619
▁من	-4.0432
▁(	-4.9134
▁-	-5.0688
▁a	-4.5903
'	-5.7969
▁أن	-4.7739
s	-5.0734
▁على	-4.4661
)	-5.2860
▁for	-4.6102
-	-4.7456
▁that	-4.7340
▁	-5.7236
▁on	-4.7309
▁I	-6.6159
;	-5.6465
ً	-5.4257
▁إلى	-4.7789
/	-5.1351
ا	-5.4634
▁The	-4.9993
▁you	-7.7632
▁و	-5.0758
?	-7.7957
▁is	-5.3278
ه	-5.5142
▁with	-5.2339
▁be	-5.3346
▁by	-5.1658
ة	-5.5288
ي	-5.8162
▁&	-9.9623
:	-5.8427
▁التي	-5.1772
▁as	-5.2989
▁عن	-5.3656
▁لا	-6.1769
▁it	-6.1129
ُ	-5.4852
ت	-6.2040
▁"	-5.9850
ّ	-6.1836
▁was	-5.7923
ها	-5.6616
؟	-8.8592
▁هذا	-6.0189
ك	-7.1848
▁المتحدة	-5.4732
▁ب	-5.8374
▁are	-5.8387
▁أ	-6.8523
▁ما	-6.1368
▁أو	-5.6595
َ	-5.0871
!	-9.5794
▁at	-5.8190
▁its	-5.6022
▁ذلك	-5.9495
t	-8.7406
▁ل	-5.8895
▁have	-6.0960
a	-7.0920
▁not	-6.0979
▁this	-6.2071
▁United	-5.6803
▁from	-5.8829
▁،	-6.0855
ـ	-6.4439
▁or	-5.8358
ين	-6.3577
▁الأمم	-5.7556
▁مع	-6.0041
▁هذه	-5.9494
؛	-5.7960
▁A	-6.5056
▁Nations	-5.8341
م	-6.0859
ن	-6.2154
▁all	-6.1928
▁an	-6.0459
ب	-6.3686
▁.	-6.4381
ات	-6.2575
ِ	-5.7937
▁which	-6.0157
▁their	-6.0590
▁الذي	-6.1164
m	-7.7446
▁اللجنة	-6.0022
▁ال	-6.6155
▁has	-6.1681
▁ت	-6.6422
▁You	-9.8417
▁In	-6.1635
▁Committee	-6.0956
▁It	-6.8537
▁me	-8.6676
ot	-11.4481
▁ي	-6.4688
qu	-11.3492
▁م	-6.8141
▁been	-6.3592
ing	-6.8244
نا	-7.0402
▁will	-6.3325
▁؟	-8.2482
▁لم	-6.8478
▁had	-6.3993
pos	-12.0569
د	-6.4658
▁States	-6.1605
▁we	-7.0598
▁غير	-6.2209
▁بين	-6.1844
ل	-6.4586
▁وفي	-6.2214
▁were	-6.5120
n	-8.5935
ون	-6.8097
▁international	-6.1993
▁العامة	-6.2250
▁بشأن	-6.2407
أ	-6.9009
ى	-7.5271
▁would	-6.5322
▁أي	-6.9595
▁also	-6.3068
▁should	-6.4296
▁s	-10.2629
▁other	-6.4004
▁1	-6.9078
re	-9.7017
quot	-13.8619
ر	-6.5710
y	-8.7399
d	-7.3912
▁can	-7.2946
"	-6.9275
▁كل	-6.8805
▁العام	-6.3805
▁كان	-7.0994
).	-7.3934
▁Council	-6.3194
▁my	-8.0273
▁do	-7.8815
▁rights	-6.5272
▁he	-7.5598
وا	-7.1069
▁He	-8.1514
ية	-6.7387
▁your	-8.4305
▁out	-7.2827
▁development	-6.4991
▁هو	-7.1995
▁countries	-6.4905
▁عام	-6.5481
هم	-6.8494
▁أيضا	-6.5712
▁إن	-6.9008
▁الدولية	-6.4700
▁الإنسان	-6.5083
▁report	-6.5409
▁الدول	-6.4553
▁We	-7.3162
▁know	-9.2838
▁أجل	-6.8739
ed	-7.6457
A	-7.2407
▁العمل	-6.5855
▁الدولي	-6.4739
▁they	-7.1457
e	-7.5713
▁one	-7.1588
▁right	-7.4640
▁جميع	-6.6118
▁قد	-6.7901
▁S	-7.5825
ج	-7.0091
▁under	-6.6702
ــ	-7.5234
▁go	-9.5473
▁هل	-9.2077
▁work	-6.7776
▁human	-6.7435
▁resolution	-6.5831
▁بما	-6.7223
▁No	-7.7217
▁what	-8.2506
▁there	-7.4297
▁such	-6.6767
▁about	-7.6327
▁What	-9.0487
▁General	-6.7087
▁including	-6.7285
▁his	-7.0561
▁women	-6.7472
ان	-7.1349
٩	-11.0458
▁up	-7.7412
▁الأول	-6.7166
▁حقوق	-6.6904
▁Assembly	-6.6938
▁but	-7.4024
▁يا	-10.4546
▁no	-7.4534
▁البلدان	-6.6669
▁so	-7.5219
▁ن	-7.4384
▁3	-7.2394
▁هي	-7.4395
▁لقد	-8.8957
ق	-7.2978
▁أنه	-7.0461
▁وال	-6.9316
▁information	-6.8298
▁2	-7.1711
▁لل	-7.1826
▁بال	-7.2115
▁more	-7.0498
▁support	-6.8202
▁national	-6.8455
▁like	-8.1771
ْ	-6.1321
ع	-7.1102
ال	-7.2717
General	-6.7916
▁just	-8.9149
▁State	-6.8492
▁session	-6.7877
▁بأن	-7.0826
▁كما	-6.8875
▁who	-7.3087
▁made	-6.9731
▁into	-7.0633
▁don	-11.4810
▁خلال	-6.8885
▁And	-9.2572
▁ا	-8.2204
▁وقد	-6.8306
▁Secretary	-6.8372
C	-7.6452
و	-7.0128
▁الجمعية	-6.8426
▁Convention	-6.8495
▁those	-6.9927
ني	-9.0311
▁,	-10.2479
▁فيما	-6.8755
س	-7.2821
c	-7.6163
▁any	-7.1560
),	-7.1968
▁بعد	-7.1899
▁need	-7.3725
▁يمكن	-7.0286
▁ان	-7.4934
▁International	-6.9419
▁implementation	-6.9171
▁did	-8.3061
b	-7.3729
▁بها	-7.0263
▁time	-7.4248
▁ف	-7.0102
▁Mr	-7.1254
▁them	-7.4699
▁Government	-6.9714
ما	-7.6623
ف	-7.4501
▁4	-7.3798
▁المتعلقة	-6.9148
▁This	-7.4347
▁if	-7.6806
▁could	-7.4566
▁her	-8.2188
▁الأمن	-6.8247
▁well	-7.1040
▁Commission	-6.9400
▁some	-7.4906
▁here	-9.6724
▁تلك	-7.1324
▁هناك	-7.8707
▁مجلس	-6.8917
▁الم	-7.5860
▁5	-7.4562
▁activities	-7.0222
▁through	-7.1475
▁إذا	-7.4910
▁الأمين	-6.9260
▁him	-8.4540
▁against	-7.0095
▁هنا	-9.5204
▁الأطراف	-6.9269
L	-7.9233
▁10	-7.8085
▁المجلس	-6.8837
ll	-11.0486
▁المادة	-6.9207
ah	-10.7566
▁فيها	-7.1397
▁حسنا	-12.4901
▁between	-7.0758
ly	-7.7397
▁law	-7.0577
▁تنفيذ	-7.0145
▁people	-7.3580
▁الثاني	-7.0775
▁That	-8.5512
▁الوطنية	-7.0696
▁take	-7.4676
▁ولا	-7.1758
▁أخرى	-7.1622
▁get	-10.1625
▁meeting	-7.0683
▁these	-7.3094
▁new	-7.2437
▁ومن	-7.0925
▁ماذا	-10.6804
▁per	-7.2790
َّ	-6.7524
▁[	-7.8843
▁our	-7.3888
▁كانت	-7.5265
▁الآن	-7.8709
▁القرار	-7.0039
▁يتعلق	-7.0774
▁6	-7.5973
▁ذات	-7.0874
▁بعض	-7.4119
▁مشروع	-7.0028
▁system	-7.2271
▁عمل	-7.1960
▁country	-7.1946
▁...	-10.4817
▁two	-7.4770
▁Security	-7.0515
▁measures	-7.1567
▁organizations	-7.1888
▁القانون	-7.1292
▁only	-7.5136
▁إ	-8.2382
▁Conference	-7.2081
▁المعلومات	-7.1642
▁over	-7.6692
١	-10.0388
▁كانون	-7.2037
▁به	-7.5329
▁Republic	-7.1308
▁security	-7.1652
▁ك	-7.6093
▁الفقرة	-7.0609
▁15	-7.8343
h	-9.2013
▁قبل	-7.6182
▁may	-7.2305
S	-8.0101
▁O	-9.0871
▁now	-8.1683
▁children	-7.2363
▁مجال	-7.2031
▁7	-7.6698
▁Rights	-7.2972
er	-8.5339
▁got	-11.7967
▁١٩	-9.9281
▁cooperation	-7.2014
ح	-7.5132
▁تقرير	-7.1776
▁السلام	-7.0514
▁p	-7.9451
▁يكون	-7.4843
▁التنمية	-7.2330
na	-10.5341
▁draft	-7.1258
ve	-10.6277
▁مثل	-7.6776
▁when	-7.8099
▁ينبغي	-7.1813
▁الأعمال	-7.1862
▁إطار	-7.2254
."	-7.7888
▁efforts	-7.1912
▁non	-7.3036
▁ليس	-8.5412
▁programme	-7.3071
▁وأن	-7.3480
▁المائة	-7.2916
▁Development	-7.3123
▁than	-7.5453
▁الخاص	-7.2963
▁السيد	-7.2818
▁لن	-8.7488
▁كنت	-10.2795
▁دولار	-7.4065
▁E	-8.1242
▁حتى	-7.7433
▁الدولة	-7.2863
▁Oh	-13.1899
▁number	-7.4041
▁8	-7.7356
▁لجنة	-7.2336
تي	-8.9494
▁resources	-7.2979
▁الخاصة	-7.3134
▁12	-7.9509
]	-8.1429
▁لي	-8.4947
▁برنامج	-7.3332
▁تعزيز	-7.2718
▁يجب	-8.0323
▁use	-7.4438
▁Ye	-12.3438
▁المرأة	-7.3237
▁P	-8.0012
▁she	-8.8191
▁make	-7.7752
▁فإن	-7.3160
▁عليها	-7.4031
▁order	-7.3550
▁الأعضاء	-7.2665
اء	-8.0091
▁فقط	-8.7786
▁Special	-7.4422
▁الى	-7.9971
▁20	-8.0665
▁أكثر	-7.6070
ز	-7.8417
▁C	-8.0891
▁must	-7.4388
▁want	-9.9152
▁Human	-7.4219
▁think	-10.0487
▁30	-8.0448
▁لكن	-9.1162
▁تكون	-7.6707
▁Group	-7.3466
▁assistance	-7.3499
▁process	-7.3566
▁provide	-7.3781
▁عدد	-7.4091
E	-8.1317
▁paragraph	-7.3243
▁regional	-7.3708
▁cent	-7.4601
▁issues	-7.3840
▁9	-7.8599
▁But	-9.1488
kay	-13.2893
▁years	-7.6152
▁first	-7.6560
▁تقديم	-7.3658
th	-7.9873
▁سي	-8.2365
▁economic	-7.4292
▁members	-7.3829
▁11	-8.0175
▁where	-7.8041
▁ensure	-7.3830
▁عملية	-7.3674
▁الأخرى	-7.3707
▁جدول	-7.3164
▁18	-8.0749
▁So	-9.9928
▁التعاون	-7.3555
▁social	-7.4840
▁article	-7.3531
▁financial	-7.4294
▁وضع	-7.4504
▁us	-8.3098
▁14	-8.0257
▁ست	-8.3645
▁further	-7.4250
▁see	-8.7271
▁said	-7.9756
▁شيء	-9.6692
▁particular	-7.4140
▁الذين	-7.5362
▁تشرين	-7.4630
▁services	-7.5470
▁نعم	-10.8779
▁المعنية	-7.4684
▁تم	-7.7945
▁good	-8.4905
or	-8.5500
▁de	-8.4218
▁B	-8.4697
▁shall	-7.4024
▁They	-8.3760
▁decision	-7.4711
▁13	-8.1304
▁Office	-7.5137
▁الدورة	-7.3846
al	-8.6333
▁عدم	-7.4899
▁الموارد	-7.4687
▁being	-7.6760
in	-8.7139
▁المساعدة	-7.4671
▁عليه	-7.7817
▁الوقت	-7.8025
▁الفريق	-7.4124
▁within	-7.4916
▁party	-7.6319
▁provided	-7.5283
▁التقرير	-7.4722
▁way	-8.2410
▁developing	-7.4750
▁16	-8.1178
▁programmes	-7.5396
تك	-10.2287
▁All	-8.5348
▁December	-7.5675
▁ولكن	-8.2817
ط	-8.1520
▁public	-7.6258
▁الاقتصادية	-7.5163
▁لها	-7.6714
▁الأطفال	-7.5207
▁relevant	-7.4959
▁وي	-7.7061
▁لك	-10.6266
▁ع	-7.8079
▁back	-9.5725
▁how	-8.3897
▁المعني	-7.4709
▁دون	-7.6295
▁before	-7.8958
▁الاتفاقية	-7.4500
▁There	-8.2742
▁سأ	-11.0542
▁17	-8.1460
▁ضد	-7.5241
▁19	-8.1737
▁adopted	-7.5067
▁Well	-12.1827
▁during	-7.6192
ش	-8.2101
▁س	-8.3089
▁To	-7.8779
▁As	-7.7238
▁areas	-7.5862
▁منها	-7.7753
كم	-8.6858
▁period	-7.6044
▁كذلك	-8.2693
▁level	-7.6418
▁At	-7.6506
▁الأمر	-8.4495
▁health	-7.6482
▁نحو	-7.6167
▁وت	-7.7294
▁طريق	-7.7445
▁staff	-7.6773
▁peace	-7.4814
▁العالمي	-7.5428
▁management	-7.6667
▁held	-7.6013
▁world	-7.7759
▁الصلة	-7.5098
▁President	-7.5239
▁situation	-7.5734
▁part	-7.7333
▁persons	-7.7078
▁!	-9.9175
▁عندما	-8.4037
▁إنه	-8.6595
▁She	-9.1223
i	-8.2375
▁الحكومية	-7.5782
▁taken	-7.6672
▁المالية	-7.6159
▁going	-10.4157
▁regard	-7.5999
▁وفقا	-7.5626
ِّ	-7.3504
▁protection	-7.6655
▁إدارة	-7.6439
▁action	-7.6176
▁legal	-7.6915
▁both	-7.7915
):	-7.7039
▁المجتمع	-7.5298
▁الأساسية	-7.6071
▁رئيس	-7.6271
▁political	-7.6354
▁الفترة	-7.6949
▁review	-7.6946
▁education	-7.7015
▁31	-8.2776
▁أحد	-8.3545
▁following	-7.6470
▁parties	-7.6067
▁21	-8.2786
▁بموجب	-7.5764
▁مكتب	-7.7165
g	-8.5193
▁May	-8.1293
▁العالمية	-7.6605
▁فيه	-8.0611
▁Programme	-7.6851
▁Organization	-7.6657
▁community	-7.6014
ديسمبر	-7.6040
▁most	-7.8198
▁وإذ	-7.5603
▁respect	-7.6555
ته	-8.5036
▁الحكومة	-7.6611
▁البند	-7.6101
▁منذ	-8.0412
▁حيث	-7.7980
▁النامية	-7.6265
▁important	-7.6845
▁continue	-7.6260
▁()	-7.2064
▁بشكل	-7.7964
▁special	-7.7062
▁تحقيق	-7.6360
▁same	-7.8820
es	-8.9156
▁policy	-7.7750
▁وعلى	-7.6516
▁accordance	-7.6480
▁year	-7.8428
▁many	-7.8163
▁النظر	-7.6929
▁حالة	-7.7508
▁لدى	-7.7306
▁الطرف	-7.7034
▁D	-8.9117
▁training	-7.8062
▁لأن	-8.3607
▁agenda	-7.6717
▁أفريقيا	-7.5967
▁؛	-7.6831
▁among	-7.6907
خ	-8.3172
▁25	-8.3590
▁بناء	-7.6544
▁سوف	-9.0798
▁F	-8.8647
▁الأسلحة	-7.6803
▁Africa	-7.6959
▁capacity	-7.7384
▁recommendations	-7.7569
▁22	-8.3409
▁Member	-7.7475
▁access	-7.8488
▁وهو	-7.9097
▁very	-8.2797
▁له	-8.2344
▁place	-8.0676
▁three	-8.0151
▁re	-8.9634
▁If	-8.6649
it	-10.1688
▁الرئيس	-7.6815
▁effective	-7.7179
▁منظمة	-7.7165
▁الاقتصادي	-7.7380
▁reports	-7.8137
▁after	-8.0772
▁working	-7.8919
▁الدعم	-7.8169
▁جمهورية	-7.7321
▁come	-9.1767
▁For	-8.0249
un	-8.9633
Add	-8.2733
▁f	-10.8551
▁established	-7.7682
▁جدا	-8.8893
▁كيف	-9.5675
▁أعمال	-7.7233
ض	-8.2390
▁وأ	-8.1892
▁role	-7.7439
▁مؤتمر	-7.7204
▁June	-7.8780
ئ	-9.2680
▁World	-7.7717
f	-8.6946
▁عمليات	-7.7625
▁case	-7.9683
▁عند	-8.1251
▁البرنامج	-7.8290
▁نظام	-7.8228
▁23	-8.3762
لا	-9.2008
▁العالم	-7.9076
▁زيادة	-7.8210
▁وهي	-7.8477
▁related	-7.8543
▁down	-9.3575
o	-8.9770
▁without	-7.9689
▁because	-8.3575
▁life	-8.3384
▁الإقليمية	-7.7454
تها	-8.3396
▁المحكمة	-7.7666
▁Parties	-7.7740
▁آخر	-8.2204
▁set	-7.9094
▁24	-8.4677
▁view	-7.7815
▁present	-7.8286
▁progress	-7.7985
▁then	-9.0067
▁الاتحاد	-7.7298
ذ	-8.2200
▁'	-8.8912
▁المنظمات	-7.7754
▁full	-7.8773
▁قرار	-7.7529
st	-9.1569
▁وقت	-8.2333
▁ش	-9.0336
▁المؤرخ	-7.6754
▁النظام	-7.8399
▁سيما	-7.7768
▁بالنسبة	-7.9808
▁المقرر	-7.8169
▁Social	-7.8710
▁help	-8.3899
▁إلا	-7.9472
▁أنها	-8.3805
▁since	-8.0314
▁How	-9.5282
▁item	-7.7629
▁nuclear	-7.9450
▁say	-9.6918
▁violence	-7.8943
▁Economic	-7.8455
▁appropriate	-7.8350
▁possible	-7.8890
ـــ	-8.2135
▁still	-8.5005
▁الإدارة	-7.8492
▁وذلك	-7.8395
▁البشرية	-7.7984
▁necessary	-7.8439
▁man	-9.5387
▁الرئيسية	-7.8506
▁نحن	-9.9729
▁حزيران	-7.8834
▁On	-8.0991
♪	-100.0000
▁لحقوق	-7.8787
٢	-10.4300
▁الخدمات	-7.9449
▁National	-8.0503
▁even	-8.4956
▁M	-9.1521
▁technical	-7.9068
▁سن	-8.9366
▁العامل	-7.7596
▁الوطني	-7.8902
▁cases	-8.0133
▁basis	-7.8941
يا	-8.4062
▁Board	-7.9573
▁المؤتمر	-7.8475
▁وما	-7.9668
▁المنظمة	-7.8492
▁28	-8.4501
▁التدابير	-7.8197
▁African	-7.8711
▁end	-8.0232
▁global	-7.9419
▁million	-7.9954
▁gender	-7.9017
▁institutions	-7.9256
on	-8.7991
▁budget	-7.9459
▁الولايات	-7.8937
▁used	-8.1581
▁استخدام	-7.9142
يونيه	-7.9125
▁النووية	-7.9361
▁July	-7.9961
تين	-8.1914
▁معلومات	-7.9254
▁أعضاء	-7.8126
▁27	-8.5259
▁الأنشطة	-7.9265
▁groups	-7.9835
ول	-8.8328
▁اتفاقية	-7.8610
▁ثم	-8.4536
ص	-8.2950
ام	-8.5138
▁26	-8.4906
▁while	-8.1640
▁needs	-8.0551
▁الإنمائية	-7.8511
▁New	-8.0371
▁general	-7.9641
▁المسائل	-7.8934
▁each	-8.0796
▁شخص	-8.7252
▁long	-8.3994
▁provisions	-7.8880
▁meetings	-7.9986
▁b	-9.8216
▁الاجتماعية	-7.9780
▁لعام	-7.9352
▁H	-9.0590
up	-8.3324
▁نطاق	-7.9308
▁إجراء	-7.9579
▁رقم	-7.9347
.1	-8.5916
▁ج	-8.8997
▁consideration	-7.9036
▁فقد	-8.1041
▁اليوم	-8.3492
▁النساء	-7.9876
▁include	-7.9721
▁والم	-8.2444
▁ق	-8.4182
▁إنشاء	-7.9462
▁upon	-7.9586
▁give	-8.5777
▁too	-9.5694
▁مما	-8.1065
▁policies	-8.0500
▁الأمانة	-7.9373
▁بل	-8.2924
▁c	-10.1214
▁high	-8.1480
▁أساس	-7.9491
▁انا	-10.7540
▁مجموعة	-8.0017
▁account	-8.0088
▁السلاح	-8.0102
▁gu	-12.6039
▁Court	-8.0230
▁Working	-7.9333
▁خاصة	-7.9577
▁really	-10.7875
▁تدابير	-7.9422
▁concerned	-7.9933
▁للأمم	-7.9533
▁قانون	-7.9623
▁الميزانية	-8.0376
▁لو	-9.3200
▁تقدم	-7.9330
▁وم	-8.3070
▁something	-10.7649
▁المحلية	-8.0094
▁area	-8.0902
▁2005	-8.2957
▁الجهود	-7.9161
▁Yes	-11.1000
▁تموز	-8.0062
▁available	-8.0312
▁issue	-7.9409
▁T	-9.2772
▁29	-8.5792
▁child	-8.1286
▁الواردة	-7.9360
▁جانب	-7.9955
▁الموظفين	-8.0988
▁أم	-9.5152
ظ	-8.9841
▁أنشطة	-8.0126
ائ	-8.8671
▁much	-8.9230
▁Law	-8.0840
uck	-12.7405
▁local	-8.0852
ار	-8.5038
▁ه	-9.0811
▁delegation	-7.9474
▁وجود	-8.0682
▁للجنة	-7.9676
▁September	-8.0936
▁November	-8.1245
▁does	-8.4091
▁European	-7.9942
▁data	-8.0923
▁بصورة	-7.9743
عرف	-10.6794
يوليه	-8.0326
▁trade	-8.0226
▁التعليم	-8.0210
▁واحد	-8.5724
▁القائمة	-8.0285
ٍ	-8.1554
▁2012	-11.5771
▁الأشخاص	-8.2033
▁وينبغي	-7.9302
▁العنف	-8.0141
▁الحق	-8.1610
▁region	-8.0225
▁Rapporteur	-8.2492
▁Secretariat	-8.0286
▁2011	-11.2576
▁Why	-10.3510
▁October	-8.1688
▁Fund	-8.1158
▁tell	-11.2804
▁considered	-8.0483
▁حكومة	-8.0030
▁والتنمية	-8.0499
▁Women	-8.1182
▁proposed	-8.0809
▁plan	-8.1969
▁off	-9.8014
في	-8.9196
▁group	-8.1114
▁وب	-8.1722
▁police	-8.4589
▁never	-9.8292
▁little	-9.9352
▁framework	-8.0737
▁family	-8.4148
▁يوم	-8.5294
▁submitted	-8.0522
▁أفضل	-8.5128
▁based	-8.0947
▁humanitarian	-7.9989
▁increase	-8.0719
▁الأولى	-8.1557
▁noted	-8.0673
▁address	-8.1074
اب	-8.8466
▁particularly	-8.0597
▁دعم	-8.0786
▁حالات	-8.0772
▁mean	-10.3702
▁Do	-10.2017
▁إليها	-8.0693
▁conflict	-7.9237
▁importance	-8.0310
▁الجديدة	-8.0984
CN	-8.5255
▁المرفق	-7.9036
▁اتخاذ	-8.0202
▁bodies	-8.1500
▁خدمات	-8.1225
▁ح	-8.6632
▁البيانات	-8.1201
▁last	-8.6892
▁My	-9.3141
▁التمييز	-8.0704
▁means	-8.2248
▁note	-8.0435
▁society	-8.1220
▁Action	-8.0942
▁المنطقة	-8.0960
▁القانونية	-8.0740
▁الحصول	-8.2668
▁better	-8.7263
▁الساعة	-8.1646
٤	-10.9565
▁تقوم	-8.1914
▁God	-8.5247
▁day	-8.8559
▁أهمية	-8.0382
رحب	-11.7200
▁document	-8.0679
▁Article	-8.0527
▁المستدامة	-8.1571
▁military	-8.2102
▁فريق	-8.2248
▁future	-8.1539
▁resolutions	-8.0850
▁developed	-8.1473
▁ر	-8.9613
٣	-10.7744
▁March	-8.2475
▁second	-8.4170
▁promote	-8.1001
▁أيلول	-8.0969
▁الصدد	-8.0472
▁Come	-13.1785
▁فى	-11.5055
▁لماذا	-10.7318
l	-9.3399
▁project	-8.2407
▁field	-8.1963
▁own	-8.5156
▁participation	-8.1161
▁o	-11.6041
▁Let	-10.1151
▁وكذلك	-8.0705
▁البلد	-8.1418
I	-9.2924
▁بسبب	-8.3901
▁Department	-8.1707
▁المتصلة	-8.1249
▁البعثة	-8.1798
▁am	-9.5323
▁2000	-8.3202
▁specific	-8.1407
▁Mission	-8.1948
▁Union	-8.0722
B	-9.1953
▁care	-8.5958
▁let	-10.1848
▁sector	-8.1822
▁look	-9.7989
▁مليون	-8.1674
▁بذلك	-8.4970
▁required	-8.1452
▁might	-8.5341
▁doing	-9.9352
غ	-8.5930
▁2006	-8.4439
▁civil	-8.2302
▁انه	-9.7330
مارس	-8.1634
▁انت	-10.2220
▁توفير	-8.1274
▁السياسات	-8.1839
٧	-11.0048
سبتمبر	-8.1164
ation	-9.7159
▁أثناء	-8.1750
▁2004	-8.3816
▁الجلسة	-8.0608
▁الفرعية	-8.0225
▁agencies	-8.1576
▁حق	-8.4378
٨	-10.9985
▁levels	-8.1965
▁2002	-8.4396
▁sustainable	-8.2403
ذهب	-11.1126
▁جديدة	-8.2342
▁poverty	-8.0892
r	-9.2650
▁call	-8.9696
▁حول	-8.4899
▁weapons	-8.1559
نوفمبر	-8.1543
▁إعادة	-8.2060
▁change	-8.4553
▁الثانية	-8.1789
▁Report	-8.2143
▁control	-8.2486
▁again	-9.1300
▁current	-8.1607
▁April	-8.2613
▁question	-8.2695
▁اللازمة	-8.1388
▁authorities	-8.2543
▁فترة	-8.2075
▁أريد	-11.1465
▁R	-9.0500
▁الع	-9.3840
▁السياسية	-8.1274
▁given	-8.2227
▁يلي	-8.0939
▁Governments	-8.1692
▁المواد	-8.1700
▁بلدان	-8.1406
▁الإجراءات	-8.1169
▁2003	-8.5945
▁various	-8.1689
▁منطقة	-8.2613
▁الديمقراطية	-8.0562
▁put	-8.8455
▁operations	-8.2250
▁concern	-8.2358
▁الإنمائي	-8.1962
▁المتعلق	-8.1601
▁requested	-8.1952
▁requirements	-8.2321
▁Declaration	-8.1256
▁المستوى	-8.1928
▁G	-9.3190
▁الإنسانية	-8.1063
▁مسألة	-8.1230
▁حد	-8.2320
▁find	-9.3484
▁الشرطة	-8.4826
▁South	-8.3069
▁٥	-9.7322
▁السكان	-8.1804
رة	-8.8778
▁التجارة	-8.1239
▁Act	-8.2798
▁دورتها	-8.0965
▁High	-8.2325
▁love	-10.1193
▁Protocol	-8.1548
▁context	-8.1640
▁مرة	-8.8463
▁تحت	-8.4556
▁علي	-10.1284
▁حفظ	-8.1332
▁الحالة	-8.1596
▁L	-9.4432
▁Affairs	-8.2177
▁co	-9.3917
أكتوبر	-8.2014
▁inter	-8.3301
٥	-10.9830
▁contained	-8.1605
▁المناطق	-8.2318
▁attention	-8.2189
▁representatives	-8.2106
▁2001	-8.3647
▁Don	-11.9597
▁additional	-8.2143
▁why	-9.6910
▁إنها	-10.1169
▁ربما	-10.0753
▁الت	-9.0248
▁الفقر	-8.1001
▁population	-8.3020
▁However	-8.1789
▁التالية	-8.1813
▁قال	-8.6793
▁جديد	-8.2870
▁تحسين	-8.2300
▁above	-8.2529
▁ومع	-8.2269
▁كبير	-8.4037
▁addition	-8.2534
en	-9.7055
▁مكافحة	-8.1096
▁آذار	-8.2606
▁الاجتماع	-8.2133
ير	-8.8261
▁واحدة	-8.7486
▁January	-8.3771
▁المشتركة	-8.2580
▁المكتب	-8.2685
▁agreed	-8.2116
▁2008	-8.7318
▁الطفل	-8.3029
▁عقد	-8.2093
▁برامج	-8.2360
▁towards	-8.2815
▁حسب	-8.2591
ذا	-10.3546
▁يتم	-8.3358
▁representative	-8.1275
▁taking	-8.4281
▁consider	-8.2425
▁d	-8.9830
▁2007	-8.5927
▁person	-8.5010
▁الأهداف	-8.1745
▁mandate	-8.2245
▁الله	-8.7497
عد	-9.0207
▁الرسمية	-8.1225
▁conditions	-8.2588
ث	-8.5568
▁التابعة	-8.2530
▁السابقة	-8.2352
▁تحديد	-8.2540
▁concerning	-8.2289
▁خطة	-8.3188
ir	-10.5100
▁status	-8.3059
▁سنة	-8.2373
▁II	-8.4881
▁2013	-12.3163
▁--	-9.8679
هما	-8.3398
▁W	-10.0190
▁men	-8.4902
▁داخل	-8.3268
▁impact	-8.2919
▁مستوى	-8.2832
▁تريد	-11.2616
ور	-8.9335
▁U	-9.9334
يات	-8.7883
▁أيار	-8.2859
▁تعرف	-10.6050
كر	-9.3497
▁thing	-11.1170
ظن	-11.5887
▁major	-8.3008
▁request	-8.2538
▁يبدو	-9.3960
٦	-10.9217
وم	-9.5618
▁العملية	-8.2517
▁عليك	-11.5918
▁continued	-8.3061
أن	-10.1179
▁لذلك	-8.5593
▁already	-8.6337
▁50	-8.8702
▁different	-8.4709
فعل	-11.2892
▁approach	-8.2557
▁private	-8.3445
▁projects	-8.3679
▁statement	-8.2263
▁force	-8.3180
▁الإرهاب	-7.9828
▁خ	-9.0795
▁received	-8.3676
▁للم	-8.9610
▁member	-8.2429
▁called	-8.6060
▁المقدمة	-8.2983
▁ألف	-8.3478
▁نيسان	-8.2708
▁establishment	-8.2794
▁حال	-9.2391
▁صاحب	-8.4806
▁حقا	-10.0854
٠	-10.7186
▁شكرا	-12.5239
▁الوثيقة	-8.1471
▁حماية	-8.2899
▁organization	-8.2852
▁طلب	-8.3412
▁relating	-8.2666
▁para	-8.1888
▁rules	-8.2844
▁another	-8.7093
see	-8.3198
▁together	-8.6913
▁والاجتماعية	-8.2725
▁القيام	-8.4504
▁fact	-8.4242
ٌ	-9.5131
▁مكان	-9.2477
مايو	-8.2740
▁لهذا	-8.6695
▁K	-9.4706
▁best	-8.7667
▁result	-8.3609
▁الأوروبي	-8.1900
▁خاص	-8.3808
▁every	-8.7999
▁found	-8.8611
▁whether	-8.2795
▁total	-8.4277
▁done	-8.9187
▁Ms	-8.4294
▁justice	-8.3741
من	-9.3322
▁سنوات	-8.4782
▁دولة	-8.2180
▁د	-9.1515
▁إليه	-8.4041
▁سبيل	-8.3104
▁Arab	-8.3048
▁الأ	-9.4262
▁الحكومات	-8.2822
▁انظر	-8.4302
ود	-9.0408
);	-8.5384
اح	-9.3268
▁took	-8.7090
▁great	-8.9663
to	-8.9583
▁وهذا	-8.6235
▁ألا	-8.6502
▁discrimination	-8.3325
▁Now	-10.7863
▁Palestinian	-8.1363
▁addressed	-8.2732
▁كبيرة	-8.4973
▁إجراءات	-8.2586
▁البرامج	-8.3464
▁These	-8.5046
k	-9.6238
▁water	-8.6149
▁٦	-9.8556
▁أقل	-8.5006
▁home	-9.4250
▁With	-8.5429
▁الصحة	-8.3313
كل	-10.0191
▁provision	-8.3437
ic	-10.1342
▁annex	-8.2186
▁لت	-9.1879
org	-9.0205
▁ولم	-8.5393
▁comprehensive	-8.3037
▁entitled	-8.3240
▁المشروع	-8.2633
ست	-9.8148
▁الن	-9.0014
▁أمام	-8.4696
▁والمنظمات	-8.2625
▁legislation	-8.3921
▁مركز	-8.5137
▁Is	-10.8612
أبريل	-8.3025
▁*	-9.5163
▁الناس	-9.1697
إ	-9.4041
▁والتي	-8.3665
▁therefore	-8.3071
▁Ministry	-8.4929
▁أكبر	-8.4510
▁responsibility	-8.3051
p	-9.7259
▁around	-9.3310
▁expressed	-8.3051
▁monitoring	-8.3824
▁المؤسسات	-8.3265
▁especially	-8.3457
▁وكان	-8.4790
يناير	-8.4054
▁coordination	-8.3998
▁personnel	-8.5130
▁نزع	-8.3577
▁لما	-8.7188
▁أعتقد	-11.2590
▁أمر	-8.9220
▁matter	-8.6555
▁costs	-8.5160
▁armed	-8.3494
▁Representative	-8.3151
▁المساواة	-8.3605
▁principles	-8.3349
▁التقارير	-8.3711
▁subject	-8.3385
▁الاستشارية	-8.4505
▁Where	-10.1397
F	-9.8064
▁الصعيد	-8.3972
▁منع	-8.3905
▁fully	-8.3259
▁الصغيرة	-8.3890
▁الجنائية	-8.3406
▁كلا	-10.0112
▁small	-8.4729
▁domestic	-8.4024
▁systems	-8.4314
▁Executive	-8.3883
▁الإقليمي	-8.3783
▁Who	-11.2647
P	-9.0273
▁العربية	-8.3200
▁لمكافحة	-8.2656
▁استعراض	-8.3864
▁meet	-8.7420
▁existing	-8.3913
▁بهذا	-8.9898
▁٧	-10.0649
يف	-9.7346
▁key	-8.5126
▁August	-8.5029
▁إذ	-8.4726
▁إزاء	-8.3444
▁40	-8.9665
▁next	-8.8016
▁١	-9.3077
▁مختلف	-8.4509
▁2010	-10.5688
▁ول	-8.5111
▁course	-8.9304
▁procedures	-8.4140
▁reporting	-8.4752
▁Just	-11.4627
▁included	-8.3941
▁criminal	-8.5018
▁mechanisms	-8.4148
▁الخبراء	-8.3936
▁decided	-8.4311
▁technology	-8.4815
▁القدرات	-8.3954
▁implement	-8.3831
▁تفعل	-10.3507
▁ليست	-9.1993
▁least	-8.6887
دة	-9.0397
▁strengthen	-8.3652
▁obligations	-8.3582
▁التقدم	-8.3480
governmental	-8.3910
▁increased	-8.4272
▁أح	-10.9009
▁believe	-9.1023
▁follow	-8.5096
▁القضاء	-8.3893
يل	-9.1289
▁terms	-8.4439
▁results	-8.4393
▁five	-8.6653
▁problem	-8.7617
▁لكي	-8.5496
be	-10.8268
D	-9.3881
▁فضلا	-8.3620
▁America	-8.5683
le	-10.1856
▁environment	-8.4561
▁المشاركة	-8.3828
▁February	-8.5828
▁لهذه	-8.4483
▁Look	-12.7832
▁المدني	-8.3886
▁2.	-10.6017
▁آب	-8.4736
▁practices	-8.4334
▁نفسه	-8.3461
▁اعتماد	-8.4259
▁نقص	-8.2900
▁حاليا	-8.4400
ta	-10.5180
▁rule	-8.3551
▁يكن	-9.1700
▁000	-8.3880
رت	-9.3001
▁الأصلية	-8.3761
ers	-9.4387
▁السنتين	-8.4293
نت	-9.7348
▁regarding	-8.4503
▁example	-8.3804
▁الثالثة	-8.3715
▁food	-8.6709
▁sorry	-13.3334
▁٨	-10.0379
▁بغية	-8.2988
▁adoption	-8.4405
▁standards	-8.4520
▁عبر	-8.5476
.2	-9.1345
an	-9.7845
▁إعداد	-8.4286
K	-9.8955
▁One	-8.9062
▁الصندوق	-8.5263
▁reported	-8.6028
▁التنفيذ	-8.4087
▁agreement	-8.3981
▁Go	-11.0834
2	-9.3559
▁four	-8.7229
▁مواصلة	-8.3965
▁والاجتماعي	-8.3971
▁ممثل	-8.3072
ch	-10.5138
أو	-8.9238
▁().	-8.6400
▁علما	-8.3852
▁problems	-8.4997
▁decisions	-8.4841
▁المشاريع	-8.5032
اد	-8.9233
ريد	-10.8887
▁لكل	-8.5630
نة	-9.4542
انظر	-8.3093
▁أخبر	-12.4930
▁victims	-8.5558
▁la	-9.7588
▁الاحتياجات	-8.5347
▁2009	-9.4905
▁consultations	-8.4339
اه	-9.4757
H	-9.8662
خير	-11.2829
▁لفترة	-8.5312
▁رجل	-10.8771
▁funds	-8.4860
▁service	-8.5806
▁yet	-8.8821
▁سيكون	-9.3838
▁البلاغ	-8.5807
▁الحياة	-8.7980
▁contributions	-8.4802
▁دور	-8.5343
▁صحيح	-10.7784
▁٤	-9.7765
▁الصحية	-8.4811
▁V	-9.2013
▁الق	-9.6635
▁حين	-8.6203
اع	-9.0962
▁نتائج	-8.4394
ar	-10.3710
▁risk	-8.6660
▁Advisory	-8.5942
▁وجه	-8.6491
▁UN	-9.0368
▁N	-9.5876
▁amount	-8.5287
▁improve	-8.5077
▁response	-8.5051
▁land	-8.6161
▁بعثة	-8.4322
▁لدي	-11.8520
▁away	-9.9313
▁الجريمة	-8.4894
▁cost	-8.7321
▁office	-8.8439
▁منظومة	-8.4860
▁المعقودة	-8.4652
▁An	-8.9158
▁الحقوق	-8.4428
▁النحو	-8.5152
▁mission	-8.5630
▁providing	-8.5021
▁behalf	-8.4119
▁commitment	-8.4112
▁Permanent	-8.4991
▁strengthening	-8.4825
▁Iraq	-8.3995
▁تقييم	-8.5189
▁الرامية	-8.4626
▁Israel	-8.3118
▁عشر	-8.6567
▁thought	-10.4086
▁indigenous	-8.5548
▁نفس	-8.8634
▁environmental	-8.6140
▁name	-9.4904
▁الا	-9.1846
▁due	-8.6029
▁post	-8.6127
▁When	-9.3092
▁sure	-10.6483
اس	-9.1507
▁لذا	-10.4362
▁والأمن	-8.3991
as	-9.7255
▁اللاجئين	-8.4880
use	-10.1493
▁light	-8.7396
▁business	-8.8650
▁government	-8.6538
based	-8.5994
▁السيدة	-8.5661
▁several	-8.5731
▁يوجد	-9.1256
▁always	-9.5238
▁نهاية	-8.6709
▁recent	-8.4769
man	-10.1287
هن	-8.9421
▁جيد	-10.8378
▁قائمة	-8.5430
ce	-10.3047
▁Are	-11.1054
▁J	-9.7339
دي	-9.8080
▁East	-8.4880
▁ضرورة	-8.4640
▁things	-9.6364
▁Al	-9.0836
*	-9.6289
▁أحكام	-8.4448
▁الداخلية	-8.5251
وي	-9.2329
▁الرجل	-9.7059
▁ويمكن	-8.5224
لي	-9.6892
▁challenges	-8.5387
▁disarmament	-8.5236
▁establish	-8.5882
▁anything	-11.2890
▁common	-8.5721
T	-9.8874
at	-9.7237
▁الحالات	-8.5025
▁]	-8.9841
▁الكثير	-9.4134
▁assessment	-8.5586
▁Some	-8.9753
▁لأ	-9.9910
▁Service	-8.6376
▁talk	-11.2172
▁e	-9.3048
▁البيئة	-8.5652
.5	-9.2707
▁Re	-9.6498
▁secretariat	-8.5522
▁وغيرها	-8.5059
▁night	-10.8044
▁٩	-10.1004
▁شباط	-8.6046
id	-10.5887
▁السلطات	-8.5926
يه	-9.6243
▁مت	-9.5941
▁peacekeeping	-8.4145
الم	-9.3423
,"	-8.3109
▁أشكال	-8.4907
▁وتعزيز	-8.5156
▁التدريب	-8.6433
▁1999	-9.0050
▁provides	-8.5977
.3	-9.2808
▁today	-8.9395
▁المسألة	-8.4697
▁الأمريكية	-8.5496
▁serious	-8.7138
▁اتفاق	-8.4416
▁بحقوق	-8.5546
▁kind	-9.7374
▁terrorism	-8.3025
▁matters	-8.5974
▁حل	-8.8394
▁needed	-8.6727
▁practice	-8.6429
اج	-9.5954
▁لديك	-11.7185
▁عنها	-8.7900
▁يجري	-8.7179
تنا	-9.3422
▁clear	-8.7269
▁actions	-8.5541
يد	-9.2636
▁عدة	-8.6284
▁أعلم	-12.5074
ent	-10.4969
فبراير	-8.6207
▁تنظيم	-8.6047
▁يمكنك	-11.4321
▁جنوب	-8.6407
▁Not	-10.6503
▁لهم	-8.9428
▁القضايا	-8.5723
▁لتعزيز	-8.4892
building	-8.5191
▁لست	-11.9927
▁2014	-12.7125
▁آس	-11.9217
▁school	-9.0362
▁days	-9.0890
▁المبادئ	-8.5378
أغسطس	-8.5721
▁القطاع	-8.5836
▁الإ	-9.8049
▁المدنية	-8.6329
▁اجتماع	-8.5405
ry	-10.8328
▁significant	-8.5874
▁past	-8.7465
▁أولا	-8.8475
▁money	-9.5712
▁having	-8.9220
▁leave	-9.5140
▁initiatives	-8.5718
▁UNDP	-8.7143
▁Minister	-8.5827
▁develop	-8.5663
▁خارج	-8.9269
▁whole	-9.1228
▁keep	-9.6612
▁crime	-8.6850
▁girls	-8.8349
▁reform	-8.5425
M	-9.7464
▁lack	-8.6449
▁الجنسين	-8.5886
▁ever	-9.9483
▁ضمان	-8.5644
▁الإدارية	-8.6147
▁dialogue	-8.5253
▁space	-8.5969
▁until	-9.0347
▁un	-9.4502
▁وقال	-8.6562
▁prevention	-8.5284
▁able	-8.8101
▁بأنه	-8.8702
▁THE	-10.1190
▁become	-8.6774
▁Director	-8.7035
▁إعلان	-8.4873
▁peoples	-8.6227
▁regular	-8.6398
▁عامة	-8.6076
▁told	-10.5826
▁documents	-8.6000
▁يقوم	-8.6808
▁application	-8.5934
▁الاجتماعات	-8.5600
▁HIV	-8.4404
▁أما	-8.6688
▁Commissioner	-8.6024
▁الشامل	-8.6039
▁strategy	-8.6088
AC	-9.3199
▁planning	-8.7537
▁سياق	-8.5654
▁Thank	-12.1117
▁third	-8.6518
▁تتعلق	-8.5716
▁التقنية	-8.6278
▁الشؤون	-8.5958
▁تقارير	-8.6262
▁الأخيرة	-8.6547
▁open	-8.9155
▁كم	-9.7749
▁الحد	-8.6328
▁main	-8.6735
▁يقدم	-8.5601
▁list	-8.7035
▁forces	-8.6947
▁أعلاه	-8.5251
▁مشاريع	-8.5853
▁العديد	-8.7073
▁See	-8.6704
▁3.	-10.8849
▁His	-9.0152
▁promotion	-8.6345
▁Chairman	-8.4698
term	-8.6628
مة	-9.0935
▁بي	-10.1379
▁Information	-8.6891
▁عملا	-8.6173
▁محددة	-8.5923
▁equality	-8.6467
▁arms	-8.5653
▁date	-8.7461
▁dated	-8.6123
▁باء	-8.6114
بي	-9.8545
▁Covenant	-8.7077
▁While	-8.6594
▁شيئا	-10.9683
لت	-9.5833
ie	-11.0782
▁free	-8.8813
▁الثالث	-8.6345
▁violations	-8.7265
▁الشعوب	-8.5732
▁however	-8.6171
▁التنفيذي	-8.6522
▁trafficking	-8.6424
▁procedure	-8.6223
▁الخامسة	-8.6146
▁تشمل	-8.5662
▁الأساسي	-8.5856
ُّ	-8.5153
▁missions	-8.7028
▁acts	-8.5434
▁body	-8.9927
▁equipment	-8.8348
▁مجالات	-8.6089
▁requests	-8.6667
the	-8.7646
▁administrative	-8.6847
▁الجزء	-8.6976
▁biennium	-8.6601
▁Centre	-8.8042
▁real	-9.4295
▁حدث	-9.7937
▁إمكانية	-8.6187
▁involved	-8.6882
▁research	-8.7258
▁point	-8.9651
اف	-9.4117
▁growth	-8.7572
il	-10.2430
ul	-10.5597
▁٢	-9.6963
▁focus	-8.6850
▁للفترة	-8.7760
▁المشترك	-8.6096
▁الوثائق	-8.4229
▁far	-8.9691
▁certain	-8.7099
▁مدى	-8.7335
▁الش	-9.7840
▁العراق	-8.5441
▁wish	-8.7547
▁priority	-8.6032
▁صندوق	-8.7426
▁يتصل	-8.6092
▁الإعلام	-8.6618
▁ضمن	-8.6171
▁prevent	-8.6217
▁الفصل	-8.5028
▁عنه	-9.3230
▁تعمل	-8.9422
▁living	-8.8502
▁تماما	-9.2101
▁تمويل	-8.6063
▁نوع	-8.9692
▁المؤقت	-8.6129
▁pro	-10.4183
▁الاتجار	-8.5758
▁responsible	-8.7114
▁وزارة	-8.6906
▁cultural	-8.6784
▁الأراضي	-8.6550
▁لتنفيذ	-8.6123
ment	-10.1949
▁making	-8.9294
▁100	-9.3167
▁عشرة	-8.7746
▁المناعة	-8.4711
▁دول	-8.6029
▁وإلى	-8.5838
3	-9.2947
▁York	-8.8315
▁official	-8.7909
▁القرارات	-8.6160
▁وغير	-8.6301
▁Good	-11.0561
▁بد	-8.8908
▁bring	-9.0079
▁بيانات	-8.6580
▁تعلم	-10.9768
إن	-10.2160
▁Treaty	-8.7007
▁انها	-11.0477
▁وإن	-8.7443
▁التجارية	-8.6542
▁الحالية	-8.6081
وس	-9.3752
▁رسالة	-8.8007
▁months	-8.9551
▁treatment	-8.7184
ter	-10.6676
us	-10.2778
▁China	-8.7246
▁war	-8.8895
▁treaty	-8.7048
▁مساعدة	-8.6907
▁section	-8.6981
بة	-9.6636
▁بالفعل	-9.0476
▁الاجتماعي	-8.6798
▁production	-8.7845
▁recommended	-8.6973
▁individual	-8.7516
▁المسلحة	-8.5891
▁للدول	-8.6373
لم	-10.1440
اك	-9.9327
▁جهود	-8.5553
▁ثلاثة	-8.9873
▁agreements	-8.6611
▁الأرض	-8.9915
▁line	-9.1039
نى	-11.2734
▁committed	-8.6853
▁early	-8.8146
▁left	-9.7884
▁others	-8.8102
▁employment	-8.7489
▁position	-8.7859
▁act	-8.8199
▁مباشرة	-8.8236
▁علينا	-9.6809
▁تزال	-8.7728
▁35	-9.2017
▁نسبة	-8.7264
ؤ	-9.4647
▁instruments	-8.6605
▁Your	-10.9902
▁او	-9.2405
▁سيد	-11.6134
▁نتيجة	-8.6992
▁operational	-8.7721
▁Tribunal	-8.6788
▁sexual	-8.7721
▁الحاجة	-8.6014
▁discussion	-8.6233
ity	-9.7949
▁Division	-8.7772
▁بالم	-9.4840
▁تشير	-8.6310
▁٣	-9.6953
بل	-9.5000
▁الأموال	-8.6260
▁إل	-10.3677
▁كثيرا	-9.1614
▁funding	-8.7498
▁الاستعراض	-8.7555
▁statements	-8.7093
▁Other	-8.7947
▁Geneva	-8.7658
▁•	-8.1560
▁few	-9.2006
▁laws	-8.7516
▁لتحقيق	-8.6835
▁achieve	-8.6612
▁form	-8.7514
▁objectives	-8.7030
▁العهد	-8.7427
▁please	-10.3027
▁l	-10.2713
▁اي	-9.9112
▁Kingdom	-8.5554
▁v	-9.4164
▁annual	-8.7671
▁Can	-11.0128
▁المزيد	-8.8362
▁الوصول	-8.8280
▁play	-9.1567
▁أليس	-12.4819
▁property	-8.6994
▁strategies	-8.6959
▁بهذه	-9.0185
▁Please	-9.9895
w	-10.2411
▁mind	-9.3026
▁اذا	-10.0284
▁الممثل	-8.5937
▁self	-8.8032
▁اسم	-9.9183
▁protect	-8.8893
▁Democratic	-8.5473
▁تطلب	-8.6665
▁steps	-8.7307
▁الس	-9.8860
▁purpose	-8.7082
▁Bank	-8.7671
▁التنسيق	-8.7492
▁الوكالات	-8.7111
عة	-9.4598
▁partners	-8.7687
▁الاستراتيجية	-8.7174
▁الجدول	-8.7756
▁السنوات	-8.7113
▁principle	-8.7374
▁مشاركة	-8.6750
▁إضافية	-8.6878
▁rate	-8.8669
▁reduction	-8.7222
▁32	-9.2659
ate	-10.5851
▁close	-9.1146
▁notes	-8.8381
▁للتنمية	-8.7587
▁questions	-8.8661
▁لدينا	-10.7315
▁age	-8.8552
▁Charter	-8.6738
ive	-10.3329
▁Agenda	-8.6847
▁1998	-9.4068
▁organized	-8.7649
▁promoting	-8.7330
ــــ	-8.7071
▁interest	-8.7537
▁met	-9.2485
▁60	-9.3649
▁التوصيات	-8.7210
▁death	-9.1362
▁لجميع	-8.7442
G	-9.9042
▁العسكرية	-8.7712
▁implementing	-8.7457
▁بدون	-9.1336
▁بك	-11.5598
▁large	-8.8143
▁(1)	-8.8617
▁six	-8.9871
▁غ	-9.6296
▁adequate	-8.7399
u	-10.1116
▁text	-8.6024
▁تكاليف	-8.8644
لة	-9.3681
▁فعل	-9.6481
▁equal	-8.8422
▁forms	-8.7448
▁aimed	-8.7426
▁performance	-8.8269
يت	-10.1243
▁plans	-8.8712
▁Criminal	-8.7860
مت	-9.5033
▁approved	-8.7664
▁greater	-8.7538
▁g	-10.7243
▁Central	-8.8056
▁study	-8.7407
li	-10.4310
جل	-10.3759
▁Panel	-8.6724
ol	-10.7078
▁issued	-8.7150
▁ون	-9.1253
▁previous	-8.7805
▁نموا	-8.6996
يق	-9.7164
▁تطبيق	-8.7295
ro	-10.5385
▁Get	-13.2407
▁المناخ	-8.7906
▁رأي	-9.4485
▁Did	-11.9028
▁proposals	-8.7414
▁posts	-8.8326
▁شؤون	-8.7333
▁girl	-10.6679
▁الج	-10.1530
▁awareness	-8.8164
▁communities	-8.8241
▁دائما	-9.6253
▁هؤلاء	-9.2725
▁المجال	-8.6977
تم	-10.1595
▁حسن	-10.3435
▁توصيات	-8.7616
▁است	-9.2992
▁joint	-8.7992
▁facilitate	-8.7460
▁energy	-8.9285
▁لشؤون	-8.7993
▁arrangements	-8.8296
level	-8.8245
▁إسرائيل	-8.5518
able	-9.5293
/2	-9.6001
▁essential	-8.7153
▁بالتعاون	-8.7359
ist	-10.3794
▁supported	-8.8092
▁هم	-9.5729
▁الحماية	-8.7427
فة	-10.1447
▁pursuant	-8.7010
▁Trade	-8.7903
▁prepared	-8.8166
▁التوجيهية	-8.7835
▁المخدرات	-8.8059
▁carried	-8.8072
▁33	-9.3273
▁النتائج	-8.7402
▁building	-8.9324
▁1995	-9.6774
▁feel	-10.3040
▁investment	-8.8391
▁34	-9.2865
tergovernmental	-8.8078
▁الجنس	-8.9523
▁stated	-8.8089
▁knowledge	-8.8045
▁الهدف	-8.8272
وب	-9.6431
▁Justice	-8.8814
▁لضمان	-8.7609
▁won	-11.7790
▁assist	-8.7342
▁old	-9.9258
▁evidence	-9.0041
▁دع	-11.7074
▁show	-9.7074
▁الحدود	-8.7795
▁الطاقة	-8.9268
▁nothing	-10.5488
▁coming	-10.0503
▁الجديد	-8.9293
▁الأفريقي	-8.6710
ri	-10.4571
▁التمويل	-8.7885
▁القضائية	-8.8152
▁المحلي	-8.8085
▁Russian	-8.7866
▁الخارجية	-8.7587
▁البروتوكول	-8.7393
▁السنة	-8.8611
▁Millennium	-8.6443
▁36	-9.3374
▁foreign	-8.8410
تكلم	-8.4055
▁37	-9.2855
▁نقل	-8.8610
▁النمو	-8.8473
▁basic	-8.8039
▁Plan	-8.8514
▁con	-10.9059
▁understanding	-8.7384
اق	-9.4786
▁Federation	-8.7922
▁الخدمة	-8.8818
▁فحسب	-9.2978
▁Review	-8.8581
هل	-11.3952
▁OF	-10.2335
▁السلطة	-8.8018
▁4.	-10.9536
تهم	-9.3361
▁recommendation	-8.7641
▁الداخلي	-8.7179
يين	-9.1041
▁كي	-9.2240
▁analysis	-8.8551
▁came	-9.8447
▁nature	-8.8419
am	-10.6284
▁دي	-9.4106
▁الوفود	-8.7618
▁power	-9.1126
▁للجمعية	-8.6332
▁communication	-8.7722
▁hope	-9.0644
▁vote	-8.7088
▁الرابعة	-8.7721
and	-9.8998
عت	-9.8122
▁potential	-8.8344
▁الحرب	-8.9065
▁hand	-9.3380
▁إلي	-10.6027
▁undertaken	-8.7926
▁cannot	-8.9329
▁expected	-8.8508
▁أوروبا	-8.8543
▁Asia	-8.9200
▁أية	-8.9620
▁informed	-8.9402
▁الواقع	-9.1894
▁التكاليف	-8.9443
▁والتعاون	-8.7855
▁أخ	-11.1925
▁often	-8.8516
▁delegations	-8.8302
▁آسيا	-8.8467
▁state	-9.1269
جر	-9.9987
▁market	-8.8997
▁income	-8.8651
▁قدم	-9.0188
▁young	-9.0532
▁التالي	-8.8050
▁offices	-8.8838
▁enhance	-8.8005
▁مسائل	-8.7716
يم	-9.3449
▁fundamental	-8.7885
▁By	-9.2900
▁author	-9.0375
▁دولية	-8.7261
▁implemented	-8.8793
▁aspects	-8.7838
▁إقامة	-8.7702
▁ensuring	-8.8295
▁45	-9.3071
▁pay	-9.2111
▁People	-9.0032
▁استراتيجية	-8.7664
ant	-10.5204
▁المياه	-8.8186
▁الهيئات	-8.8093
▁proposal	-8.7887
1	-9.4702
ur	-10.4876
▁experts	-8.8160
▁مراعاة	-8.7707
▁Global	-8.9240
▁once	-9.2951
▁Implementation	-8.8529
▁وبناء	-8.7714
▁العمليات	-8.9099
▁affected	-8.8432
▁doesn	-12.7817
▁الفضاء	-8.7181
▁car	-11.0488
▁المالي	-8.8448
▁opportunity	-8.7967
▁يحدث	-9.9812
▁قلت	-11.6898
▁contribute	-8.7749
▁لأغراض	-8.8256
▁court	-9.0498
▁يتعين	-8.7738
▁لنا	-9.4231
▁house	-10.0558
During	-8.9567
▁وسي	-9.0123
▁stop	-10.4449
▁natural	-8.8663
▁seen	-9.6319
▁letter	-8.8692
▁III	-9.1789
▁ص	-9.4530
▁guidelines	-8.8649
▁معاهدة	-8.8532
▁الكامل	-8.7340
▁lot	-11.2690
▁مر	-9.9565
▁الأفريقية	-8.6940
▁الحكم	-8.7651
▁evaluation	-8.8950
▁الدائم	-8.7478
▁أستطيع	-13.1269
▁conduct	-8.8165
▁الاتفاق	-8.7717
▁live	-9.4849
▁Non	-8.9293
▁أفراد	-8.9751
▁connection	-8.8721
▁Summit	-8.6796
▁وثائق	-8.8396
▁المعايير	-8.8541
▁قام	-9.1296
▁تشكل	-8.7952
▁Under	-8.9052
▁negotiations	-8.8522
تان	-9.1643
▁نص	-8.8746
▁Annex	-8.6818
▁facilities	-8.9493
▁Israeli	-8.7507
▁رائع	-12.1692
▁القمة	-8.6789
▁الهيئة	-8.8265
▁Cooperation	-8.8786
▁fifty	-8.7329
▁Management	-8.9550
▁المفوضية	-8.8309
▁deal	-9.3464
▁limited	-8.8671
▁الرعاية	-8.8962
▁everything	-11.0413
▁thus	-8.8115
يك	-10.3958
▁manner	-8.8359
▁البحر	-8.9593
▁exchange	-8.8692
▁الرغ	-9.1782
▁موظفي	-8.8511
▁39	-9.3169
▁الحسابات	-8.9188
▁individuals	-8.9067
▁independent	-8.8676
▁أود	-8.9449
▁strategic	-8.9325
▁تنسيق	-8.8447
▁understand	-10.0954
▁authority	-8.8683
▁بهدف	-8.8755
▁المثال	-8.8503
▁goals	-8.8023
▁financing	-8.8354
▁freedom	-8.9842
▁أنني	-11.5408
▁opportunities	-8.8706
▁صديق	-11.5335
▁effect	-8.8541
▁ثلاث	-9.1094
.6	-9.5750
▁التابع	-8.8420
▁wanted	-10.9330
▁hours	-9.4676
▁التنفيذية	-8.8804
▁hear	-10.2826
▁موارد	-8.8370
is	-10.4143
▁بصفة	-8.7911
▁المستقبل	-8.8831
▁mechanism	-8.8614
▁job	-10.0111
▁الاتصال	-9.0086
▁سياسات	-8.8970
▁experience	-8.9062
▁الممارسات	-8.8437
▁forward	-8.9121
▁refugees	-8.9110
▁والخمسين	-8.6953
et	-10.6501
▁المحرز	-8.8412
▁Meeting	-8.8345
▁room	-9.8783
▁يعني	-9.6092
▁return	-9.0112
▁1994	-9.9633
▁وطنية	-8.8730
▁currently	-8.8973
▁Code	-8.9849
▁face	-9.4663
▁القلق	-8.8582
▁remain	-8.8715
▁contribution	-8.8525
▁غرفة	-9.3422
▁وحدة	-8.9713
▁يزال	-8.9980
▁الأجل	-8.8675
▁climate	-8.9673
يس	-9.8849
▁commitments	-8.8653
حي	-10.6148
▁ولاية	-8.9282
▁Agreement	-8.7847
▁سيدي	-10.1516
فت	-9.7893
▁جنيف	-8.8880
▁recognized	-8.9081
▁referred	-8.8323
▁m	-10.8299
▁الاعتبار	-8.8401
▁للبلدان	-8.8234
▁w	-11.3081
▁quality	-8.9689
▁rural	-8.9149
\\	-13.3382
▁فعلت	-11.4341
▁الان	-10.5914
▁فرص	-9.0306
▁officials	-8.9979
▁القوات	-8.9700
▁Europe	-8.9998
▁functions	-8.9505
وق	-9.7433
▁با	-9.3349
▁48	-9.4239
▁brought	-9.2315
▁قرارات	-8.8098
▁transfer	-8.8945
ary	-10.1381
▁الدائمة	-8.9238
▁recommends	-8.9265
▁alia	-8.8739
▁الكونغو	-8.6658
▁less	-9.1527
▁crimes	-8.9610
▁النقل	-8.8591
▁concerns	-8.9047
▁submit	-8.8481
▁الطلب	-8.9070
▁processes	-8.9320
▁للغاية	-9.5984
▁Right	-10.2913
▁رصد	-8.9514
▁st	-11.3784
▁المحددة	-8.8566
▁labour	-8.9618
▁القوانين	-8.8850
▁بيد	-8.9805
▁أمور	-8.9674
اط	-9.7797
آ	-10.7440
▁ye	-11.1352
▁enough	-10.3117
▁مؤسسات	-8.8818
▁المقررة	-8.8906
▁مشكلة	-9.3572
▁الب	-9.8059
▁الماضي	-9.0045
▁happened	-11.2247
▁later	-9.3349
▁يشكل	-8.8638
▁1997	-9.6763
▁mo	-11.9852
▁Then	-10.8238
▁السادسة	-8.8497
▁increasing	-8.9191
▁head	-9.9772
▁pre	-9.4044
.4	-9.4510
▁t	-10.8467
▁below	-8.9510
▁heard	-9.7342
▁k	-11.3123
▁القانوني	-8.9105
N	-10.1298
▁يمكنني	-12.6576
▁final	-8.9794
▁drug	-9.0477
▁former	-8.9724
▁لمدة	-9.1797
▁workers	-8.9945
▁articles	-8.9173
▁وإعادة	-8.8317
▁التقييم	-8.9243
▁شكل	-8.9558
▁هيئة	-8.9932
▁5.	-11.1534
▁وتنفيذ	-8.9100
▁الموضوع	-8.9890
▁Protection	-8.9989
▁exercise	-8.9193
▁عرض	-9.0305
▁للمرأة	-8.9472
▁مختلفة	-9.0347
▁detention	-9.2344
▁معظم	-8.9719
▁mother	-10.1522
▁38	-9.4282
▁reference	-8.9118
▁رسمية	-8.9258
▁البرنامجية	-8.8886
▁Forum	-8.8533
▁محكمة	-8.9629
حسن	-11.0953
حاء	-9.0369
▁نيويورك	-8.9847
▁asked	-9.3368
▁تقريرا	-8.8986
▁Public	-9.0892
▁تطوير	-8.9068
بت	-9.9656
▁البيئية	-9.0375
▁bad	-11.1365
▁الجهات	-8.9657
بر	-9.7636
▁سواء	-8.9499
la	-10.5813
▁changes	-9.0678
▁لمنع	-8.8671
ies	-10.7436
قت	-9.8244
de	-10.2617
▁السياسي	-8.9064
هذا	-12.6340
▁وأنا	-11.0843
ure	-11.1852
▁باسم	-8.8732
ne	-10.4566
▁start	-9.7875
▁remains	-8.9358
▁overall	-8.9721
▁territory	-8.9213
▁العادية	-8.9175
يب	-9.9731
▁السودان	-8.9620
▁المركز	-9.0002
▁presented	-8.9462
▁soon	-9.3746
▁Co	-9.9915
▁يجوز	-8.8106
▁معالجة	-8.8923
▁First	-9.0923
▁بينما	-9.2322
▁الطبيعية	-8.9056
▁وست	-9.0980
▁crisis	-9.0602
▁u	-12.6484
▁move	-9.7238
▁42	-9.4109
▁Sudan	-8.9403
▁benefits	-8.9802
▁ز	-9.8663
▁UNCTAD	-8.9149
▁Institute	-9.0199
▁الآراء	-8.8568
▁مجموع	-9.1625
▁items	-8.9939
▁wrong	-11.1206
▁المتاحة	-8.9696
▁المتعددة	-8.9698
▁الشخص	-9.3658
▁multilateral	-8.9216
دين	-9.7389
▁العدل	-8.9380
▁Unit	-9.0372
AIDS	-8.7160
v	-9.8220
▁التقني	-9.0152
▁times	-9.5137
▁claims	-8.9541
me	-10.6229
▁ط	-9.4524
▁conference	-9.0157
▁ويجب	-8.8183
▁communications	-9.0882
▁وظيفة	-9.1374
▁preparation	-8.9679
▁للألفية	-8.9127
▁team	-9.4243
▁trying	-10.8130
▁Support	-9.1082
▁officers	-9.1086
▁lead	-9.0864
▁father	-10.3986
O	-10.2684
▁outside	-9.3396
▁اجتماعات	-9.0118
▁media	-9.0958
▁القوة	-9.0879
5	-9.4889
▁الأفراد	-9.0263
اص	-9.9984
▁1996	-9.8822
▁al	-9.8650
▁الاستثمار	-8.9498
▁المقترحة	-8.9752
▁kill	-11.5797
▁provisional	-8.9391
▁purposes	-8.9348
▁وتقديم	-8.9760
▁الخ	-10.0302
▁مؤخرا	-8.9645
▁medical	-9.2038
▁en	-10.6647
art	-9.8022
▁informal	-9.0005
▁identified	-8.9898
▁وبعد	-9.0876
▁ممكن	-9.0444
▁sub	-9.2313
▁value	-9.0052
▁ممارسة	-8.9728
▁جيم	-9.1639
▁41	-9.4793
▁Section	-9.0331
▁تكن	-9.6066
▁الوارد	-8.8807
▁Crime	-8.9050
▁نهج	-8.9297
▁نفسها	-9.0533
▁participate	-8.8840
R	-10.0777
▁تقول	-10.4237
▁positive	-8.9820
▁outcome	-8.9495
▁47	-9.4888
▁fight	-9.3728
▁Of	-9.8919
▁conducted	-9.0658
▁either	-9.3098
▁الجنسي	-8.9819
▁الإطار	-8.9732
▁قدرة	-8.9818
▁دراسة	-8.9685
▁integrated	-8.9946
▁Because	-10.6315
▁وعدم	-8.9699
▁sessions	-9.0791
▁fine	-10.7270
▁الوضع	-9.0314
▁51	-9.5007
▁Since	-9.1135
▁قرارها	-8.9013
▁Regional	-9.1261
▁i	-10.2286
▁قطاع	-8.9934
▁لدعم	-8.9942
▁Foreign	-8.9841
▁paragraphs	-8.9947
▁substantive	-8.9719
▁sent	-9.3321
ion	-10.4084
▁الأسرة	-9.0383
▁compliance	-8.9666
▁views	-8.9765
▁direct	-9.0506
▁فعالة	-8.9224
▁Congo	-8.7307
▁killed	-10.0747
▁entities	-9.0067
▁نشر	-8.9581
▁low	-9.1726
▁bit	-12.4745
▁المجالات	-8.9352
▁share	-9.0782
▁قامت	-9.0576
year	-9.1358
وه	-9.9391
▁الحالي	-8.9925
▁المقدم	-8.9721
ذر	-11.2479
▁قتل	-10.3564
▁44	-9.4508
▁judicial	-9.0468
▁السابق	-9.0967
▁قوة	-9.1661
عود	-11.0573
▁torture	-9.2610
▁المسؤولية	-8.9009
▁أبي	-11.5742
يئ	-10.7977
▁Health	-9.0519
▁internal	-9.0741
▁النووي	-9.1224
▁المال	-9.8488
با	-10.4425
▁الجميع	-9.9022
▁تشجيع	-8.9258
▁Agency	-9.0671
▁الجرائم	-9.0187
"،	-8.4898
كي	-10.3241
▁شبكة	-8.9948
رات	-9.6704
▁achieved	-8.9678
▁talking	-12.0231
▁using	-9.1775
▁Environment	-9.1035
▁منهم	-9.6984
▁الفرعي	-9.0970
vi	-10.5378
▁indicated	-9.0218
لك	-10.8987
▁توجد	-9.1187
▁Canada	-8.9656
▁dead	-11.0332
▁institutional	-9.0622
▁القدرة	-8.9881
▁Japan	-8.9645
▁circumstances	-8.9800
os	-10.6968
te	-10.4270
co	-10.2860
related	-9.0462
▁بطريقة	-9.1389
▁UNICEF	-8.9175
▁43	-9.4712
▁وبرنامج	-8.9901
▁sh	-12.3694
▁big	-11.6451
▁Constitution	-9.1713
▁ask	-10.4368
▁قضايا	-9.0110
▁وفد	-8.9050
▁49	-9.4722
▁De	-10.3009
▁أصحاب	-9.0755
▁الإعلان	-8.9632
▁المناسب	-9.1296
▁went	-10.3190
▁آلية	-8.9776
▁مذكرة	-9.0563
▁someone	-11.2219
▁woman	-9.9218
▁الفلسطينية	-8.7874
one	-10.4361
▁hold	-9.5002
▁معينة	-8.9704
▁قيد	-9.2042
▁primary	-9.0272
▁الظروف	-8.9834
▁safety	-9.0859
▁enable	-8.9867
▁مناطق	-9.0013
▁itself	-9.0258
▁التعذيب	-9.1410
▁بأي	-9.2604
▁الطريق	-9.6764
▁قضية	-9.0138
▁enforcement	-9.0227
▁الأقل	-9.3776
▁الباب	-9.5200
▁الل	-10.6425
▁الرئيسي	-9.0821
قد	-9.3682
▁دورة	-9.0759
▁الإنساني	-8.9119
▁integration	-9.0664
son	-11.0651
▁تنظر	-9.1663
▁46	-9.4907
▁الروسي	-9.0025
▁فإنه	-9.0773
▁calls	-9.1352
▁ways	-9.0626
▁ومنظمة	-9.0139
▁Political	-9.0799
▁ongoing	-9.0199
▁ضوء	-9.0571
▁معا	-9.5877
ra	-10.4142
فر	-10.2774
Rev	-9.6570
▁مزيد	-9.0587
▁الحوار	-8.9257
ance	-10.8052
▁المعاهدة	-9.0248
▁بحق	-9.7957
▁Children	-9.0488
▁(2)	-9.1845
▁أول	-9.5385
▁Peace	-9.0552
.7	-9.7196
▁التوصل	-8.9300
▁بإ	-10.2528
▁looking	-10.9570
▁المملكة	-8.9453
▁stay	-10.5871
ma	-10.7291
▁مقابل	-9.2382
▁يشمل	-9.0025
▁الوكالة	-9.0410
▁معدل	-9.1364
▁resource	-9.1093
▁الجمهورية	-9.0692
▁claim	-9.0540
▁المدنيين	-8.9166
▁فهم	-9.5957
ow	-11.3382
على	-9.8584
▁6.	-11.2745
▁انتشار	-8.9211
▁objective	-9.0123
▁infrastructure	-9.0762
وت	-9.7430
▁effectively	-9.0206
▁المجموعة	-8.9785
▁whose	-9.1015
▁Any	-9.9304
Y	-10.5261
▁expert	-8.9967
▁تستطيع	-10.1952
▁allow	-9.0626
▁آليات	-9.0227
▁families	-9.1296
▁proceedings	-8.9812
▁ستكون	-9.9794
▁مشاورات	-8.9708
▁توافق	-8.9832
▁تؤكد	-8.8687
▁material	-9.0989
▁idea	-10.4160
▁لكم	-10.2676
▁77	-9.5681
▁موجهة	-9.0591
▁require	-9.0782
▁else	-11.4779
▁Party	-8.9285
▁situations	-9.0020
▁economy	-9.1339
ca	-10.8361
▁regions	-9.0764
▁effort	-8.9840
▁وبخاصة	-8.9902
▁لتقديم	-9.0493
▁administration	-9.1032
▁ago	-10.0167
▁الحقيقة	-10.2192
▁الفنية	-9.0701
حضر	-11.2139
▁strong	-9.1776
▁فعالية	-8.9884
▁Dr	-10.5217
▁son	-10.3478
▁الدفاع	-9.0955
▁البحرية	-9.0892
▁Force	-9.1309
▁تنمية	-9.0375
٠٠	-11.4206
▁combat	-9.0242
▁centres	-9.1407
▁المت	-9.4881
▁مجرد	-9.9024
▁Here	-11.0865
▁الف	-10.1789
▁أننا	-9.9374
▁وحماية	-8.9807
▁revised	-9.0801
▁قواعد	-9.0119
im	-10.8583
▁المعنون	-9.0186
▁مبادئ	-9.0217
▁reduce	-9.0821
▁sound	-9.8173
▁الجنسية	-9.1124
▁وليس	-9.3131
▁ونحن	-9.0684
▁Recalling	-8.9584
▁effects	-9.0966
▁موضوع	-9.0764
▁وكانت	-9.1176
▁civilian	-9.0970
دا	-9.9514
4	-9.5933
▁الرابع	-9.1303
▁themselves	-9.0857
▁ولل	-9.1194
▁نظم	-9.0386
ائي	-10.2830
عين	-10.3220
▁الخطة	-9.1095
رى	-10.5423
▁1990	-9.5517
▁actually	-10.4355
by	-10.3055
▁تاريخ	-9.0980
▁American	-9.3481
▁أهداف	-9.0221
▁1993	-10.1465
▁Such	-9.0562
عني	-12.0401
▁الألغام	-9.1257
x	-10.2956
▁El	-9.5291
▁الشعب	-8.9270
▁term	-9.1062
▁الأهمية	-8.9889
▁السياسة	-9.1400
▁throughout	-9.0732
▁بكل	-9.5271
▁الأمنية	-9.0623
▁thank	-9.3056
▁Wa	-11.7892
▁dis	-11.0295
▁حاجة	-9.1217
▁بيان	-9.0765
▁معي	-11.0506
tion	-10.8151
▁table	-9.1957
um	-10.9041
رب	-10.1155
▁saw	-10.6109
▁governance	-9.0420
▁getting	-11.4826
▁العليا	-9.1693
▁الأحكام	-8.9967
▁hell	-13.3058
▁UNEP	-9.2794
ad	-10.5947
▁للسكان	-9.1421
▁active	-9.0708
▁Also	-9.0633
رين	-10.4169
▁المقر	-9.1889
▁Afghanistan	-8.8902
▁التركيز	-9.1260
▁المكان	-10.6229
▁والعشرين	-8.9673
▁ظل	-9.1752
▁higher	-9.2137
▁الرجال	-9.6090
▁مؤرخة	-9.1214
ري	-10.0563
▁المؤتمرات	-9.1354
▁benefit	-9.0378
▁العدالة	-9.1290
خبر	-11.1082
▁ذوي	-9.5510
▁poor	-9.2147
▁كفالة	-9.0284
▁side	-9.6649
▁www	-9.6955
اذ	-9.9043
▁إذن	-10.6408
▁جرى	-9.1580
nd	-9.7943
▁الأولوية	-9.0228
▁debt	-9.0848
▁خط	-9.7714
▁نظرا	-9.1296
▁فرصة	-9.3627
▁53	-9.5764
از	-9.9196
▁العنصري	-9.0173
▁elements	-9.0728
▁الخارجي	-9.0063
▁حلقة	-9.1012
▁تضطلع	-9.0666
▁يعمل	-9.4602
▁58	-9.5808
▁الوظائف	-9.1841
▁0	-9.6804
▁initiative	-9.0165
وع	-9.3466
▁استمرار	-9.0569
▁prior	-9.0685
▁operation	-9.1564
▁التحقيق	-9.2710
▁العاملة	-9.1116
age	-10.3468
▁النار	-9.8352
▁France	-9.0873
▁أمريكا	-9.2588
▁تأكيد	-9.1517
▁لديها	-9.5178
▁النص	-8.9840
é	-10.4101
▁55	-9.5635
▁هيئات	-9.1135
▁Services	-9.1879
▁improving	-9.1071
▁sources	-9.1264
▁estimated	-9.2152
▁ex	-10.2829
▁لحماية	-9.1160
▁critical	-9.1055
▁y	-10.9705
▁rather	-9.2933
ence	-10.9149
رف	-10.3001
▁الشباب	-9.2413
▁إصلاح	-9.0830
▁نظر	-9.1834
▁52	-9.5608
▁الاقتصاد	-9.1646
▁وسوف	-9.2882
▁discussions	-9.1158
▁إيجاد	-9.2138
▁المؤقتة	-9.0576
▁Countries	-9.1180
▁والد	-10.7287
▁أبدا	-11.0194
▁invited	-9.1518
W	-10.2980
▁وإذا	-9.1839
▁منظمات	-9.1202
▁آثار	-9.1040
▁والذي	-9.2156
▁بحلول	-9.1537
▁Korea	-9.1549
.8	-9.7820
▁بينها	-9.1065
▁Caribbean	-9.1475
▁الهادئ	-9.1525
▁welcomed	-9.1454
The	-8.8693
responsibilities	-9.0808
▁Be	-10.3754
▁reason	-9.5672
▁difficult	-9.1902
▁2005.	-9.4727
▁travel	-9.3336
▁قاعدة	-9.1484
▁Civil	-9.2142
▁منح	-9.2227
▁India	-9.1948
▁الأوروبية	-9.0713
▁Great	-9.4240
▁وهذه	-9.1834
▁الالتزامات	-9.0668
▁بوصفها	-9.0405
▁يت	-9.8398
▁الدوليين	-9.0463
▁wait	-11.6839
▁sectors	-9.1753
▁1,	-9.3372
ty	-11.0335
▁الغ	-10.2059
▁متابعة	-9.1266
▁للقانون	-9.1101
▁developments	-9.1966
▁abuse	-9.1277
▁Discrimination	-9.1361
▁paper	-9.3499
▁سعيد	-11.5456
▁وإدارة	-9.1574
el	-10.7333
▁جميعا	-9.7817
▁تكنولوجيا	-9.0847
وف	-9.6375
▁الأمور	-10.0230
▁rates	-9.2513
صدق	-10.8867
▁عاما	-9.4145
ke	-11.3327
ts	-11.0963
▁half	-9.6489
▁debate	-8.9950
▁الطوارئ	-9.2314
▁interests	-9.1075
ny	-11.5774
▁القضية	-9.2931
▁مراكز	-9.2134
مر	-10.2529
▁priorities	-9.1377
▁الاقتضاء	-9.1008
▁guidance	-9.2042
▁ووفقا	-9.1085
▁assets	-9.0742
▁late	-9.9890
▁trust	-9.6582
▁اس	-10.5591
▁ready	-10.0566
▁الكوارث	-9.0697
▁participants	-9.1526
llo	-13.5260
▁كوريا	-9.2000
op	-11.0454
▁تقرر	-8.9359
▁h	-11.6741
▁تلاحظ	-9.0939
▁words	-9.1392
▁المناقشة	-8.9421
ian	-10.6632
▁effectiveness	-9.0982
mo	-10.6921
▁appreciation	-9.0190
خت	-10.8059
▁سبل	-9.1032
6	-9.6125
▁Child	-9.1990
ائل	-9.7154
▁hard	-10.2840
▁بدور	-9.0857
سون	-10.6201
▁توقف	-10.8567
▁7.	-11.2954
▁المناسبة	-9.1288
▁According	-9.2406
▁لأي	-9.3547
▁والاتصالات	-9.1084
▁Administrative	-9.1998
▁وثيقة	-9.0990
▁safe	-9.7700
▁regulations	-9.1669
▁فال	-9.2028
▁وعلاوة	-9.1732
▁الالتزام	-9.0128
▁peaceful	-9.1788
▁رأس	-9.7937
حت	-10.2863
▁introduced	-9.1512
▁الأم	-9.6750
▁specialized	-9.1854
▁توفر	-9.0984
lo	-10.9219
▁range	-9.2267
قة	-9.7968
▁يؤدي	-9.1283
▁65	-10.0625
V	-9.9393
▁threat	-9.1730
▁try	-10.6155
▁تغير	-9.3089
▁comments	-9.1045
▁المشاكل	-9.1957
▁اللاتينية	-9.2241
▁بلد	-9.1187
▁maintenance	-9.2809
▁لأنه	-9.7394
▁جميل	-12.4532
الإيدز	-8.8636
▁2,	-9.3831
▁النهج	-9.0677
▁friend	-11.5002
▁activity	-9.1365
منصوص	-9.1564
▁الماضية	-9.3360
▁legislative	-9.1883
يح	-9.6930
▁والثقافية	-9.0888
▁الصين	-9.2711
▁الفقرات	-9.0893
▁remember	-11.3506
▁continues	-9.1655
▁boy	-11.9493
▁أداء	-9.1787
▁قدمت	-9.2084
▁extent	-9.0956
▁القواعد	-9.1318
▁تت	-10.1101
▁قوات	-9.1654
▁معايير	-9.1283
▁indicators	-9.1758
▁visit	-9.4757
ill	-11.1778
▁run	-10.3532
▁لديه	-10.5577
▁للعمل	-9.2823
▁المعاهدات	-9.0434
▁شاملة	-9.1161
▁universal	-9.2604
▁elections	-9.1422
▁relation	-9.2500
▁continuing	-9.1414
▁Requests	-9.0734
▁تتخذ	-9.0988
▁دورته	-9.1071
▁وبالإضافة	-9.2058
▁according	-9.1985
لع	-11.0655
▁Or	-11.2541
▁أثر	-9.2085
▁الفئة	-9.1882
▁near	-9.4965
▁collaboration	-9.2131
▁achieving	-9.1336
ia	-10.5821
▁الكيميائية	-9.2168
▁Second	-9.1957
▁كانوا	-9.8558
▁السلم	-9.4032
se	-10.8730
▁الثامنة	-9.2504
}	-12.5579
▁مبلغ	-9.1961
▁فئة	-9.2507
▁لبرنامج	-9.2071
▁والت	-9.5963
▁احتياجات	-9.1832
▁مناقشة	-9.0678
▁المرحلة	-9.1614
▁emergency	-9.3271
▁du	-10.5252
▁paid	-9.3382
▁قدر	-9.2765
▁air	-9.5805
▁obligation	-9.0751
مفوضية	-9.2026
8	-9.6234
▁الوحيد	-9.9347
▁شركة	-9.3013
▁الأداء	-9.2385
▁displaced	-9.2033
عي	-10.0186
▁64	-10.1169
▁turn	-9.9242
▁Room	-9.3343
▁مجددا	-9.7063
▁ad	-9.8826
▁alone	-10.1423
تعلم	-11.3290
▁الرقابة	-9.0367
▁twenty	-9.1029
▁يمكننا	-10.5630
ء	-10.4112
▁إدراج	-9.0595
▁scope	-9.1556
كت	-10.4026
▁transition	-9.2252
▁terrorist	-9.0262
▁materials	-9.2717
▁وهناك	-9.2505
سر	-10.1286
▁Disarmament	-9.2535
ling	-10.4906
min	-11.3765
ci	-10.9613
▁ولذلك	-9.1161
▁التحضيرية	-9.0720
.9	-9.8987
لقد	-11.8356
SR	-10.0423
▁capital	-9.2762
▁follows	-9.1705
▁se	-11.1900
▁read	-9.5446
▁تنص	-9.1508
▁ثانيا	-9.2141
▁#	-10.8665
▁Sustainable	-9.2509
▁relations	-9.2008
▁transport	-9.1698
▁technologies	-9.1838
▁religious	-9.2444
▁plenary	-9.2549
▁anti	-9.3522
▁West	-9.3231
▁لمؤتمر	-9.2087
▁يطلب	-9.1930
▁ٱل	-7.5399
▁ذا	-10.5947
wan	-11.8649
ترك	-10.8713
▁true	-9.8282
▁كبيرا	-9.2173
▁Latin	-9.3175
▁70	-9.8579
▁sex	-9.6968
▁Draft	-9.0957
قتل	-11.2325
▁تتضمن	-9.1286
▁تحتاج	-9.8328
▁apply	-9.0985
13	-10.0017
▁create	-9.2376
▁صنع	-9.4195
▁complete	-9.2934
در	-9.9534
▁المخصصة	-9.1274
▁قيام	-9.1635
▁2005,	-8.9298
▁vulnerable	-9.2569
▁الإنترنت	-9.1564
▁voluntary	-9.2140
▁الآثار	-9.2023
▁الانتشار	-9.1245
▁makes	-9.9374
▁opinion	-9.2493
▁قليلا	-11.2321
▁وخاصة	-9.0671
▁investigation	-9.4739
ig	-11.1377
▁Education	-9.2715
بار	-10.6665
▁addressing	-9.1828
▁Headquarters	-9.2651
▁periodic	-9.3054
▁مشتركة	-9.1972
▁السبب	-9.7727
▁أفغانستان	-8.9899
▁التكنولوجيا	-9.2231
▁وظائف	-9.2752
▁يمثل	-9.1770
▁المعاملة	-9.2277
▁احترام	-9.1667
▁UNHCR	-9.2925
▁includes	-9.2452
▁build	-9.2920
▁الوحدة	-9.2848
▁تمثل	-9.1747
▁associated	-9.1967
▁كامل	-9.2934
ick	-11.9300
▁La	-10.2580
j	-9.9096
▁stakeholders	-9.3430
▁identify	-9.2258
▁الريفية	-9.1992
▁مرحلة	-9.2092
/1	-9.6603
▁methods	-9.1965
▁along	-9.5402
▁الاختياري	-9.2664
▁lost	-10.2159
دم	-9.9425
▁الأن	-11.2174
▁المقترح	-9.1689
ثق	-10.3500
▁التاسعة	-9.2654
▁delivery	-9.2683
▁تقريبا	-9.4937
▁الشركات	-9.2512
▁Give	-10.0888
▁ووضع	-9.2235
▁1-	-8.9282
J	-10.0957
▁encourage	-9.1288
dy	-11.6706
▁goods	-9.0878
▁البعثات	-9.2717
▁التحديات	-9.1697
▁جيدة	-10.4208
▁المدير	-9.3284
▁loss	-9.2920
▁البحث	-9.3497
▁وعن	-9.2116
▁step	-9.4477
سي	-10.3019
ine	-10.6562
▁وتم	-9.2579
▁الاهتمام	-9.1453
my	-11.6231
▁lives	-9.5574
▁disabilities	-9.5395
▁للأمين	-9.0912
▁بتنفيذ	-9.1951
را	-9.8523
راك	-10.8549
▁الشرقية	-9.0412
▁عليهم	-9.6953
▁جلسة	-9.2029
ضع	-10.5392
حة	-10.1449
▁University	-9.4434
▁الاستثنائية	-9.0303
▁Joint	-9.3128
▁السياق	-9.1480
▁ترى	-9.7377
▁تواصل	-9.2009
▁directly	-9.2734
▁Cuba	-9.1547
خرج	-11.2440
▁language	-9.2844
▁الوسطى	-9.3073
▁التصويت	-9.0892
▁كثير	-9.4758
▁أساسية	-9.1791
▁بدأت	-9.6797
▁Mexico	-9.1616
▁بحيث	-9.2031
▁بالطبع	-11.4325
▁السامية	-9.1245
▁treaties	-9.1819
زل	-10.7991
▁تعتقد	-11.1772
▁للمساعدة	-9.2071
▁schools	-9.3255
▁الميدان	-9.1744
▁الشرق	-9.1805
▁مسؤولية	-9.1093
▁السابعة	-9.1884
▁54	-9.6870
▁2006,	-8.9822
▁كافة	-9.1396
20	-9.9799
▁بالإضافة	-9.2680
-1	-9.7071
▁التوصية	-9.0844
▁موقع	-9.3653
قصد	-11.1182
[	-10.8849
▁establishing	-9.2156
▁events	-9.2777
▁stability	-9.0978
▁yourself	-11.5263
▁بالحقوق	-9.2172
لام	-10.4553
making	-9.2634
00	-10.5072
▁جمع	-9.2960
▁violation	-9.2970
▁أك	-11.2770
▁ابن	-10.5768
▁بنسبة	-9.3212
▁gave	-10.0260
▁علم	-9.6244
▁لإدارة	-9.2469
▁2006.	-9.6296
فاق	-11.0449
▁short	-9.5080
▁بحاجة	-10.1185
▁similar	-9.2523
▁١١	-10.1347
▁وبالتالي	-9.1915
▁English	-9.2690
علم	-10.9934
▁شأن	-9.2545
▁عزيز	-12.7969
▁8.	-11.4121
▁مرفق	-9.0923
▁Add	-9.6704
▁Furthermore	-9.2830
كن	-10.7544
▁تبادل	-9.2413
▁adopt	-9.2111
▁عما	-9.3693
▁56	-9.6923
▁consensus	-9.2116
▁سياسة	-9.2660
▁أساسا	-9.2886
z	-10.2949
▁الشعبية	-9.2837
▁يلزم	-9.1449
▁2-	-8.9685
▁jurisdiction	-9.2871
▁الر	-10.3489
▁Goals	-9.2709
▁saying	-10.5680
▁الصادر	-9.1688
▁فكرة	-10.4635
▁Islamic	-9.2543
▁بتقديم	-9.1957
▁طرف	-9.1538
▁physical	-9.3255
▁Iran	-9.2472
▁led	-9.3367
▁record	-9.1030
▁للبيئة	-9.2888
▁destruction	-9.1563
▁balance	-9.3067
▁الأونكتاد	-9.1754
▁العقد	-9.2155
way	-11.4294
▁reached	-9.2327
▁receive	-9.2482
وني	-10.8329
▁ground	-9.3716
▁التقليدية	-9.2149
▁والمؤسسات	-9.2128
▁aid	-9.2547
▁Inter	-9.4370
▁وق	-9.5949
▁خطط	-9.3635
11	-10.0829
▁١٠	-10.0386
▁carry	-9.3575
▁2005،	-8.8965
▁ات	-10.0577
▁قبيل	-9.2556
▁morning	-10.5021
30	-10.0321
▁لصالح	-9.2965
▁Thanks	-12.0201
▁Persons	-9.3848
▁parts	-9.3670
▁applied	-9.2832
▁والأ	-9.8478
▁حدود	-9.2696
▁معه	-10.5483
▁الإعاقة	-10.0719
▁courts	-9.3458
▁البيان	-9.1894
▁57	-9.7828
▁settlement	-9.2639
▁knew	-11.3550
▁creation	-9.2387
▁القرن	-9.3078
▁Those	-9.4744
▁baby	-12.2147
حتاج	-11.6912
▁يتضمن	-9.1582
▁قالت	-9.6799
▁welcome	-9.2202
▁طلبت	-9.5246
▁إضافة	-9.2431
▁المجتمعات	-9.2523
▁French	-9.3155
▁ضحايا	-9.2829
▁كافية	-9.3156
▁encouraged	-9.2508
▁شعبة	-9.3051
▁Ad	-9.5741
حم	-10.6313
_	-9.9386
▁الغربية	-9.2766
▁permanent	-9.3228
▁2004,	-8.9573
▁distribution	-9.3197
▁Chief	-9.3831
▁2004.	-9.6780
▁2002,	-9.0503
ذي	-10.8274
▁contract	-9.1707
▁جعل	-9.6970
▁والخدمات	-9.3326
▁المقبلة	-9.2723
▁الشمالية	-9.2904
▁الصراع	-8.7543
▁80	-9.9686
▁Germany	-9.2006
▁الدراسة	-9.2401
▁Ex	-11.6288
▁fun	-12.8537
▁يقول	-9.8681
▁الد	-10.3922
▁wife	-10.4610
▁mine	-9.9584
عب	-10.4142
▁الانتخابات	-9.2711
▁الكاريبي	-9.3202
▁المبلغ	-9.3180
▁السنوية	-9.3373
▁أل	-10.8867
▁maybe	-13.4476
AL	-10.9852
▁consultation	-9.3232
▁conferences	-9.3180
▁البحار	-9.2680
▁رب	-10.6655
وك	-10.5028
▁والبلدان	-9.1649
▁across	-9.6357
for	-9.9121
رح	-10.1255
▁2008.	-9.8144
▁After	-9.6048
▁طفل	-10.1593
▁حب	-11.7040
▁citizens	-9.3711
▁regime	-9.2495
▁supporting	-9.3154
▁cover	-9.5175
▁2003,	-9.1319
▁fund	-9.3331
▁relationship	-9.3865
▁improved	-9.3220
▁single	-9.4943
▁مقر	-9.5157
حصل	-11.4040
▁week	-9.8420
▁central	-9.3284
▁partnership	-9.2275
▁أدناه	-9.2295
▁العضوية	-9.2745
▁serve	-9.2604
▁المتخذة	-9.2780
▁compensation	-9.3156
راء	-10.4949
▁القائم	-9.2447
▁المنشأة	-9.1244
▁nice	-13.8540
▁بجميع	-9.2190
▁Hi	-12.9314
▁لمجلس	-9.1070
▁known	-9.5988
▁ma	-11.7032
▁أنهم	-10.3981
▁longer	-9.6026
▁الختامية	-9.2861
▁2007,	-9.0740
▁Prevention	-9.2627
▁points	-9.3652
▁Vienna	-9.3347
▁تدريب	-9.3980
▁الليلة	-12.6863
▁submission	-9.2726
▁Legal	-9.3766
▁تقل	-10.2079
▁(1	-10.0719
▁عناصر	-9.2853
▁فوق	-9.8137
▁conflicts	-9.1426
▁وجمهورية	-9.1976
▁2007.	-9.7303
▁مقدمة	-9.2621
end	-11.3479
▁رغم	-9.3004
▁يجعل	-10.0073
نعم	-11.7505
▁سوى	-9.4551
▁reasons	-9.3240
▁signed	-9.3504
▁وأضاف	-9.2292
▁بت	-10.0750
sh	-11.2944
▁di	-10.7677
▁قائلا	-9.2562
di	-10.8082
▁طريقة	-9.8972
▁seek	-9.2941
▁فعلا	-9.7840
▁تعيين	-9.2408
▁practical	-9.2487
▁الاضطلاع	-9.2469
▁مستويات	-9.3428
▁القطرية	-9.2765
▁applicable	-9.2597
ريك	-11.0392
▁هكذا	-11.4960
▁أقول	-11.3104
▁sixty	-9.3104
▁حرية	-9.3723
▁وزيادة	-9.2753
▁الآخرين	-9.3112
▁Our	-9.7489
▁حصلت	-10.9628
▁لتحسين	-9.2629
▁أصبح	-9.7089
ac	-10.9056
em	-11.2087
est	-10.6217
▁جي	-11.1656
▁جزءا	-9.2823
▁وأعرب	-9.2522
▁المصلحة	-9.3317
▁عضو	-9.3398
▁التصدي	-9.2548
▁states	-9.2996
first	-9.1987
▁جملة	-9.2717
▁ظروف	-9.2807
حاول	-11.4177
▁raised	-9.3450
▁للتعاون	-9.2805
▁judges	-9.3457
▁المذكورة	-9.2497
مان	-10.1977
شي	-10.3989
7	-9.6432
▁الدستور	-9.3739
اي	-10.0164
▁لإ	-10.2944
▁تضع	-9.3995
▁90	-10.0291
▁Middle	-9.2708
body	-12.9702
▁المفاوضات	-9.2620
▁Table	-9.2930
▁Elimination	-9.2797
▁تغيير	-9.4545
مكن	-11.2549
iv	-10.0617
▁Optional	-9.3474
▁مبدأ	-9.2797
▁بالمرأة	-9.2736
▁2003.	-9.8618
ak	-11.0547
ous	-11.0330
▁dollars	-9.3209
لين	-10.5638
▁عديدة	-9.2528
▁positions	-9.4346
▁حساب	-9.4633
{	-13.0110
▁أعلى	-9.4781
له	-10.8940
▁المشار	-9.2340
▁created	-9.4181
▁طويلة	-9.6578
▁products	-9.3613
▁Although	-9.3469
▁فت	-10.0203
▁سبب	-10.0368
ha	-10.9855
▁الامتثال	-9.2245
▁2008,	-9.1935
▁Have	-11.2163
▁IV	-9.7395
▁almost	-9.8689
▁concluded	-9.2816
▁ففي	-9.2382
▁parents	-9.6201
▁جيدا	-10.4125
▁حدوث	-9.3641
▁الجنوب	-9.3918
▁structure	-9.3596
▁١٢	-10.0898
▁economies	-9.3810
▁الاستقرار	-9.2211
▁implications	-9.2897
▁أخذ	-10.0101
رام	-10.7678
▁حظر	-9.3330
▁clearly	-9.3686
▁Ireland	-9.1756
▁بوجه	-9.3252
▁بذل	-9.2271
▁باستخدام	-9.3565
ud	-11.3337
10	-9.8038
▁beyond	-9.4341
ho	-11.0873
▁الأجانب	-9.1877
▁المحاكم	-9.2978
▁البالغ	-9.3232
▁initial	-9.3480
▁والستين	-9.2824
▁Australia	-9.3197
▁إحدى	-9.4331
▁Syrian	-9.3806
▁تعال	-12.9006
▁9.	-11.4334
اث	-9.9146
▁majority	-9.3496
تا	-10.0763
▁housing	-9.4034
ut	-10.9010
▁الص	-10.2658
▁consistent	-9.3276
▁actors	-9.3039
جو	-10.9177
▁تدعو	-9.3019
▁factors	-9.3106
▁كوسوفو	-8.9441
-3	-9.8712
▁تكفل	-9.3092
▁respective	-9.3066
تني	-11.6232
▁Coordination	-9.3767
▁Pacific	-9.3803
▁illegal	-9.3318
▁reflected	-9.3305
▁personal	-9.5345
▁استنادا	-9.2958
▁2001,	-8.9463
▁leaders	-9.2977
-2	-9.8071
▁أشهر	-9.6375
▁covered	-9.3858
▁أصبحت	-9.7142
▁وزير	-9.2649
▁2000,	-8.9786
▁والاقتصادية	-9.3590
-4	-9.9181
▁الدراسية	-9.3166
per	-10.9433
▁2006،	-9.0036
▁بروتوكول	-9.2359
ينا	-10.7216
▁bilateral	-9.2943
▁guess	-14.0213
▁2002.	-9.7848
ge	-10.9505
▁task	-9.3437
▁العاملين	-9.3340
▁Lebanon	-9.1487
▁Federal	-9.4783
▁النطاق	-9.3332
▁خمس	-9.6301
▁الأوسط	-9.2661
▁أب	-11.1168
نتظر	-11.6511
▁_	-9.7271
▁presence	-9.3068
▁وتوفير	-9.3465
▁العلاقات	-9.3576
▁اعتمدت	-9.2740
▁advice	-9.5282
▁achievement	-9.2857
▁الذاتي	-9.3211
▁واسع	-9.3167
▁prison	-9.8368
ell	-11.3473
▁الطريقة	-9.9502
▁جزء	-9.6591
▁ترحب	-9.1710
▁الضروري	-9.2496
▁تحليل	-9.3731
كون	-10.4370
▁الميدانية	-9.4753
▁تعد	-9.5329
▁completed	-9.3976
مي	-10.2696
▁يشير	-9.3156
▁الفلسطيني	-9.1387
▁heart	-10.1191
▁التخطيط	-9.4193
كار	-10.7796
▁maintain	-9.3198
▁successful	-9.3282
▁قررت	-9.4329
▁59	-9.8193
▁مس	-10.6005
▁استعمال	-9.2635
▁66	-10.2211
▁consequences	-9.3182
=	-11.4303
▁كنا	-10.7638
▁وتحسين	-9.3429
▁تؤدي	-9.3077
▁Un	-10.3243
رق	-10.4991
▁requires	-9.3075
▁ethnic	-9.3865
▁takes	-9.6992
▁صلة	-9.3059
▁recently	-9.3987
لمعالجة	-9.2850
▁اللجوء	-9.3611
▁كال	-10.0543
▁الز	-10.4955
▁هامة	-9.2475
▁بوضع	-9.3825
▁المسؤولين	-9.3588
▁الغرض	-9.3098
أي	-10.3846
▁المخاطر	-9.4984
▁تعتبر	-9.3580
▁السنوي	-9.3788
▁efficiency	-9.4569
▁Administration	-9.3586
.1)	-9.7024
▁standard	-9.4171
▁الح	-10.2317
يع	-9.9633
▁المنزل	-11.3339
▁though	-9.8744
▁وقف	-9.4177
▁توسيع	-9.3476
▁القطري	-9.3354
▁illicit	-9.2439
▁موعد	-9.6927
▁انتهاكات	-9.4155
▁الإشارة	-9.3523
▁ميدان	-9.3289
▁بالتأكيد	-11.0337
▁السلع	-9.3618
▁المدارس	-9.3716
▁والأطفال	-9.2953
▁Distr	-12.0535
▁الفرع	-9.2876
▁mentioned	-9.3638
▁200	-9.8079
U	-10.4563
▁solution	-9.3531
▁Association	-9.4759
night	-12.9563
▁although	-9.4010
▁everyone	-10.2838
▁قيمة	-9.4202
less	-10.1995
▁St	-10.5968
▁للمجلس	-9.1374
▁المشورة	-9.4449
▁detailed	-9.3786
▁طوال	-10.1724
▁أدلى	-9.2719
▁suggested	-9.3351
▁عملها	-9.3611
▁اليونيسيف	-9.2455
بين	-10.2816
▁Territory	-9.3471
▁بن	-9.6309
▁63	-9.9205
▁word	-9.9509
▁external	-9.4330
://	-9.7072
▁67	-10.2459
▁challenge	-9.3549
▁goal	-9.3704
▁قدرات	-9.3945
▁مهمة	-9.4724
%	-10.1409
▁إنتاج	-9.3915
▁متى	-10.2958
ton	-11.0084
▁المتوقع	-9.4155
▁rest	-10.2334
Governing	-9.3346
-20	-10.7985
▁Y	-10.8241
ated	-11.0327
▁educational	-9.4076
▁اعتقد	-12.5505
▁أعرب	-9.2144
▁الموقع	-9.4429
▁2004،	-8.9884
▁أيام	-9.9408
▁Item	-9.4252
▁المهم	-9.4413
tic	-11.3939
▁stage	-9.4358
▁contact	-9.6619
ليس	-11.1580
▁الآخر	-9.8189
▁Note	-9.4387
▁قسم	-9.6789
▁event	-9.4255
▁اليابان	-9.3406
▁Nuclear	-9.4066
وية	-10.0249
▁fair	-9.7135
▁يد	-9.9512
تحدث	-11.5188
▁Guinea	-9.2257
▁الشيء	-11.1964
▁core	-9.4634
▁sanctions	-9.2998
no	-10.7010
▁الاتحادية	-9.4592
▁youth	-9.5006
▁supply	-9.4432
▁duty	-9.5519
▁عددا	-9.3520
▁وجدت	-10.6714
▁توجيه	-9.3630
▁الدخل	-9.4375
▁ذكر	-9.5218
مون	-10.4702
▁started	-10.1694
كما	-11.2307
▁مهل	-11.5294
▁victim	-9.9075
▁فيينا	-9.3928
▁دفع	-9.5081
▁الأغذية	-9.4283
▁61	-9.9179
▁observations	-9.4770
▁١٥	-10.0540
▁النفقات	-9.4562
ستطيع	-12.5509
▁أق	-11.5935
▁anyone	-10.9680
▁الوزراء	-9.3695
▁الرسالة	-9.4344
▁قانونية	-9.4013
▁approaches	-9.3869
▁الولاية	-9.4547
ting	-10.7641
▁المحيط	-9.4689
اري	-10.2675
▁AND	-10.6039
▁exploitation	-9.3330
▁للمادة	-9.3057
▁2002،	-9.1121
▁تيسير	-9.3553
▁procurement	-9.3740
▁صياغة	-9.3838
▁الرصد	-9.3380
▁حياة	-9.7028
▁والمجتمع	-9.2673
▁cause	-9.4980
▁sufficient	-9.3881
▁designed	-9.4336
▁المتخصصة	-9.3746
▁discussed	-9.3683
▁الحال	-9.7415
▁female	-9.5265
▁النظم	-9.3672
▁بنفس	-10.3244
▁حكومية	-9.3919
▁expenditure	-9.5568
▁remained	-9.4773
▁instrument	-9.2775
▁2003،	-9.1839
▁المساهمة	-9.3119
▁الط	-10.2742
▁Police	-9.6797
▁الصكوك	-9.2994
ga	-10.4282
▁المبادرات	-9.3219
▁وكما	-9.3078
▁مشاكل	-9.6023
▁قدره	-9.4294
▁بوصفه	-9.2173
▁مراجعة	-9.4310
▁3-	-9.1376
▁وإ	-9.9491
▁2001.	-9.6947
▁accountability	-9.5007
▁leadership	-9.3477
▁studies	-9.4359
▁2000.	-9.7333
▁Me	-11.4851
▁friends	-10.9569
▁2007،	-9.1113
▁beginning	-9.5608
▁border	-9.4572
▁الهجرة	-9.3661
▁units	-9.5984
▁الذ	-11.4870
▁يعد	-9.5871
▁Take	-11.2749
رك	-10.6669
amp	-11.8786
▁جزر	-9.4094
▁إصدار	-9.3681
▁المهاجرين	-9.4333
▁resulting	-9.4536
▁وسائل	-9.4015
▁et	-10.1026
▁civilians	-9.2895
▁الإسلامية	-9.3897
▁Brazil	-9.2969
ii	-9.5085
▁US	-9.8504
▁da	-11.5324
▁source	-9.4890
بال	-10.6667
▁gone	-11.3162
▁شامل	-9.3700
▁مصادر	-9.3799
▁المحتلة	-9.2654
▁mass	-9.4789
▁بالت	-10.0943
▁demand	-9.4756
▁North	-9.7143
▁ينص	-9.3394
▁phase	-9.4089
رو	-10.0225
انا	-11.0670
▁Sub	-9.4744
▁monitor	-9.4551
▁دال	-9.5154
▁trial	-9.6106
ations	-11.5123
▁سمعت	-12.1201
دون	-10.3209
▁Community	-9.3747
▁يوما	-9.8582
▁الذهاب	-12.0582
عمل	-10.5702
▁independence	-9.4412
▁المشكلة	-9.7079
▁says	-10.1135
65	-10.3712
90	-10.3211
▁sp	-11.7314
▁Members	-9.3750
▁الممكن	-9.6582
▁يعرف	-10.5630
▁الصادرة	-9.4061
▁الحادية	-9.3182
▁أوجه	-9.4561
▁وأنه	-9.4529
▁(19	-10.3276
▁2008،	-9.2238
▁والسياسية	-9.4223
دت	-9.9199
United	-9.2803
▁للأ	-10.4967
▁وأشار	-9.4092
▁بدلا	-9.6747
▁بدأ	-9.7430
▁بواسطة	-9.5281
▁اجل	-11.1368
▁إيران	-9.3947
يء	-11.3544
▁Le	-10.7282
▁التزام	-9.2892
15	-9.9737
▁بدء	-9.4107
▁الدين	-9.4834
▁المكاتب	-9.4571
12	-10.0335
▁des	-10.3171
▁للأطفال	-9.4119
▁العلمية	-9.4065
▁يزيد	-9.3863
▁ch	-11.5459
▁capacities	-9.4123
يتها	-9.7891
▁hu	-12.5485
▁Letter	-9.5176
▁العناصر	-9.3511
▁الفساد	-9.3806
all	-10.8720
▁criteria	-9.4479
▁تستخدم	-9.5441
▁reach	-9.5317
عدم	-9.9416
▁تعديل	-9.4061
▁زال	-9.5465
▁involving	-9.4170
▁بالغ	-9.5965
▁Con	-11.0504
▁inside	-10.5275
▁subregional	-9.4103
▁وحقوق	-9.3892
▁لمنظمة	-9.3791
▁أمانة	-9.3959
▁Kosovo	-9.0830
▁والمساعدة	-9.3904
وح	-9.6939
▁culture	-9.4753
▁تن	-10.0000
▁Her	-10.3091
▁ورد	-9.3933
▁تصبح	-9.6799
▁رئيسية	-9.4086
▁بسرعة	-10.1147
▁Moreover	-9.4264
▁مواد	-9.4756
▁زالت	-9.3946
▁العودة	-9.8477
▁وخلال	-9.4168
▁pretty	-14.1654
▁figure	-10.4596
▁خمسة	-9.7496
دان	-10.4355
▁وبال	-9.5985
▁urgent	-9.4390
▁فيروس	-9.2527
▁الاتصالات	-9.4897
▁scientific	-9.4954
▁الفرص	-9.4227
ish	-11.3391
▁cut	-10.7979
▁temporary	-9.5580
▁counter	-9.3792
▁Labour	-9.4686
▁بالانكليزية	-8.8117
▁partnerships	-9.3989
▁welcomes	-9.3549
▁ض	-10.4102
▁Pakistan	-9.3603
▁conclusion	-9.3608
▁ميثاق	-9.3434
▁الثقة	-9.4567
بات	-10.1214
▁والهرسك	-9.3995
ـ)	-9.3415
▁traditional	-9.4617
▁القاعدة	-9.4097
▁مدير	-9.6076
▁انتظر	-13.1688
رون	-10.4057
▁Policy	-9.5857
▁62	-9.9534
▁فأ	-10.3999
▁billion	-9.5923
▁يريد	-11.5025
▁هدف	-9.5706
▁honour	-9.4682
▁appeal	-9.4962
▁لوضع	-9.4403
▁cross	-9.6341
▁حركة	-9.5645
اض	-10.5655
▁Bosnia	-9.3956
الذي	-11.3631
▁city	-9.9649
▁success	-9.3769
▁minutes	-10.8537
▁urban	-9.5349
ism	-10.2670
ang	-11.1201
▁brother	-11.1089
▁دولارا	-9.5505
▁audit	-9.5210
▁extreme	-9.7329
▁كثيرة	-9.4814
▁الهند	-9.5682
شار	-10.7524
▁Sea	-9.6982
▁entire	-9.6957
▁كندا	-9.3738
▁أربعة	-9.7394
▁1992	-10.2520
▁mandates	-9.4191
خذ	-10.8681
▁أس	-10.7533
▁تبدو	-11.1729
▁entry	-9.4605
▁From	-9.8169
▁Like	-11.1943
66	-10.4358
▁Rwanda	-9.4601
out	-10.1678
▁recovery	-9.5047
▁ثانية	-10.5968
▁تسوية	-9.4355
فل	-10.7902
▁ممثلي	-9.3981
▁مناسبة	-9.4672
▁Somalia	-9.4297
▁متأكد	-12.4092
▁المتقدمة	-9.4326
ization	-9.8199
▁وتشمل	-9.4365
▁لكفالة	-9.3549
▁movement	-9.4898
قاتل	-11.6263
lt	-11.9594
▁negative	-9.5658
▁انك	-11.7510
▁اتفاقات	-9.4156
▁focused	-9.4970
▁الك	-10.4957
▁معدلات	-9.5186
▁disaster	-9.4638
▁Authority	-9.4438
▁اللغات	-9.3955
▁growing	-9.5371
ness	-10.0093
▁languages	-9.3133
ING	-11.1810
▁thinking	-11.0488
▁يبلغ	-9.5026
▁seven	-9.7210
▁stressed	-9.4305
▁المدرجة	-9.4738
▁للدولة	-9.4446
▁racial	-9.3998
▁ثمة	-9.4853
▁average	-9.6342
▁aim	-9.5086
كس	-10.6824
▁تواجه	-9.4433
▁أسلحة	-9.3956
▁جريمة	-9.6992
اني	-10.1037
▁الخصوص	-9.3703
▁500	-9.7656
▁زوج	-11.3008
▁أرجو	-12.0668
@	-10.1998
▁2009.	-10.3717
▁die	-11.2486
▁سكان	-9.4366
▁fire	-10.4794
▁intended	-9.4307
▁وكالات	-9.4259
▁Kuwait	-9.3723
▁والتكنولوجيا	-9.5404
▁كوبا	-9.4335
▁Third	-9.4392
▁prepare	-9.4829
▁نصف	-9.9647
rs	-10.5035
▁للطاقة	-9.4571
▁الأحداث	-9.4810
▁Sierra	-9.1566
▁آراء	-9.3632
اتفاقية	-9.3488
▁أردت	-13.0476
/20	-11.0347
▁والميزانية	-9.4755
▁ولقد	-9.6124
▁الشراكة	-9.3202
▁donors	-9.4294
▁إطلاق	-9.6105
les	-11.3241
▁التطورات	-9.4071
▁2001،	-9.0184
▁والبرامج	-9.4607
HRC	-10.4037
فق	-10.2988
▁construction	-9.5693
▁Two	-10.0822
mm	-11.7499
he	-10.9478
▁network	-9.5630
▁باب	-9.7835
▁الضحايا	-9.5282
▁UNFPA	-9.5842
▁Operations	-9.3975
▁freedoms	-9.4385
▁لبنان	-9.3174
▁نائب	-9.5484
▁summary	-9.5007
▁الصراعات	-8.9390
▁عبارة	-9.4160
▁Palestine	-9.4362
▁timely	-9.4497
▁conclusions	-9.4620
▁transparency	-9.5216
▁أنواع	-9.5315
▁statistics	-9.5682
▁المباشر	-9.4410
▁اعتمد	-9.3999
her	-10.2983
▁myself	-11.4450
▁والتدريب	-9.4966
▁دليل	-9.6545
▁Further	-9.4805
www	-9.7325
▁المشاورات	-9.4104
▁اللجان	-9.3723
▁involvement	-9.4447
▁للحصول	-9.6671
▁approval	-9.4754
▁تقريرها	-9.4421
▁مراقبة	-9.5091
▁Fifth	-9.4682
▁Weapons	-9.4235
ted	-11.2544
▁2000،	-9.0364
▁formal	-9.5451
▁بالنيابة	-9.4255
▁سيادة	-9.4509
▁يعتبر	-9.4735
▁أكون	-12.5473
▁توصي	-9.4615
▁كون	-10.1913
▁الأصليين	-9.4110
زي	-10.2867
▁المانحة	-9.4231
▁commercial	-9.5040
▁1991	-10.2122
▁المعهد	-9.4555
▁host	-9.5045
▁occupied	-9.4008
▁الشأن	-9.4190
دري	-11.0560
▁System	-9.5984
زم	-10.2967
▁avoid	-9.4981
▁phone	-11.9699
▁استراتيجيات	-9.4082
يتي	-10.5831
▁تأخذ	-10.0581
▁بهم	-10.0314
▁hands	-10.4995
▁ثالثا	-9.4913
خر	-10.5099
▁reflect	-9.4754
▁واللجنة	-9.4732
▁موجز	-9.6258
▁Rules	-9.4621
▁بأس	-11.6712
▁أطفال	-9.8925
قر	-10.2535
men	-10.8905
▁island	-9.7343
▁الدوري	-9.6408
▁الزراعية	-9.5224
جد	-10.6593
▁road	-9.8109
▁company	-10.0551
/63/	-9.6542
▁التشريعات	-9.4950
▁broad	-9.4807
▁التجاري	-9.4547
we	-11.0389
▁الدور	-9.4784
▁elected	-9.4895
▁تشعر	-10.2792
▁sense	-9.9987
▁Corr	-9.9225
▁Ambassador	-9.3776
▁Leone	-9.1727
▁democratic	-9.4468
▁الأخير	-9.6257
▁جد	-11.2015
▁Financial	-9.5448
▁ذاته	-9.4791
▁caused	-9.5270
▁wants	-11.8144
of	-9.9224
▁للت	-10.0495
▁فلا	-9.8716
▁الطبية	-9.6672
▁respond	-9.4880
▁alternative	-9.4756
▁المشمولة	-9.5908
▁الانتهاكات	-9.5073
▁absence	-9.5540
9	-9.6570
▁attacks	-9.4585
▁الجماعة	-9.3513
▁المشروعة	-9.3542
▁مالية	-9.4765
▁اقتراح	-9.4478
▁truth	-10.3310
كذب	-12.2723
حل	-10.3314
▁آ	-10.9021
▁الجنسانية	-9.4988
▁الانتقالية	-9.3619
▁مساعد	-10.6558
▁الخامس	-9.5654
▁لتلك	-9.4824
تذكر	-11.8467
▁ترك	-10.2784
▁والعدالة	-9.4846
▁الرسمي	-9.5355
▁month	-9.6941
▁بالأ	-10.7794
▁بقدر	-9.6407
▁Technical	-9.5916
▁followed	-9.6076
حب	-11.1809
▁مد	-9.9696
▁deployment	-9.5062
▁75	-10.0886
▁النزاع	-9.8368
▁اللازم	-9.5106
▁التصديق	-9.5317
▁possibility	-9.5502
▁cooperate	-9.4364
▁68	-10.3490
▁اهتمام	-9.4566
▁اله	-10.5755
▁Herzegovina	-9.4391
▁التنظيمية	-9.5021
▁closely	-9.4751
▁توزيع	-9.5604
▁confidence	-9.4959
▁جو	-10.4196
▁العدد	-9.5390
▁Cultural	-9.5136
▁قوانين	-9.4936
▁الجارية	-9.4505
40	-10.1865
▁مدة	-9.5920
المادة	-9.3604
ina	-10.9054
▁الإجمالي	-9.5832
▁دولي	-9.3912
▁Pro	-11.1152
▁رجال	-10.4293
▁dealing	-9.5466
▁بأنها	-9.8389
▁operating	-9.5939
▁شهر	-9.6632
▁Chair	-9.8931
▁النهائي	-9.4845
▁improvement	-9.5222
▁Research	-9.6069
▁offer	-9.7107
▁forty	-9.6385
▁إدماج	-9.4775
▁speak	-10.0575
▁تساعد	-9.6479
▁الفرصة	-9.5177
▁فإنها	-9.5654
▁تقع	-9.6526
▁hurt	-12.3150
▁العمال	-9.5794
▁Egypt	-9.3797
▁تحيط	-9.3828
▁المستويات	-9.4858
60	-10.0857
hi	-11.3152
▁بخصوص	-9.9005
▁النهوض	-9.4796
▁behind	-10.4411
▁مش	-10.6328
▁sea	-9.6411
do	-10.7053
ial	-11.2202
زع	-9.9562
▁إقليمية	-9.4692
▁NGOs	-9.5132
▁تبلغ	-9.5985
▁حدة	-9.4374
▁دقيقة	-10.4089
▁مبادرة	-9.4744
▁حكم	-9.5216
▁skills	-9.6281
▁الصناعية	-9.6030
▁3,	-9.7580
▁useful	-9.5051
17	-10.0648
▁الموضوعية	-9.4888
اش	-10.1981
آن	-11.3854
▁حوالي	-9.7599
▁متعددة	-9.4952
▁target	-9.6944
▁واست	-10.0128
▁export	-9.4838
▁الواضح	-9.6853
▁شرق	-9.5711
▁كيفية	-9.6383
▁Officer	-9.8320
▁جرائم	-9.5995
شر	-10.2661
▁بلغ	-9.5925
▁أمن	-9.6383
14	-10.0932
▁Turkey	-9.4723
غي	-10.3899
▁ability	-9.5708
صف	-10.2543
▁multi	-9.5282
▁relief	-9.4833
▁مفهوم	-9.7344
▁lower	-9.7582
▁difficulties	-9.4903
▁electronic	-9.3768
▁الإضافية	-9.5046
▁refugee	-9.4998
▁ودون	-9.5048
▁Assistance	-9.5746
▁معها	-10.4193
▁door	-11.3988
if	-11.1605
▁assessments	-9.5890
▁يخص	-9.6759
▁damage	-9.5344
▁design	-9.6889
▁للموظفين	-9.6117
▁Netherlands	-9.4118
▁يكفي	-10.1975
mon	-11.4796
▁تذهب	-12.2798
▁بلا	-10.1220
weapon	-9.6047
▁دوليا	-9.4179
▁دائرة	-9.5281
لو	-10.4326
▁الإبلاغ	-9.5127
UN	-10.5054
▁للقضاء	-9.4576
▁المختلفة	-9.5139
▁ودعم	-9.5124
▁إي	-10.5537
▁بالمخدرات	-9.4315
▁الحكومي	-9.4940
ner	-11.0997
ster	-11.5839
▁cash	-9.9298
▁كاملة	-9.6568
▁السفر	-9.7154
▁concrete	-9.4703
ful	-10.9609
سن	-10.5130
▁Ho	-11.5246
▁جهودها	-9.4656
▁الموجودة	-9.5129
▁professional	-9.6575
نزل	-11.7610
▁measure	-9.5121
▁الخطوات	-9.4671
▁membership	-9.5276
▁تشجع	-9.4443
نون	-11.4498
▁enhancing	-9.5102
go	-11.0080
raz	-12.6477
▁ستة	-9.7919
▁haven	-12.4257
▁forced	-9.7109
▁rehabilitation	-9.5892
▁تحدث	-10.0356
▁الموافقة	-9.6165
▁بمن	-9.7034
▁مخ	-11.0402
▁والسيد	-9.2052
▁أعطي	-10.0135
▁عادة	-9.7010
▁الأقليات	-9.6117
▁ومنطقة	-9.6225
▁planned	-9.6945
▁expertise	-9.5429
يلي	-10.8875
▁conventions	-9.4995
▁تقريره	-9.4704
▁المبذولة	-9.4885
▁دولارات	-9.4629
▁الصومال	-9.5374
▁occupation	-9.4174
▁probably	-11.1832
يرا	-10.4793
▁immediate	-9.5360
▁Bureau	-9.5800
▁ميزانية	-9.5678
▁written	-9.6154
طلق	-10.6317
▁جاء	-9.9236
▁الأولية	-9.5985
▁الزواج	-9.7275
▁tools	-9.6403
▁لحفظ	-9.4733
▁معرفة	-9.9271
▁documentation	-9.5990
CONF	-10.2368
▁happy	-11.1083
▁كاف	-9.7791
▁described	-9.5476
▁فرنسا	-9.5180
▁تناول	-9.6646
▁forest	-9.6345
▁اعت	-9.7780
▁happen	-11.4168
▁companies	-9.6665
▁definition	-9.5094
وة	-10.7518
▁والإقليمية	-9.4908
▁undertake	-9.5210
▁عالم	-9.8585
▁الجوانب	-9.5041
▁holding	-9.7518
our	-11.1651
▁Islands	-9.5157
▁بلدا	-9.5207
▁committee	-9.5869
▁net	-9.6839
50	-10.3870
▁منزل	-11.1623
▁المؤرخة	-9.3684
▁علاقة	-10.1254
▁Vice	-9.5536
▁والأربعين	-9.6138
يها	-10.5696
▁likely	-9.6434
▁الملكية	-9.3798
▁الوعي	-9.5863
▁express	-9.4209
▁جوانب	-9.4819
▁تعميم	-9.5259
رار	-10.4916
▁إنفاذ	-9.5082
▁ملايين	-9.6228
بط	-10.6721
▁والتعليم	-9.5286
▁encourages	-9.5048
▁المس	-10.4783
▁مج	-11.3022
pe	-11.5393
▁نظرت	-9.5974
▁وحتى	-9.6568
▁origin	-9.5050
▁marriage	-9.7150
▁أماكن	-9.7290
▁العنصرية	-9.3870
▁الناشئة	-9.5878
▁الملحق	-9.2054
resolution	-9.5738
▁concept	-9.5936
▁actively	-9.5125
عتقد	-11.9349
/201	-12.4549
هو	-11.1251
▁الأساس	-9.5857
▁leading	-9.6047
▁جامعة	-9.6619
▁السلمية	-9.4789
▁despite	-9.6149
▁المناقشات	-9.5141
▁تحمل	-9.8949
▁extended	-9.5789
مسألة	-9.4516
▁أربع	-9.8319
سل	-10.3741
▁رد	-9.8136
▁والعمل	-9.5712
▁الجماعية	-9.4779
▁agricultural	-9.6169
▁المستقلة	-9.6078
▁أعد	-10.4895
تكم	-10.5780
▁١٣	-10.2504
▁minimum	-9.6113
▁generally	-9.5345
▁Stop	-12.9967
▁التشريعية	-9.5577
▁رأيت	-12.5935
▁Western	-9.6436
▁٢١	-10.8057
▁hit	-11.5179
80	-10.2764
gu	-11.4475
ضحك	-13.0837
▁كلمة	-9.7546
▁inform	-9.6207
▁الاتفاقات	-9.5115
▁model	-9.7316
▁مؤسسة	-9.6210
▁ديفوار	-9.5675
▁markets	-9.6479
▁weeks	-10.0940
▁floor	-9.7527
▁الوفاء	-9.4657
▁Italy	-9.4920
▁offences	-9.6341
▁Strategy	-9.5418
▁Experts	-9.6348
▁Yugoslavia	-9.6740
▁Territories	-9.5537
▁democracy	-9.5578
▁الترتيبات	-9.6122
▁blood	-10.7980
▁مثلا	-9.4437
▁توصية	-9.6202
land	-10.8213
طف	-10.9563
$	-9.9659
▁احد	-9.9294
▁Ma	-10.9354
▁payment	-9.5483
▁الأقاليم	-9.5382
▁شخصا	-10.1169
▁حجم	-9.6755
▁الأكثر	-9.8578
▁الإسرائيلية	-9.3839
▁الكبرى	-9.6011
فا	-10.3846
▁الأشياء	-11.9765
▁خطر	-9.7929
▁Zealand	-9.4326
▁Financing	-9.5130
▁shot	-11.7253
▁الشاملة	-9.5957
▁للجميع	-9.7051
▁درجة	-9.7922
▁giving	-9.9003
▁ينظر	-9.6215
▁طلبات	-9.6793
▁النوع	-9.9055
▁سلطة	-9.6037
صل	-10.7918
▁محل	-9.8271
▁advance	-9.6140
▁الاحتجاز	-9.8122
▁Space	-9.4361
سة	-11.0365
▁البوسنة	-9.6037
▁paras	-9.3893
▁المكسيك	-9.5426
▁launched	-9.6112
▁المجموعات	-9.5341
day	-10.1994
▁workshops	-9.6875
جز	-10.2820
بعثة	-9.5981
عاد	-10.2890
▁placed	-9.6469
▁سبق	-9.7439
▁worked	-10.1335
▁للأسلحة	-9.6119
▁للمحكمة	-9.4863
▁فضلك	-12.6395
▁migration	-9.6229
▁territories	-9.5340
▁مقدم	-9.5976
▁2009,	-10.2224
▁finance	-9.6413
▁efficient	-9.6206
16	-10.1565
▁المدينة	-10.4474
▁عمله	-9.6752
▁٠٠٠	-11.3407
▁عم	-10.8968
▁عضوا	-9.5450
▁combating	-9.4898
ئة	-10.6178
third	-9.4742
▁recruitment	-9.6037
▁الديون	-9.5167
▁religion	-9.6319
▁وقالت	-9.6426
▁تسجيل	-9.6525
▁fourth	-9.6410
▁Indonesia	-9.4332
هج	-10.0894
▁base	-9.8619
▁recognition	-9.6450
▁whom	-9.6608
▁وبين	-9.7123
▁Training	-9.7134
▁ساعة	-10.5614
▁defined	-9.5817
▁بالنظر	-9.6133
▁tried	-10.6697
▁الأسر	-9.6854
▁للمؤتمر	-9.6044
▁allowed	-9.8022
▁compared	-9.7173
▁الجنساني	-9.4755
▁داخليا	-9.5136
▁الأصول	-9.7127
▁donor	-9.5376
▁Many	-9.5503
▁بالكامل	-9.7828
▁(3)	-9.8043
▁causes	-9.5589
▁صغيرة	-10.3158
▁shared	-9.6325
ice	-11.5813
▁الرفيع	-9.6211
▁Spain	-9.5173
▁الشركاء	-9.6125
طل	-10.5768
▁urges	-9.5410
▁stuff	-14.3001
▁مدينة	-9.9406
▁punishment	-9.7692
▁oil	-9.6956
▁بإنشاء	-9.5310
▁John	-10.4124
▁الأسواق	-9.5701
▁determine	-9.6060
ou	-11.2737
▁immediately	-9.7230
▁enhanced	-9.5993
▁estimates	-9.7346
▁ببيان	-9.4610
▁وضعت	-9.9135
لب	-10.0040
▁إيلاء	-9.5300
▁بمبلغ	-9.6552
ard	-11.3978
▁Tell	-13.7641
▁knows	-11.7052
▁خبراء	-9.5836
ru	-11.1270
▁واضحة	-9.6323
▁وكل	-9.9146
▁Gender	-9.6883
▁Northern	-9.5605
▁بيئة	-9.5609
▁انخفاض	-9.7710
▁يتطلب	-9.5954
led	-10.3460
▁Jo	-11.4498
▁shown	-9.6348
▁انتهاء	-9.4631
▁البعض	-9.9881
▁الاعتراف	-9.6500
▁١٤	-10.2344
▁election	-9.6867
▁حي	-10.7599
▁فهي	-9.6921
▁discuss	-9.6857
دار	-10.2967
▁الجوية	-9.6798
▁senior	-9.7458
▁خفض	-9.6651
▁قمت	-11.9423
لمساعدة	-10.1478
▁رؤساء	-9.5670
rd	-10.0274
▁أنظر	-12.0264
▁separate	-9.6140
يون	-10.0559
▁تمر	-9.7953
▁إقرار	-9.4965
▁nor	-9.7236
▁تذكر	-10.4385
▁looks	-11.0867
▁Cyprus	-9.5927
▁فعال	-9.5897
▁Technology	-9.7532
IN	-11.4659
▁الإداري	-9.6199
▁coordinated	-9.5980
▁accounts	-9.6993
▁arrest	-10.1763
▁الجماعات	-9.5297
▁grounds	-9.6999
▁ألمانيا	-9.5438
da	-11.0621
▁يسمح	-9.6718
/4	-10.2828
▁الصحي	-9.6963
▁لتحديد	-9.6304
▁engaged	-9.6720
▁المطلوبة	-9.5845
▁غرب	-9.6367
▁medium	-9.6922
▁بالعمل	-9.7072
▁الإلكتروني	-9.7695
▁Ni	-11.2035
▁الفلسطينيين	-9.4807
▁يدعو	-9.6123
▁Liberia	-9.5490
▁التزامات	-9.5848
▁participated	-9.6141
▁الفئات	-9.6373
▁2010.	-11.2401
▁workshop	-9.6353
▁إب	-11.9019
▁Lord	-10.7823
▁unless	-9.7986
▁Peacekeeping	-9.4751
▁http	-9.9666
▁students	-9.7725
▁urged	-9.6192
▁Decides	-9.4909
▁UNIDO	-9.6137
▁constitute	-9.5757
▁internationally	-9.5360
▁spirit	-9.5282
▁imposed	-9.6205
▁والتمييز	-9.4412
▁strengthened	-9.5967
▁assess	-9.6298
▁town	-10.9323
▁غينيا	-9.5873
▁تأثير	-9.6762
▁والتنسيق	-9.6302
▁reviewed	-9.6774
▁قانوني	-9.6881
▁aircraft	-9.7352
▁الممتلكات	-9.5579
▁drugs	-9.8394
▁المعدات	-9.8012
▁actual	-9.7929
▁المتفق	-9.5618
▁السجن	-10.2942
▁ث	-10.2232
ities	-10.8471
0	-9.9479
▁interested	-9.8054
يكا	-10.7001
▁التفتيش	-9.6798
▁الواجب	-9.5998
▁آن	-10.4321
رض	-10.1132
▁رعاية	-9.6315
▁شر	-10.9681
▁site	-9.6635
▁دورات	-9.6790
▁Switzerland	-9.5263
CP	-9.8170
▁تحقق	-9.6857
▁مقرر	-9.5507
▁determined	-9.6053
▁أدى	-9.6808
▁73	-10.1997
ستر	-11.0342
▁تيمور	-9.1719
▁husband	-10.5351
▁Mrs	-11.0438
67	-10.6557
▁headquarters	-9.7035
▁القطاعات	-9.6447
ens	-11.4082
▁الإعدام	-9.7131
▁raise	-9.8033
رج	-10.7191
حر	-10.7858
▁declaration	-9.5502
▁يؤكد	-9.5834
ey	-11.5108
▁Mom	-13.6021
▁الهياكل	-9.6233
▁المبادرة	-9.5362
راف	-10.4141
▁أسباب	-9.6208
▁تجاه	-9.5546
▁records	-9.8753
عندما	-10.1503
▁الكاملة	-9.6587
سام	-10.6316
▁wide	-9.7116
▁reduced	-9.7349
▁inclusion	-9.6738
رس	-10.4140
▁الخارج	-10.0238
▁السن	-9.8459
▁le	-11.4720
▁واسعة	-9.6305
▁المنتدى	-9.5367
▁تعريف	-9.5850
▁Sir	-10.3996
▁options	-9.7128
تابع	-9.4369
▁بند	-9.8147
يته	-10.1506
▁والمحيط	-9.6948
70	-10.3373
▁history	-9.9614
▁ذي	-9.6504
▁emphasized	-9.6137
-5	-10.1769
▁types	-9.6510
ab	-11.4388
▁threats	-9.6421
▁المبدأ	-9.4742
▁أصل	-9.9994
▁supposed	-11.9868
▁والاتحاد	-9.5597
▁stand	-10.3244
▁collection	-9.7071
▁alleged	-9.8672
▁بعمل	-10.0597
▁لأجل	-10.7292
▁4-	-9.3591
▁الهامة	-9.4862
▁مست	-10.6187
▁type	-9.8392
▁Framework	-9.6315
time	-10.1444
▁accepted	-9.7254
▁الأزمة	-9.7955
▁تؤثر	-9.6079
▁complex	-9.6624
▁comes	-10.7153
▁اذهب	-12.5553
▁تعرض	-9.7957
جعل	-11.4877
▁boys	-10.3458
▁الجنائي	-9.7042
▁خدمة	-9.7239
▁تتصل	-9.8194
سم	-10.6150
▁سر	-11.0470
▁owing	-9.8341
▁solutions	-9.6678
▁ورغم	-9.5988
▁الإصلاح	-9.5769
second	-9.5566
▁اختيار	-9.7020
▁300	-10.0555
ti	-10.9746
▁غضون	-9.6518
▁أشعر	-12.5557
▁انتهاك	-9.6781
▁organs	-9.6713
▁Norway	-9.5135
▁learned	-9.8086
▁التبرعات	-9.6765
▁لاحقا	-10.2818
▁يفعل	-11.3092
▁الجزرية	-9.7191
▁الاستفادة	-9.6218
▁remaining	-9.7081
▁(2001)	-9.7945
▁Mo	-10.9146
▁press	-9.9569
▁حصل	-10.6384
▁الثلاثة	-9.7353
▁الأجنبي	-9.5841
▁يصبح	-9.8152
▁industry	-9.7562
▁الفتيات	-10.0489
▁crucial	-9.5588
تعرف	-12.1657
▁science	-9.9421
▁المعتمدة	-9.6063
▁Burundi	-9.4379
▁الحل	-10.2869
▁Jesus	-9.2658
كان	-11.1923
▁والدول	-9.5763
▁Timor	-9.2020
▁شك	-9.7611
▁chance	-11.2929
▁نفسك	-12.2355
▁Man	-11.1661
▁بداية	-9.7594
han	-11.4405
▁perspective	-9.5888
▁أرى	-11.9280
▁وغيره	-9.6518
▁attack	-10.0038
▁مقارنة	-9.7642
▁Ministers	-9.6586
▁agree	-9.7976
▁represented	-9.6510
▁unit	-9.8495
▁scale	-9.7564
▁لبناء	-9.5880
▁series	-9.7024
▁شروط	-9.6022
69	-10.4620
▁Really	-12.8269
▁سو	-10.5243
▁مصر	-9.6359
▁specifically	-9.6681
▁highest	-9.6884
▁للنظر	-9.5872
مثل	-9.8776
▁الصعيدين	-9.6325
▁Staff	-9.8216
▁earlier	-9.7668
▁ترتيبات	-9.7000
▁دو	-10.6403
▁لأحكام	-9.5475
عجب	-12.5556
فين	-10.8650
▁بقرار	-9.6112
▁namely	-9.6527
▁integrity	-9.6361
▁Colombia	-9.5862
▁الفاعلة	-9.5889
25	-10.0693
▁ترغب	-9.9567
▁listen	-11.6332
▁news	-10.6105
▁Humanitarian	-9.6929
ec	-11.3830
▁الاستراتيجي	-9.6690
▁relative	-9.6836
▁المشاركين	-9.6146
▁المختصة	-9.5776
▁authorized	-9.7078
▁السامي	-9.6384
▁eight	-9.9751
▁representation	-9.6913
▁المراقبة	-9.8856
▁عقدت	-9.6227
▁غريب	-12.1242
▁والحريات	-9.5401
▁الأسماك	-9.6350
▁resulted	-9.7213
أخذ	-10.9820
▁subsequent	-9.6384
int	-10.7498
▁Trust	-10.0447
▁الاستجابة	-9.6291
▁الأثر	-9.7389
▁الأدنى	-9.6675
▁risks	-9.8151
▁observers	-9.8049
▁الوفد	-9.5855
▁Dad	-13.5392
▁القادمة	-9.9426
▁=	-11.4164
▁المهام	-9.6839
▁وأشارت	-9.7118
▁الشخصية	-9.8155
▁المطالبات	-9.5472
▁recognize	-9.7018
▁بتعزيز	-9.6043
▁الدورات	-9.6608
▁لاتفاقية	-9.6712
ائف	-11.1380
000	-11.0448
ver	-11.2748
او	-9.8026
▁Internet	-9.7006
▁participating	-9.6530
▁سيراليون	-9.3360
der	-11.3493
▁يستطيع	-10.4441
▁المن	-10.0983
قي	-10.5761
▁التأكيد	-9.5570
▁Asian	-9.6426
▁الرأي	-9.6805
▁function	-9.7325
▁kids	-13.7836
▁Deputy	-9.7431
▁باعتبارها	-9.7030
راد	-10.4850
كتور	-11.8014
طر	-10.3732
▁موظف	-9.8565
▁مستقلة	-9.6250
212)	-10.3437
عيد	-10.5780
▁تجعل	-10.4164
proliferation	-9.6125
▁eliminate	-9.6520
▁أجهزة	-9.7701
▁التنوع	-9.6517
▁هيكل	-9.7080
▁تخفيض	-9.7208
▁بعثات	-9.6269
▁بدعم	-9.6480
▁ونظرا	-9.6589
▁ايضا	-9.7764
ninth	-9.6666
▁competition	-9.7490
▁السورية	-9.7818
▁round	-9.8990
▁reducing	-9.6966
▁٢٠	-10.5278
وز	-10.4436
▁العلم	-9.8757
▁appointed	-9.6721
▁الثقافية	-9.7063
▁وتقييم	-9.6801
▁المدرسة	-10.3563
▁فمن	-9.7836
▁أقرب	-9.8359
غلق	-11.1797
▁targets	-9.6680
▁Status	-9.7329
▁لديهم	-10.4277
▁favour	-9.5760
▁فرض	-9.7033
▁يساعد	-9.7837
▁Even	-10.2933
▁component	-9.7063
▁yes	-12.2809
ES	-10.5324
▁بنا	-11.5398
▁أمين	-9.7980
▁حلقات	-9.7496
▁Chamber	-9.5530
▁دم	-11.2581
▁Official	-9.3787
ران	-10.7428
▁تبذلها	-9.6128
▁moment	-10.8505
▁لزيادة	-9.6237
▁العظمى	-9.6466
▁gross	-9.8372
▁ratification	-9.6786
▁ترد	-9.7116
tor	-11.4911
▁affairs	-9.7312
▁للفقرة	-9.6148
app	-11.7690
ating	-10.6579
▁الصفحة	-9.3044
▁Argentina	-9.5650
ors	-10.7720
▁المترتبة	-9.6621
ack	-12.0610
داء	-10.5484
▁places	-9.9169
▁الكبيرة	-9.8853
جين	-11.1433
▁الإيرادات	-9.7125
▁centre	-9.7756
▁المتوسط	-9.7594
▁الميثاق	-9.5613
▁التام	-9.6192
▁تعني	-10.6846
▁guarantee	-9.7749
45	-10.3973
بيل	-10.9976
▁تنفيذها	-9.6746
▁category	-9.7416
▁خطوات	-9.6559
▁break	-10.9191
▁tomorrow	-11.9703
▁عموما	-9.6255
مين	-10.2191
دفع	-10.6987
▁secure	-9.7606
▁شأنه	-9.7481
مد	-9.8621
لات	-10.5073
▁chapter	-9.5873
▁الاعتماد	-9.7052
▁easy	-10.8649
▁1999,	-9.5278
▁التقدير	-9.6030
▁تتحدث	-12.2384
ong	-11.2705
ارت	-10.9041
▁ويجري	-9.6762
▁الإلكترونية	-9.5272
▁deep	-9.9008
▁Food	-9.8249
▁للإ	-10.8776
▁المتعدد	-9.6437
▁الموجهة	-9.5128
اتها	-9.8786
ley	-11.7078
▁خارجية	-9.6725
▁الساحلية	-9.6804
▁Ja	-11.1141
▁69	-10.3011
▁TO	-11.2919
▁2009،	-10.1986
▁والآن	-11.2725
▁الفعال	-9.6294
▁insurance	-9.8600
▁سياسية	-9.6559
▁تعتمد	-9.6575
▁eyes	-11.0521
▁Population	-9.8414
ff	-11.5828
▁emphasis	-9.7000
▁died	-10.8234
▁إزالة	-9.8330
air	-11.8024
▁فرقة	-9.8052
▁وبرامج	-9.6834
▁extend	-9.6139
▁الآلية	-9.7997
▁أشار	-9.6413
19	-10.1504
▁ارتفاع	-9.8181
▁الطرق	-9.8190
▁السوق	-9.8257
▁mutual	-9.6963
▁War	-10.2181
▁تقدير	-9.7056
▁تجري	-9.7890
▁أسعار	-9.7870
▁aware	-9.7727
▁applications	-9.7495
▁collective	-9.6263
▁فيهم	-10.3660
▁للدورة	-9.6447
▁بعدم	-9.7086
/3	-10.4739
▁مشترك	-9.7347
▁approximately	-9.8224
eighth	-9.7598
▁وتحقيق	-9.6736
▁الثلاث	-9.7414
▁Every	-11.0850
▁فهو	-9.9756
▁More	-10.0211
▁waste	-10.0764
sc	-11.0649
▁story	-11.6812
ستخدم	-10.1283
▁Will	-11.5263
▁Gaza	-9.6641
▁بالتقرير	-9.7767
▁credit	-9.7985
.4/	-10.2842
▁وضمان	-9.7187
▁البيولوجي	-9.7699
▁الألفية	-9.3219
▁الآليات	-9.6418
▁Ukraine	-9.6745
▁تعاون	-9.6313
▁مرافق	-9.8353
▁لإجراء	-9.6904
▁البنك	-9.8172
▁Decade	-9.7769
▁fields	-9.7976
▁لكنه	-10.7604
▁امرأة	-10.0972
▁corruption	-9.6766
▁تعرب	-9.5850
▁وقعت	-9.7931
▁وخدمات	-9.8323
▁organizational	-9.7313
ائر	-10.7011
▁worry	-13.3074
▁تود	-10.0343
خط	-10.6454
▁الغابات	-9.8072
▁الممارسة	-9.6502
▁Listen	-13.6160
▁expression	-9.8377
كين	-11.1197
قل	-10.3919
▁Another	-9.8789
▁registration	-9.6823
▁ذاتها	-9.6807
▁تهدف	-9.7031
▁consent	-9.6748
▁شرطة	-10.2050
▁published	-9.7399
▁Introduction	-9.5628
▁النهائية	-9.7723
▁الجانب	-10.0688
▁بلدي	-9.8225
▁عالمية	-9.6851
▁check	-11.3447
▁إس	-11.6184
▁هايتي	-9.7897
ug	-11.7800
▁الكبير	-10.0341
▁publication	-9.4822
75	-10.4145
▁VI	-10.1013
▁المؤسسية	-9.7763
▁السلوك	-9.7219
▁بان	-10.8204
▁تحب	-12.4473
▁اتخذت	-9.6934
▁كوت	-9.7474
▁واضح	-10.0699
▁يعلم	-11.2306
▁الناجمة	-9.7220
▁works	-10.4720
صب	-10.9013
القرار	-9.5180
▁طويل	-10.2590
▁الشبكة	-9.6779
▁72	-10.3627
▁وسط	-9.8062
▁عل	-10.4032
▁والإجراءات	-9.6517
▁الإجراء	-9.6794
▁الكلمة	-9.5724
▁والقانون	-9.6238
▁Questions	-9.7312
▁السلامة	-10.0023
▁تخطيط	-9.8049
▁تدخل	-9.9443
▁norms	-9.6848
▁appointment	-9.7848
oh	-13.0404
▁قرر	-9.8183
economic	-9.8131
▁advisory	-9.7350
▁outcomes	-9.7550
▁enjoyment	-9.6980
▁increasingly	-9.7339
▁Control	-9.8122
▁أشخاص	-10.0000
▁المسلح	-9.5784
▁الأفضل	-11.0168
WG	-10.1537
▁minorities	-9.8300
18	-10.3005
ائية	-10.4534
▁4,	-9.8842
▁الشكوى	-9.7569
يرة	-10.8290
▁شمال	-9.9204
▁مقترحات	-9.6778
▁رفع	-9.8160
▁Haiti	-9.7029
▁المدعي	-9.7757
▁ولن	-10.1287
جلس	-11.0758
▁ورقة	-9.7535
▁contributed	-9.7347
▁offence	-9.7673
▁قلقها	-9.7199
▁يواصل	-9.6308
▁المرتبطة	-9.7739
CRP	-10.4645
gr	-11.4001
▁وع	-10.0602
▁مبادرات	-9.6765
▁للتو	-11.5544
▁charge	-10.1327
▁ليلة	-12.4095
▁mainly	-9.8274
▁المواطنين	-9.7854
▁مجتمع	-9.7119
▁exactly	-11.9128
com	-10.9222
▁وسائط	-9.7744
▁العوامل	-9.6618
ارة	-10.5019
▁contains	-9.5986
▁المخصص	-9.7183
▁إست	-12.1687
▁convention	-9.5604
▁استجابة	-9.7166
▁fall	-10.1890
▁الاستشاري	-9.7635
seventh	-9.6270
▁choice	-10.3503
mer	-11.1516
▁Chairperson	-9.5372
▁5-	-9.4449
ائها	-10.1847
▁emerging	-9.7861
▁التاريخ	-9.8287
▁consumption	-9.8005
▁المنظور	-9.5884
▁OHCHR	-9.7781
▁territorial	-9.7454
▁تخبر	-12.5679
ائه	-10.3889
يان	-10.3958
▁الإقليم	-9.6890
▁والإدارة	-9.7649
▁الزيادة	-9.7839
▁r	-11.6082
▁speaking	-9.8483
أكون	-11.8597
زال	-10.6636
▁murder	-10.9102
old	-10.8864
▁draw	-9.8975
▁Internal	-9.7384
▁failure	-9.7887
lic	-11.5882
▁fulfil	-9.6851
▁الإسرائيلي	-9.5897
بقي	-11.1185
37	-10.2966
▁Parliament	-9.8166
▁migrants	-9.8167
▁ومكتب	-9.7844
▁صعيد	-9.7309
▁Sweden	-9.6213
▁Indigenous	-9.7125
▁التحقق	-9.8427
▁findings	-9.7869
▁جهة	-9.7211
▁book	-10.4569
ative	-11.4393
كا	-10.4921
▁١٦	-10.3688
South	-9.7009
▁المعقود	-9.6827
io	-11.1593
▁elimination	-9.7582
▁مهما	-10.4317
▁لابد	-12.3859
▁engage	-9.7913
▁إنهم	-12.2990
▁للبعثة	-9.7340
▁وتحديد	-9.7458
Signed	-9.8270
▁whatever	-10.9368
▁Their	-9.8607
▁Prosecutor	-9.7533
▁اخ	-11.3527
▁felt	-10.2247
Ivoire	-9.6943
WP	-10.2286
▁competent	-9.7191
▁investigations	-9.9239
▁ام	-10.5906
▁Adoption	-9.6611
27	-10.2050
▁البرازيل	-9.6587
ex	-11.0973
▁الطابع	-9.7126
▁reforms	-9.8444
▁ju	-12.1234
om	-11.3313
▁contracts	-9.7623
▁rise	-9.8549
▁Ch	-11.0916
روب	-11.2749
▁الأحيان	-9.9396
▁ahead	-10.5182
▁reintegration	-9.6845
▁expenditures	-9.7964
▁وذكر	-9.7315
▁recorded	-9.7354
ized	-10.3733
▁sc	-11.9571
ki	-11.5391
▁وراء	-10.0025
تاح	-10.1626
▁Nothing	-12.1697
▁تحدد	-9.7234
▁goes	-11.0120
▁البر	-10.4477
▁ديسمبر	-10.5399
▁وأخيرا	-9.6894
▁وتلاحظ	-9.7869
▁بمقتضى	-9.4790
▁٣١	-11.4956
▁sign	-10.4073
وج	-10.4028
يز	-10.6216
▁المنافسة	-9.7939
▁٣٠	-11.3976
▁minute	-12.3748
▁answer	-10.5730
▁البحوث	-9.7846
▁Darfur	-9.5408
▁إنهاء	-9.7695
si	-11.4750
▁الذرية	-9.7212
▁المؤسسة	-9.8777
▁بشأنها	-9.8971
▁sovereignty	-9.7342
res	-11.2968
▁وفده	-9.7583
▁sentence	-9.8672
▁والجريمة	-9.6903
▁Nigeria	-9.6475
quite	-10.7949
▁defence	-9.7898
▁test	-10.3688
▁affect	-9.7370
▁العقوبة	-9.7969
▁الهاتف	-10.7818
▁العقاب	-9.7264
▁الطرفين	-9.6444
▁reservations	-9.7175
▁Most	-10.0357
▁candidates	-9.7900
/49/	-12.4498
جي	-10.9080
▁Principles	-9.8749
fourth	-9.7136
▁وصول	-9.8490
▁التمتع	-9.6716
▁كاملا	-9.6660
الفقرة	-9.6991
بول	-10.9279
▁scar	-13.0038
▁أهم	-9.8950
▁سلطات	-9.7537
▁front	-11.0374
▁صورة	-10.1006
▁Mar	-11.1360
▁الأرجنتين	-9.7127
▁تشكيل	-9.7872
▁شرط	-10.1020
▁المطلوب	-9.8247
▁Noting	-9.7154
▁respectively	-9.7848
▁تتسم	-9.7096
▁married	-10.8906
▁observed	-9.8387
ـــــ	-9.7545
▁send	-10.5936
▁functioning	-9.7948
ضم	-10.3936
▁existence	-9.7857
▁71	-10.3814
▁constitutional	-9.8756
▁reconciliation	-9.6667
▁ذ	-10.0675
▁(2004)	-9.9707
▁الأسباب	-9.7641
▁granted	-9.8080
▁decide	-9.9607
▁Jehovah	-8.6558
▁2010,	-11.6908
▁العسكري	-9.8249
2-	-9.7042
▁Rule	-9.6724
▁الإنتاج	-9.7947
oc	-11.3486
▁zone	-9.9125
▁بالأشخاص	-9.7469
▁شي	-11.0553
ya	-11.3306
▁leaving	-10.8376
▁Z	-10.8349
▁لتوفير	-9.7771
▁direction	-9.8942
▁تسمح	-9.9109
▁clean	-10.4875
▁سجل	-9.8281
▁بوضوح	-9.7589
▁seems	-10.5319
▁categories	-9.8304
▁لمكتب	-9.7751
عا	-10.7081
▁endorsed	-9.7617
▁هنالك	-10.8447
con	-11.2587
▁highlighted	-9.8087
▁والموارد	-9.7498
دى	-10.9253
▁مهم	-10.4662
▁allegations	-10.0249
▁structures	-9.7917
▁1373	-10.0951
▁ولجنة	-9.7298
▁indicate	-9.7626
▁سير	-10.1365
▁Day	-10.2396
/52/	-12.0018
▁eat	-11.6021
▁الكربون	-9.8993
▁مواجهة	-9.7490
▁substantial	-9.7773
▁أمرا	-10.0203
▁responses	-9.8167
▁listed	-9.7605
▁والإ	-10.3872
▁الحم	-11.5857
▁wishes	-9.7962
▁except	-10.1395
▁values	-9.7979
▁الدعوة	-9.7374
▁لإعادة	-9.8350
▁Prime	-9.7856
ek	-11.0333
تصل	-12.1592
▁دعما	-9.8005
▁يضطلع	-9.7414
tro	-11.4501
▁tasks	-9.7954
▁قلق	-10.0435
▁الأدلة	-9.9562
▁n	-11.2764
▁hate	-11.7849
ويل	-11.1943
▁Total	-11.0646
▁هام	-9.8294
وري	-10.7066
بون	-11.0434
au	-11.0183
▁باكستان	-9.7477
▁رجاء	-12.0792
▁بتقرير	-9.6523
▁calling	-10.4656
▁requirement	-9.7465
▁sought	-9.8148
ical	-11.5932
▁إقليم	-9.7407
▁وأود	-9.5074
▁الدخول	-10.0918
▁الأسبوع	-10.2688
▁رو	-10.5770
▁الإن	-11.4123
▁ones	-10.2320
▁Croatia	-9.7620
▁تصميم	-9.8233
▁المهمة	-9.9248
▁marine	-9.8116
كرا	-11.7683
sixth	-9.6184
▁يعيشون	-9.8349
▁صحة	-9.8078
▁release	-9.9567
▁قبرص	-9.8488
▁Morocco	-9.6651
▁subsidiary	-9.8041
▁الكتاب	-9.2571
OR	-11.9748
▁daughter	-11.5681
▁ولكنها	-10.0314
▁campaign	-9.8752
سوء	-10.4535
▁هاء	-9.8918
▁الوحيدة	-10.3270
▁Jerusalem	-9.7354
35	-10.4101
▁drink	-11.9774
▁السادس	-9.8056
▁والمالية	-9.7909
▁vital	-9.7359
▁76	-10.3690
▁وهم	-10.4601
▁forum	-9.8236
▁بوروندي	-9.6168
▁Fifty	-9.5391
▁sharing	-9.8203
▁متوسط	-9.9869
▁Refugees	-9.8064
▁القيمة	-9.8572
▁والزراعة	-9.8155
▁الجوي	-9.9149
pa	-11.1967
▁exist	-9.8921
▁vol	-9.6291
▁played	-9.9536
41	-10.3585
▁رواندا	-9.8871
▁executive	-9.9312
▁creating	-9.8133
▁صوت	-10.3558
▁trends	-9.8417
يكي	-11.3179
رتبة	-9.9336
▁التفاوض	-9.8316
▁سوء	-9.9909
▁بفيروس	-9.6631
▁تصل	-10.1576
▁جهاز	-10.3184
▁considering	-9.8310
▁realization	-9.7808
fifth	-9.6941
▁البرلمان	-9.8263
21	-10.2512
▁racism	-9.6800
▁Côte	-9.7385
▁بلغت	-9.8777
▁دارفور	-9.5432
خي	-11.0189
طلب	-10.0662
▁لعملية	-9.7654
▁delay	-9.7628
▁ترمي	-9.8076
▁عامل	-9.9559
▁outstanding	-9.7518
IS	-11.2537
▁الاستخدام	-9.8019
▁Part	-10.0148
▁price	-10.0874
▁بحماية	-9.7810
▁القضاة	-9.7939
▁Spanish	-9.7592
▁تبين	-9.8311
▁internally	-9.7794
▁preventing	-9.7507
▁الإرهابية	-9.5184
continued	-9.7188
▁luck	-13.6624
▁غزة	-9.7288
▁الشركة	-9.9388
▁otherwise	-9.7980
▁industrial	-9.9090
بحث	-11.3132
▁populations	-9.8139
▁X	-10.4983
▁considers	-9.9053
▁networks	-9.8758
▁تتناول	-9.7767
▁لتمويل	-9.7266
▁أهل	-11.9023
▁لقانون	-9.6722
▁أف	-11.5959
جار	-10.9781
▁nationality	-9.7952
▁سري	-10.1723
lan	-11.6056
▁save	-11.0686
▁Open	-10.1798
▁institution	-9.9120
▁forth	-9.8154
▁San	-10.1752
▁بغرض	-9.7647
▁Work	-10.2268
22	-10.2102
▁تتطلب	-9.7706
▁مهام	-9.8589
▁التكلفة	-9.9602
▁وقوع	-9.8155
▁تأتي	-11.0444
▁begin	-9.8652
▁أقصى	-9.7887
▁تمكين	-9.8226
IG	-12.6708
▁دخول	-9.9147
دو	-10.3076
▁إنجاز	-9.8306
▁والنساء	-9.7691
▁amended	-9.8057
تون	-11.1423
قص	-10.9798
▁وس	-9.9207
▁Chile	-9.6488
▁نقطة	-10.0763
▁Thus	-9.7257
▁تصويت	-9.6183
▁الحادي	-9.7067
▁نس	-11.2913
▁القبض	-10.1548
▁تجد	-10.3863
ten	-11.2393
▁visits	-9.9501
▁تبدأ	-10.1481
▁فتاة	-12.0642
▁يكفل	-9.7961
▁العلاقة	-9.8382
ons	-11.9206
▁entered	-9.8320
▁supplies	-10.0958
line	-10.7925
▁وقانون	-9.7270
▁للحد	-9.8078
▁أدنى	-9.9507
▁القيود	-9.8310
▁جلسات	-9.7559
▁complaints	-10.0567
▁1999.	-10.3423
▁الوزاري	-9.7153
▁thanks	-10.5163
▁Forms	-9.7319
▁bank	-10.1519
▁himself	-10.3615
▁الضرورية	-9.7073
▁Ethiopia	-9.6492
▁ومنذ	-9.8067
ريس	-11.2837
▁completion	-9.8106
mail	-10.4749
▁منتصف	-10.1890
مو	-10.3974
▁الجيش	-10.1529
▁سنويا	-9.8522
▁مصدر	-9.9430
▁produced	-9.8811
قطع	-10.6800
▁Following	-9.8458
ED	-11.2379
▁added	-9.8589
▁نفعل	-11.5364
فو	-10.6771
▁للاتحاد	-9.7638
▁جر	-10.9523
▁بشدة	-10.0670
ولي	-10.8699
▁delivered	-9.6690
36	-10.4620
▁وجد	-10.7554
▁watch	-11.8500
26	-10.1362
▁dissemination	-9.8580
▁الغذاء	-9.8127
▁يرى	-9.9507
▁lose	-11.2024
▁رفض	-9.9064
رش	-10.5351
▁(20	-12.0120
▁highly	-9.9296
▁بعيدا	-11.3717
▁74	-10.4332
▁١٨	-10.4708
▁أولوية	-9.7289
▁equitable	-9.8187
▁فعله	-11.8095
▁للنساء	-9.8355
▁القضائي	-9.8009
▁lessons	-9.8710
▁الناتج	-10.0294
-19	-10.4137
▁subprogramme	-9.9374
▁سلسلة	-9.8964
▁globalization	-9.6158
▁accept	-10.0676
▁changed	-10.3873
▁وح	-10.3350
▁وترد	-9.8232
قسم	-10.8615
▁الزراعة	-9.8488
▁رؤية	-10.6532
▁offered	-9.9044
▁شعب	-9.6635
29	-10.2710
▁الأولويات	-9.7989
▁الراهنة	-9.7833
▁تحصل	-10.5802
▁Field	-10.0972
▁ليبريا	-9.8406
▁(1999)	-10.0596
▁أع	-11.1356
▁thirty	-9.7631
▁Project	-9.9948
▁Bo	-11.1491
صاب	-11.0456
▁١٧	-10.3688
ended	-9.8977
▁الامر	-11.3265
تش	-10.8210
▁المتكاملة	-9.8838
48	-10.5474
▁identification	-9.9038
▁خطأ	-10.9982
▁اعرف	-12.6291
▁وحدات	-9.9242
ره	-10.9578
▁statistical	-9.9137
▁الدراسات	-9.8725
▁Britain	-9.7382
▁الجزاءات	-9.6708
▁faced	-9.8807
▁بيت	-10.2641
▁arising	-9.7919
▁فكر	-12.1127
▁enjoy	-10.0260
▁إدخال	-9.8034
▁المطالبة	-9.6557
▁البشر	-9.9384
95	-10.4591
جري	-10.3489
▁أساسي	-9.8029
▁setting	-9.8728
▁اليونيدو	-9.7889
gen	-11.3456
che	-11.5927
▁للاتفاقية	-9.8199
▁Developing	-9.8225
ON	-11.8202
▁amendments	-9.8696
▁الطلبات	-9.8955
ep	-11.6460
▁الانضمام	-9.8035
▁Drugs	-9.8142
ron	-11.5500
▁Does	-11.2592
ادة	-10.7457
يو	-10.3506
▁Monitoring	-9.8628
▁بالقرار	-9.6953
▁Supreme	-10.0092
▁البنود	-9.8077
▁Finland	-9.5277
▁انتخاب	-9.7648
▁اتخذتها	-9.7719
ally	-10.8531
▁المقبل	-9.9164
▁والصين	-9.7377
▁survey	-9.9197
▁interpretation	-9.7355
▁الحظر	-9.8463
▁خلف	-11.0825
▁القر	-11.4221
▁تضمن	-9.8165
▁sometimes	-10.3523
▁قابل	-10.2917
▁تركز	-9.8712
▁المصدر	-9.7335
▁accused	-9.9300
▁السيارة	-12.4048
▁ولهذا	-9.9115
.1,	-9.8055
▁وسيلة	-9.9073
/5	-10.6498
▁carrying	-9.9437
mit	-11.8380
▁Out	-10.0819
▁pick	-12.3019
ight	-12.0542
▁أرض	-10.1625
▁وأعربت	-9.9282
ee	-11.5123
▁2010،	-11.4736
▁تتيح	-9.8047
▁دراسية	-9.8715
▁لعمليات	-9.8160
▁توقيع	-10.1954
دخل	-10.7208
05	-10.6741
▁1998,	-10.0627
▁5,	-10.0949
وال	-10.9094
▁numbers	-10.1934
▁العمالة	-9.9067
▁والثلاثين	-9.6970
EC	-10.8917
▁content	-9.8454
▁ratified	-9.8282
▁التحقيقات	-10.0407
▁diplomatic	-9.7491
▁تحويل	-9.9367
▁join	-10.0688
▁Calls	-9.7389
▁Um	-13.2937
▁top	-10.7360
determination	-9.8208
▁وقدمت	-10.0502
▁su	-11.9812
يتش	-10.5539
▁lie	-11.4102
55	-10.3689
▁العولمة	-9.5813
▁المنازعات	-10.0268
▁نمو	-10.0224
▁بش	-10.6712
ئت	-11.3633
▁failed	-10.0316
▁emissions	-9.9314
جن	-10.7816
▁تفهم	-11.0337
CO	-10.4945
▁ألم	-11.8441
▁الشكل	-9.9628
ساعد	-11.7639
▁محاولة	-10.1424
▁thematic	-9.8891
▁جرت	-9.8113
▁انعقاد	-9.7689
▁بأهمية	-9.7558
▁دعوة	-9.7654
▁دورا	-9.7569
▁availability	-9.8582
▁مجموعات	-9.8664
▁Finally	-9.7947
01	-10.6656
▁nations	-9.7350
▁became	-10.0079
▁معاملة	-9.7616
▁strongly	-9.7861
ولا	-10.5376
▁ENGLISH	-11.4478
▁eradication	-9.8150
▁باتخاذ	-9.7771
▁IN	-10.9701
▁لجمهورية	-9.8630
▁comply	-9.8243
شاهد	-11.6642
▁أساليب	-9.8256
▁تخصيص	-9.8349
مك	-11.1945
▁حقيقة	-10.3648
▁الرد	-10.0027
▁حسابات	-9.9106
53	-10.3517
▁condition	-10.2256
▁Kenya	-9.7839
II	-10.6071
▁المحدد	-9.8925
▁المع	-10.7281
▁message	-10.1732
▁heads	-9.9859
▁concluding	-9.8463
▁أعربت	-9.8215
▁مؤشرات	-9.8381
سأل	-11.5170
▁والصحة	-9.8254
▁commissions	-9.8585
RA	-11.8148
▁النفايات	-10.0302
ap	-11.4010
▁وثمة	-9.7330
▁الضوء	-10.1074
▁والتوصيات	-9.7727
▁pointed	-9.8295
▁accounting	-9.8990
▁sleep	-12.1587
hit	-13.0353
▁تمت	-10.0801
49	-10.3412
▁Over	-10.2299
▁٢٢	-10.7307
▁Scientific	-9.8259
▁إننا	-9.9754
/50/	-12.6388
▁للإدارة	-9.7205
▁حوار	-9.7767
▁بأنشطة	-9.8330
▁تحول	-10.0197
▁نفسي	-11.5518
▁Resources	-10.0058
▁judge	-10.1903
▁يرد	-9.9099
▁الاست	-10.4945
▁اعتبارها	-9.7256
▁الحضرية	-9.9465
▁ولكنه	-10.2925
57	-10.5369
▁formulation	-9.8679
▁المحاكمة	-9.9539
ren	-11.7325
ite	-11.2682
▁لاستعراض	-9.7955
▁experiences	-9.8776
▁asylum	-9.9840
▁ضرب	-11.1314
▁نوعية	-9.8808
▁العمر	-10.0345
▁Uganda	-9.6944
▁سوق	-9.9593
▁6-	-9.5658
▁beautiful	-12.1532
▁النزاعات	-10.0467
wide	-9.9991
▁Iraqi	-9.7953
▁Original	-11.4406
▁كبار	-9.9836
▁proper	-9.9385
▁رابعا	-9.9179
▁ill	-10.2189
▁original	-9.8105
▁حياتي	-12.0926
▁السفير	-9.7443
▁partner	-10.2902
▁identity	-9.9921
▁مواقع	-9.9975
▁اللذين	-9.7596
▁أمل	-10.6465
▁إلغاء	-9.9870
▁10-	-9.8999
▁game	-12.3550
▁حصول	-9.8981
▁الملاحظات	-9.8829
▁restrictions	-9.9271
▁components	-9.9030
▁Summary	-10.0520
▁Paris	-10.2239
▁خطيرة	-9.8852
▁الأحمر	-9.9894
▁وتوصي	-9.8060
/51/	-12.1683
▁agriculture	-9.9130
▁supports	-9.8900
▁IAEA	-9.8963
▁2015	-11.3547
▁وطلبت	-9.8546
▁الغذائي	-10.0077
▁tool	-9.9062
يفة	-11.3009
▁الإدماج	-9.8395
▁شتى	-9.7969
▁الاستعمار	-9.8209
▁considerable	-9.8561
▁ممثلو	-9.8162
▁والولايات	-9.8499
▁seem	-10.6731
▁Its	-10.0398
lu	-11.4790
▁المرافق	-9.9252
▁Fourth	-9.9494
▁presentation	-9.8847
▁الفعلي	-9.8690
78	-10.5708
▁البداية	-10.1112
▁names	-10.1159
قال	-11.3265
▁يوغوسلافيا	-10.0381
▁socio	-9.8368
حق	-11.0204
▁الكا	-11.3750
سوف	-10.8771
▁الحفاظ	-9.9506
▁obtain	-9.8705
34	-10.4593
▁تش	-10.9116
▁قاعة	-9.8102
▁Georgia	-9.8225
▁والخمسون	-9.6403
▁الليل	-11.5548
▁(4)	-10.0012
▁أعط	-12.5894
▁عالمي	-9.8975
▁دخل	-10.1443
▁ومنع	-9.8429
▁أداة	-9.8492
غني	-11.5409
▁الاستئماني	-10.0260
06	-10.6486
▁وج	-10.2609
▁السجون	-10.0898
▁نفقات	-9.9188
▁صغير	-11.1188
▁الملائمة	-9.8179
▁القسري	-10.0266
الة	-10.4428
▁Session	-9.4693
▁جون	-10.9610
&	-11.0765
▁Resolution	-9.6959
▁gun	-12.4005
▁fuel	-10.0713
▁والدعم	-9.8668
▁معهد	-9.8906
▁إتاحة	-9.8451
▁تحث	-9.7690
▁التأمين	-10.0065
▁الفضائية	-9.6986
▁الجمهور	-9.9404
▁Bar	-10.8525
▁المعونة	-9.7959
▁الي	-11.7243
▁عظيم	-11.8135
▁COP	-9.8739
▁قبول	-9.9229
▁المستخدمة	-9.8745
▁Red	-10.1546
▁assessed	-9.9105
bo	-11.2788
▁المذكور	-9.8119
اة	-10.4558
ven	-11.6635
28	-10.2719
▁courses	-9.9549
▁سلام	-9.7685
▁sustained	-9.8478
▁2008-2009	-10.3173
ka	-11.1103
▁الإحصائية	-9.9055
ung	-11.3209
▁reproductive	-9.9582
سب	-10.7797
▁gets	-12.8593
▁جن	-11.4371
58	-10.3496
▁Azerbaijan	-9.8360
ba	-11.1395
▁التعبير	-9.9962
▁عقوبة	-10.0190
▁electoral	-9.9964
▁couple	-11.6352
▁85	-10.5182
يمكن	-12.1327
▁comp	-11.6527
▁الانتخابية	-9.9643
▁الشفافية	-9.9136
مه	-11.1864
▁waiting	-11.6101
▁satisfaction	-9.8439
▁لأنها	-10.2603
▁began	-9.9357
▁يتيح	-9.8563
▁قريبا	-10.7494
▁واستخدام	-9.8774
▁الأجهزة	-9.9658
▁significantly	-9.9088
▁للفريق	-9.8291
85	-10.5970
مار	-10.9429
23	-10.3724
▁وكالة	-10.0548
▁شأنها	-9.8721
ag	-11.4032
▁وتنظيم	-9.9242
RE	-11.7181
▁Subcommittee	-9.7107
INF	-10.7473
▁ومنظمات	-9.8776
▁encouraging	-9.8176
▁يود	-9.8472
▁إحراز	-9.7973
زا	-10.6306
▁Only	-10.5472
▁opening	-10.0296
جمهورية	-9.7812
ذل	-11.1860
▁acting	-10.0976
▁أطراف	-9.8500
▁determination	-9.8051
منظومة	-9.8680
▁قل	-11.4436
رجل	-12.0131
▁حان	-11.0497
spoke	-9.4071
▁Hoc	-9.8421
79	-10.4664
▁Chapter	-9.7857
77	-10.6096
▁arrested	-10.3367
سا	-10.7125
▁Jack	-13.3702
▁penalty	-10.0518
▁الأحوال	-9.9683
▁century	-9.8677
▁وافقت	-9.9856
▁السابع	-9.9067
▁sit	-11.6546
▁مماثلة	-9.8873
▁القيادة	-10.0888
▁الاقتراح	-9.7774
▁gas	-10.3221
56	-10.3354
▁Guatemala	-9.7616
▁الفعالة	-9.8366
▁يحتاج	-10.4039
هرب	-11.3758
▁يقرر	-9.8726
▁registered	-9.9589
▁bringing	-10.0600
▁البالغة	-9.9179
▁الموت	-11.0451
▁ten	-10.5108
▁بكثير	-10.2988
everal	-9.9163
▁تعقد	-9.8404
سو	-10.7452
▁وتطلب	-9.7786
▁الأولي	-9.9948
▁Austria	-9.7603
▁Li	-11.3779
▁conformity	-9.8429
▁walk	-11.7794
▁قدرها	-9.9692
▁Myanmar	-9.7497
free	-9.9795
الي	-11.0258
▁birth	-10.0953
▁containing	-9.9057
▁Initiative	-9.9230
يدي	-11.4233
▁kept	-10.4648
▁يرجى	-9.8793
▁grave	-9.9903
▁المشردين	-9.8399
▁الفعلية	-9.9324
▁expenses	-9.9880
▁amounts	-9.9488
بعد	-10.8693
توقيع	-9.6890
▁intention	-9.9090
▁المضادة	-9.8096
▁وكيل	-9.9357
▁البشري	-9.8535
83	-10.3591
▁oversight	-9.9707
▁ذهب	-11.4792
▁limit	-9.9318
▁budgetary	-9.9624
▁Jordan	-9.8779
ذك	-10.8139
▁الماء	-10.6705
tra	-11.4899
جا	-11.2655
▁Promotion	-9.8291
▁قط	-11.0132
▁التعليمية	-9.8820
46	-10.4535
74	-10.4340
▁enterprises	-9.9796
▁fear	-10.3933
▁targeted	-9.9300
▁اخبر	-12.3391
▁Ha	-11.1179
عطي	-11.2078
Secretary	-9.8191
▁العرض	-10.1950
وث	-10.6771
cent	-11.8026
▁Family	-9.9722
▁amendment	-9.8810
▁الاستنتاجات	-9.8603
▁تلقي	-9.9995
▁page	-9.6115
بق	-10.9787
▁تقدمها	-9.8806
▁sister	-11.5265
▁400	-10.1971
▁بفعالية	-9.8528
07	-10.7115
)).	-10.9771
▁previously	-9.9753
▁troop	-9.9078
▁قدما	-10.0509
▁سابقا	-10.1816
▁facing	-9.9119
هذه	-10.8930
▁فتح	-10.2260
ler	-11.4252
▁التوالي	-9.9118
▁المحتمل	-10.1708
▁والدولية	-9.8322
▁commission	-9.9488
▁وصل	-10.6241
▁توجيهية	-9.9358
▁shows	-10.0841
▁التعامل	-10.2030
sp	-11.6159
▁linked	-9.9384
▁telling	-12.5996
▁يحصل	-10.4173
▁speakers	-9.7607
▁expansion	-9.9576
▁الدينية	-9.9185
▁Despite	-9.9317
▁والسياسات	-10.0093
iii	-9.9925
▁تشارك	-9.9048
▁hospital	-10.9959
▁tax	-9.9651
▁توافر	-9.9237
▁السي	-11.3829
▁race	-10.1337
qui	-11.2828
▁dangerous	-10.3546
▁2010-2011	-11.0420
▁Universal	-9.9836
▁بالإ	-11.0135
▁Algeria	-9.7894
▁تضم	-9.8963
▁enabling	-9.9314
▁Which	-11.8871
▁يوفر	-9.8558
فيل	-11.2233
مع	-10.8522
▁الجلسات	-9.9343
▁anymore	-13.4639
ارات	-10.7674
▁grateful	-9.9540
▁flows	-9.9906
▁سلامة	-9.8839
▁teams	-10.0373
▁mainstreaming	-9.8563
▁pursue	-9.9081
▁enter	-10.0347
▁resolve	-9.8093
▁Congress	-10.0129
▁التحكيم	-9.7678
وار	-11.1549
▁Energy	-10.0091
▁بالأسلحة	-9.7171
مور	-11.0328
▁المنتجات	-9.9451
▁العقود	-9.8999
▁Peru	-9.7424
▁el	-11.2299
▁running	-11.3437
▁تنطوي	-9.8930
▁موقف	-10.0820
ورد	-10.8650
▁معاهدات	-9.8544
-6	-10.4794
ورة	-10.9770
▁theme	-9.9850
▁موضع	-9.9021
غادر	-11.7572
▁مالي	-10.1291
▁وتشجيع	-9.8626
que	-11.4435
▁seeking	-9.9187
▁prisoners	-10.1664
▁مك	-10.8019
▁Car	-11.5577
▁maintained	-9.9966
▁reservation	-9.8466
68	-10.5879
▁بحث	-9.9994
لمراقبة	-10.0539
▁governing	-9.9223
▁78	-10.5436
▁للسلام	-9.7253
64	-10.5743
▁والأسلحة	-9.6473
▁الأمراض	-10.0196
▁diversity	-9.9012
▁أوسع	-9.8791
▁القومي	-10.1446
▁القدس	-9.8753
▁details	-10.0505
▁الأسود	-10.0876
بيت	-11.7423
▁للمنظمة	-9.8900
▁vehicles	-10.2470
▁فلن	-10.9078
▁preliminary	-9.9372
نظر	-10.5586
▁afraid	-12.1762
.1.	-10.5293
▁Assistant	-10.1100
▁المصير	-9.9177
▁learn	-10.3593
▁لموظفي	-9.9766
▁Lebanese	-9.8808
▁Therefore	-9.8311
▁moving	-10.6516
▁رابطة	-9.9631
▁المرة	-11.3161
▁engagement	-10.1017
▁يتجاوز	-9.9421
▁حيز	-9.8696
▁publications	-10.0729
▁ميت	-12.2958
▁Budgetary	-9.9389
▁بتلك	-10.2799
مشاركة	-9.8300
جاب	-10.6219
▁الفقرتين	-9.8131
تراوح	-9.9157
▁instance	-9.9365
▁مساهمة	-9.8571
▁وك	-10.2354
▁المنقحة	-9.9922
▁كن	-11.2817
المملكة	-9.8071
▁sweet	-13.2702
▁promise	-11.2089
09	-10.7642
/19	-10.6985
تري	-11.8829
▁بار	-11.2183
وها	-10.6808
▁وجميع	-9.9428
سيادة	-9.8316
▁تعزز	-9.9001
▁الشراكات	-9.8950
▁أفرقة	-9.9449
▁خطوة	-9.9994
▁يصل	-10.2871
▁prosecution	-10.1034
▁وحسب	-10.4753
▁وش	-10.5607
▁بإجراء	-9.9655
لاق	-11.0384
▁pp	-9.8741
▁minority	-10.0514
99	-10.5730
▁لحظة	-11.8704
▁را	-10.9085
▁confirmed	-10.0584
▁protecting	-10.0867
سيا	-11.1117
▁بعيد	-10.3246
▁Year	-10.0937
▁closed	-10.3793
/53/	-11.6163
▁العقوبات	-9.9660
▁preparing	-9.9424
▁مكاتب	-9.9673
▁تابعة	-9.9579
▁تتم	-10.0669
▁reconstruction	-9.7887
39	-10.4453
▁suffering	-9.8911
44	-10.5469
ev	-11.1493
▁coverage	-9.9763
▁والفتيات	-9.9622
▁payments	-9.9910
▁حم	-11.5306
▁protected	-10.0343
04	-10.6950
▁لبعض	-10.3544
32	-10.3407
▁تدرج	-9.8275
▁drafting	-9.9321
reparatory	-9.5228
▁الرب	-9.7847
▁تشغيل	-10.1732
▁المفروضة	-9.9189
▁المعارف	-9.9454
▁disasters	-9.9145
▁اتباع	-9.9254
▁حقيقي	-10.7204
▁facilitating	-9.9277
▁sites	-10.0567
اكس	-10.9983
▁للأفراد	-9.9596
▁Saudi	-9.6835
▁قوية	-10.1370
▁تدريبية	-10.0837
▁وإنشاء	-9.9232
▁لكنها	-10.7074
ier	-11.0943
▁منظور	-9.9131
fe	-11.6404
▁secondary	-9.9969
▁الناحية	-9.9758
▁interim	-9.8681
▁obstacles	-9.8914
ni	-11.2614
▁pressure	-10.2401
▁عالية	-10.1116
▁Paragraph	-9.8086
▁factor	-9.9895
▁الضرر	-9.8845
▁الراهن	-9.9328
▁examine	-9.9288
▁والمعلومات	-9.9182
▁nine	-10.2634
preparatory	-10.3585
سمع	-11.6388
انية	-10.5903
ov	-10.9521
▁صدر	-10.1464
▁الممثلين	-9.9554
▁أموال	-10.2039
97	-10.6931
▁الطويل	-9.9626
▁يقل	-10.0839
▁Peoples	-10.0622
ps	-12.0600
▁Small	-9.9362
▁troops	-10.1203
DP	-10.7447
▁indeed	-10.1193
▁لتقييم	-9.9484
▁believes	-9.9755
▁وفضلا	-9.8594
▁latter	-9.9306
صة	-10.8495
▁الاستئناف	-9.9354
89	-10.6063
▁وردت	-9.8663
▁alive	-11.8988
▁Czech	-9.7813
▁unable	-10.0052
▁1997,	-10.3139
▁الرابطة	-9.9207
عل	-10.9222
▁systematic	-9.9302
▁فئات	-9.9383
▁explain	-10.5915
▁إما	-10.1056
▁drive	-11.4570
friend	-13.3881
وط	-10.7860
▁initiated	-10.0159
اخ	-10.9816
▁البقاء	-10.7552
▁عامي	-10.1076
wa	-10.8243
▁transit	-9.9552
▁قمة	-9.8304
▁وطلب	-10.0069
▁يعتمد	-9.9957
▁chap	-9.6946
▁التشيكية	-9.8138
▁فورا	-10.1031
▁fifth	-10.0323
▁prices	-10.0039
76	-10.6299
▁introduction	-9.9657
act	-11.5175
▁element	-9.9389
لح	-11.0304
▁topic	-9.9184
▁الكويت	-9.9465
▁الصحراء	-9.9780
▁updated	-10.0068
ay	-11.4640
Z	-10.9072
▁بالضبط	-12.3291
▁الدمار	-9.7705
▁(2006)	-10.1395
-7	-10.2796
▁الموحدة	-9.9290
شعر	-11.5867
92	-10.6627
▁tra	-12.2598
▁تركيا	-9.9795
▁باعتماد	-9.8558
▁الكلي	-10.0782
▁1995,	-10.5951
88	-10.7083
راج	-11.0144
▁الاتفاقيات	-9.9042
▁الصباح	-11.1796
▁com	-11.8157
ue	-11.5296
▁استخدامها	-10.0054
▁maintaining	-9.9289
ادي	-10.8220
▁والع	-10.4572
▁chemical	-10.0280
ef	-11.8651
▁website	-10.0231
▁بلده	-9.9882
▁helped	-10.1540
▁95	-10.6303
▁المقترحات	-9.8984
▁mortality	-10.0552
▁تعليم	-9.9537
▁نظرها	-9.8818
▁النقدية	-10.1704
▁المبالغ	-9.9929
▁الطيران	-10.1215
▁قطاعات	-9.9673
▁قطع	-10.4045
درج	-10.0897
▁hoc	-10.0345
▁thereby	-9.9682
▁attend	-9.9843
po	-11.2206
▁x	-12.1215
▁Philippines	-9.8180
▁أولئك	-10.3727
▁القبيل	-10.1460
▁يعود	-10.4508
▁أستراليا	-9.8595
▁ترجمة	-10.6917
▁ساعات	-10.6632
▁Power	-9.9507
بية	-10.8478
▁powers	-10.1702
▁بالفقرة	-9.8829
low	-11.9850
▁البيت	-10.9533
▁numerous	-10.0106
▁النشاط	-9.9812
▁الإطلاق	-10.5791
62	-10.5505
▁القادم	-10.2459
▁وتشير	-10.0414
▁principal	-9.9962
▁legitimate	-9.9330
▁missing	-10.8124
▁selected	-9.9673
▁Notes	-9.8820
▁Torture	-10.1279
▁diseases	-10.0100
▁Would	-11.8660
▁الأغراض	-9.9185
▁database	-10.0210
▁ذهبت	-12.4875
عقد	-9.9814
gi	-11.3583
▁بمثابة	-10.0433
24	-10.4481
▁تزيد	-9.9400
▁helping	-10.2229
▁تنفذ	-9.9499
▁outer	-9.8724
لن	-11.5819
▁duties	-9.9865
▁شا	-10.8434
▁يتسنى	-9.9171
▁يضع	-10.1264
▁حفل	-12.0737
▁بلوغ	-9.8873
▁ممارسات	-9.9110
73	-10.6242
▁1994,	-10.7687
ions	-11.8773
ct	-11.3879
▁frameworks	-10.1278
▁produce	-9.9909
▁losses	-9.9496
▁المتكامل	-10.0343
▁ناحية	-9.9984
▁المركزية	-10.1263
▁التحدث	-12.2672
قدم	-10.2383
▁substances	-9.9854
▁أقر	-10.1027
/68	-12.4280
عر	-10.6040
▁occurred	-10.0560
▁المتوقعة	-9.9153
▁2004-2005	-10.3955
▁المتوسطة	-10.0131
▁ورئيس	-9.9157
▁circulated	-9.9903
▁Use	-10.0331
يكس	-11.7761
▁وقدم	-10.0558
▁الحجم	-10.0060
▁تزويد	-9.9208
▁تعود	-10.7302
▁دائم	-10.1240
▁غدا	-12.2544
▁للتنفيذ	-9.8953
▁نجاح	-9.9846
▁الخير	-12.1201
▁forget	-11.6087
▁ساعد	-10.9439
▁المهنية	-10.0112
▁7-	-9.6818
داخل	-12.2932
cu	-11.8562
▁Thailand	-9.8326
▁learning	-10.0774
▁primarily	-10.0026
▁Movement	-9.9585
▁دعا	-10.0930
▁٢٥	-11.1128
▁Taking	-9.9807
▁81	-10.6183
▁geographical	-9.9918
▁Mon	-11.5560
▁والتقييم	-9.9266
▁keeping	-10.2761
agency	-10.0314
رد	-10.3075
▁تستهدف	-9.9470
▁تلبية	-9.9794
/11	-10.5072
▁الجن	-11.5141
:00	-13.0864
/12	-10.6219
para	-10.2156
برا	-11.0656
▁سنتين	-10.0343
مواصلة	-9.9155
▁وأكد	-9.9354
▁المبكر	-9.9956
▁الميداني	-10.1858
▁الصغير	-11.0837
▁الحقيقي	-10.4945
▁hoped	-10.0477
▁مل	-10.8795
▁search	-10.2030
▁نعرف	-11.4445
▁older	-10.1840
▁تتجاوز	-9.9723
▁قول	-11.7672
▁والس	-10.5080
▁لبريطانيا	-9.8956
▁أشارت	-9.9588
▁تست	-10.9939
▁هما	-10.0490
دوا	-10.6782
▁ونتيجة	-9.9944
▁Ra	-10.9172
▁الخمس	-10.0823
ارد	-11.8925
▁instead	-10.4376
▁allocation	-10.0066
king	-12.0435
tar	-11.8929
ودي	-11.1821
▁ملائمة	-9.9522
▁Hu	-11.5207
▁settlements	-9.9892
▁Statute	-9.8872
▁يهم	-11.9303
▁وعمليات	-9.9932
▁Bangladesh	-9.8225
▁تمييز	-9.9114
▁radio	-10.4468
▁officer	-10.4160
▁التصحر	-10.0432
▁ownership	-9.9269
▁يأخذ	-10.4526
▁79	-10.5985
▁recalled	-9.9946
▁Malaysia	-9.8130
▁Regulations	-10.0177
GEN	-12.8623
▁transparent	-9.9664
غير	-10.4930
▁seriously	-10.2631
عن	-11.3043
▁الدنيا	-10.5979
52	-10.4588
81	-10.5078
COP	-10.3918
▁الوقود	-10.1913
▁normal	-10.4353
▁سؤال	-10.9877
▁الصعب	-10.4750
▁مقدمي	-9.9140
▁بمرحلة	-9.9611
حد	-10.5663
▁النسبة	-10.2673
▁المست	-10.4063
Q	-11.0126
▁verification	-10.0708
▁بقوة	-10.0421
▁cycle	-10.1023
▁الخبرة	-9.9969
▁Poland	-9.8772
▁98	-10.6654
▁لتمكين	-9.9676
ولة	-10.8349
▁aims	-10.0103
▁مناقشات	-9.9200
يث	-11.0789
موت	-11.8020
▁refer	-9.9567
بقى	-11.8405
▁contributing	-9.9848
▁1996,	-10.4733
91	-10.5166
▁قدمتها	-9.9592
▁$1	-10.3036
▁المستمر	-9.9333
off	-10.5287
▁انهم	-11.2362
▁faith	-9.9252
تغلب	-10.0218
▁funded	-10.0707
▁Belgium	-9.7961
رع	-10.9240
▁وزراء	-9.9329
رسل	-10.7064
cl	-12.0136
▁دقائق	-11.2733
▁والاتجار	-9.8723
▁كلها	-10.5607
▁وتنفيذها	-9.9867
▁واو	-10.3441
▁Na	-10.9714
96	-10.7193
▁uses	-10.2093
ran	-11.3951
▁لإنشاء	-10.0087
))	-10.6229
▁87	-10.5857
▁القول	-10.2561
▁المراقب	-9.9580
▁بإمكان	-10.6359
▁آخرين	-10.0729
▁رائعة	-12.4384
نسي	-11.3089
▁سيارة	-11.9789
▁entity	-9.9064
▁الحب	-12.5798
▁percentage	-10.1568
▁المدى	-10.0043
▁regulatory	-10.0744
pp	-11.6597
tain	-11.6427
08	-10.7907
1-	-9.8946
▁departments	-10.0405
▁ظهر	-10.8878
▁أعمالها	-9.9716
▁الشروط	-9.9346
▁hour	-11.4501
rmed	-10.2667
▁Angola	-9.8598
▁كفاءة	-10.0536
▁dignity	-10.0056
▁الاستقلال	-9.9437
▁represent	-10.0458
▁تحاول	-11.3489
▁والدولي	-9.9229
▁أحيانا	-10.6023
▁موافقة	-10.1784
▁كو	-10.3578
▁adaptation	-10.0731
▁أكد	-9.9445
▁البيئي	-10.0662
▁وان	-10.8048
▁بالتنمية	-10.0015
▁governments	-10.0986
▁drawn	-9.9932
▁يأتي	-10.9687
71	-10.5105
72	-10.6564
▁يحب	-11.8046
▁allocated	-10.0152
▁نرى	-10.2244
دس	-11.4787
▁1999،	-9.5845
▁hot	-12.1746
▁perpetrators	-10.0615
▁worldwide	-9.9599
▁اعتبارا	-10.0043
▁النفاذ	-9.9135
▁تستند	-9.9720
▁والدي	-11.8211
▁الجزائر	-9.9805
▁safeguards	-10.0657
▁مخاطر	-10.1902
▁Eastern	-10.0979
▁maximum	-10.0474
▁والأنشطة	-9.9908
▁Partnership	-9.9123
▁الخفيفة	-9.7382
▁الكل	-11.3885
/6	-10.8906
▁عقب	-9.9651
54	-10.5324
ده	-11.1799
▁inclusive	-10.2414
▁disability	-10.2948
▁Supplement	-9.5572
▁size	-10.2896
▁أمس	-11.4936
▁designated	-10.0301
▁الضمانات	-10.0322
▁رئيسي	-10.0668
tri	-11.8408
▁complainant	-10.0744
▁إجمالي	-10.0794
▁الحرية	-10.1801
.10	-10.5967
▁trouble	-12.1869
.12	-10.8115
▁bar	-11.7045
▁attended	-9.9918
▁ونشر	-10.0400
▁شفوية	-10.6446
▁بالتالي	-10.0162
ach	-11.8372
▁الوقاية	-9.9167
▁station	-10.7006
▁السؤال	-10.3708
▁المانحين	-9.8749
▁judiciary	-10.0966
فض	-10.6336
▁soldiers	-10.1799
86	-10.7356
ST	-11.2211
▁أعقاب	-10.0243
▁تكلفة	-10.1519
▁لأفريقيا	-9.9605
▁/	-9.7725
▁موظفين	-10.0367
▁identifying	-10.0130
▁العاشرة	-10.0459
▁التعديلات	-9.9823
▁fighting	-10.4030
▁مجموعه	-10.1070
ميل	-11.3930
▁Ro	-11.4444
كو	-10.4993
▁daily	-10.0295
▁المحتملة	-9.9961
▁82	-10.6348
▁Recognizing	-9.9819
▁للخطر	-10.0393
▁للموارد	-9.9822
▁2006-2007	-10.3343
cho	-12.0617
▁Network	-10.0739
mb	-11.7400
▁Belarus	-9.9199
▁للتصدي	-9.9425
▁أدوات	-10.0934
ants	-11.7217
▁doctor	-11.5389
▁Coordinator	-10.0328
▁NPT	-10.1280
▁degree	-10.0716
▁Forces	-10.1227
▁النفط	-10.0180
▁god	-12.8892
▁located	-10.1250
▁تحديات	-9.9380
▁هاما	-9.9191
▁المتابعة	-10.0281
/48	-11.9333
▁كولومبيا	-9.9689
صد	-10.7153
شك	-10.9905
▁للمعلومات	-10.0303
▁استغلال	-9.9825
تل	-10.8968
▁والقضاء	-9.9357
▁بحالة	-10.0460
▁أخر	-12.2476
US	-11.1825
▁Task	-10.0060
شا	-10.9245
▁اعتبار	-9.9459
item	-10.0975
▁سلاح	-10.5450
▁looked	-10.8503
▁etc	-10.1261
دع	-11.2531
▁وإنما	-10.0181
▁obtained	-10.0275
▁مناسب	-10.2133
▁واتخاذ	-9.9877
▁تمثيل	-10.0787
▁نستطيع	-11.6279
قا	-10.9508
▁المعنيين	-10.0465
▁طرق	-10.1479
▁متعدد	-9.9099
▁الأجنبية	-9.9998
▁للمجتمع	-9.8856
راي	-11.6795
▁تؤيد	-9.8934
▁charges	-10.3549
▁examination	-10.0453
▁reasonable	-10.0401
so	-11.5167
▁incidents	-10.1892
▁Su	-11.2957
▁صد	-10.7969
▁معدات	-10.3490
▁السعودية	-9.8391
▁المهني	-10.0355
▁تظل	-10.0343
▁ILO	-10.0829
▁regulation	-10.0626
▁الاستغلال	-9.8866
▁التكيف	-10.2099
▁بصيغته	-9.8925
▁العلاج	-10.2065
مناسبة	-10.4314
▁83	-10.6296
▁صباح	-11.1300
يلا	-10.8221
▁Military	-10.2443
▁الحركة	-10.1610
▁productive	-10.0653
▁يتمثل	-9.9394
▁consultative	-10.1138
RES	-11.4216
port	-11.5270
▁الفتاة	-12.2544
▁CD	-10.5375
▁القاضي	-10.2763
▁الأس	-11.1641
اهضة	-10.0797
94	-10.6900
▁buy	-11.7417
▁affecting	-10.0569
▁بس	-10.8844
▁أفهم	-12.5817
▁Records	-9.5609
No	-10.7997
87	-10.6394
▁أجريت	-10.0938
▁Nairobi	-10.0348
▁يحدد	-9.9698
▁احتمال	-10.0928
▁أخذت	-10.9010
▁Follow	-10.2895
▁روح	-10.3160
▁التسجيل	-10.0084
03	-10.7076
بلغ	-10.1350
▁guarantees	-10.1480
▁الثنائية	-9.9900
▁meant	-10.7864
عدت	-11.6022
▁liability	-9.8916
▁اين	-12.2902
47	-10.6748
ثن	-11.2752
▁منتظمة	-10.0334
▁agency	-10.1864
ضة	-10.8261
▁impacts	-10.1630
38	-10.6220
غل	-10.8524
▁remedies	-10.0174
▁impunity	-9.9814
33	-10.5334
صار	-11.0218
لون	-10.8647
▁الاستراتيجيات	-9.9960
▁العسكريين	-10.2421
tur	-12.0291
▁widely	-10.0086
98	-10.8024
▁Sam	-11.6049
عون	-10.7897
شير	-10.3866
▁Comprehensive	-10.0692
▁الانتصاف	-9.9976
▁burden	-10.0764
▁Bill	-10.9515
▁believed	-10.3497
▁حلول	-10.0258
▁بليون	-10.0572
43	-10.5777
room	-11.1171
▁sanitation	-10.1154
▁عنصر	-10.0000
▁worth	-10.8569
▁علاقات	-10.0424
▁والاستقرار	-9.8428
▁الانتقال	-10.0838
rt	-11.5725
▁تدعم	-10.0064
▁vision	-10.1416
▁stations	-10.2570
ber	-11.4122
فك	-11.5280
▁تقديرات	-10.2907
▁والوكالات	-9.9827
▁القتل	-10.5876
▁وقع	-10.2418
▁لقرار	-9.9932
▁grant	-10.1236
▁هولندا	-9.9546
▁middle	-10.8013
▁المركزي	-10.1430
▁governmental	-10.0989
▁ونقل	-10.0458
▁Ben	-11.3842
ck	-11.8544
▁dispute	-10.0710
02	-10.5414
لند	-11.2850
▁pending	-10.1431
▁الغاية	-9.9982
▁coordinate	-10.0643
vis	-10.9019
▁code	-10.4499
▁Po	-11.6588
▁Professional	-10.2060
93	-10.5945
▁Gu	-11.5156
▁نساء	-10.1297
▁إثيوبيا	-9.8573
▁AIDS	-9.8798
▁finally	-10.9160
▁constructive	-9.9615
▁84	-10.6518
ok	-11.4064
ning	-11.5494
راض	-10.9061
▁reiterated	-10.0637
مجرد	-10.4595
▁مراجعي	-10.1256
▁مباشر	-10.1041
▁binding	-10.0360
▁observer	-10.0909
▁مز	-11.2249
▁ويرد	-10.0367
روس	-11.2348
▁الإسلامي	-9.9222
▁empowerment	-10.2363
▁التكامل	-10.0988
31	-10.4115
bi	-11.6467
▁art	-10.4521
▁تركيز	-10.0560
▁أوصت	-9.9962
ابة	-11.3214
▁specified	-10.0114
▁الكيانات	-10.0685
▁هاتف	-11.5004
▁واحدا	-10.4634
ise	-11.2491
▁وأدلى	-9.9419
▁ملموسة	-9.9254
▁الاتجاه	-10.0779
▁دائمة	-10.0500
/64/	-12.7732
▁سان	-10.3192
▁ملك	-10.8196
▁تعاني	-10.1825
▁dam	-13.2148
▁ذو	-10.7737
▁لاحق	-10.2564
▁cool	-13.4274
▁guide	-10.1228
▁فل	-10.8272
▁بحرية	-10.1064
▁الصناديق	-10.2248
▁8-	-9.7620
▁٢٣	-10.9485
▁imprisonment	-10.1607
▁نظرة	-10.9552
▁Miss	-13.2303
▁Informal	-10.0458
▁sick	-11.4789
قبل	-10.7505
▁الكفاءة	-10.2107
▁pilot	-10.1721
▁differences	-10.0709
▁نسخة	-9.9019
▁بالرغ	-10.5685
بالنسبة	-10.0593
▁الدبلوماسية	-9.9220
▁CRC	-10.6772
▁EU	-9.9401
▁الصرف	-10.1511
▁88	-10.6471
▁اتصال	-10.2768
▁النموذجي	-9.7596
▁transactions	-9.8792
61	-10.5890
▁عيد	-12.1144
▁Ar	-11.3705
▁الوحدات	-10.2376
▁employees	-10.0855
▁decrease	-10.1638
▁ويشمل	-10.0471
▁ارتكاب	-9.9891
▁ومجلس	-9.9507
▁يرحب	-10.0449
▁دراسات	-10.0739
▁Expert	-10.1563
▁Accordingly	-10.0397
▁Having	-10.0820
▁للقيام	-10.2288
▁Denmark	-9.9240
▁letters	-10.1808
▁والممارسات	-10.0295
▁والن	-10.4772
lar	-12.0191
قرار	-10.2148
▁declared	-10.1103
▁إندونيسيا	-9.8486
تمتع	-11.1743
▁ورصد	-10.0811
▁محدد	-10.1031
▁Excellency	-10.0125
kin	-11.8802
▁humanity	-10.0765
▁writing	-10.2468
▁ON	-11.2746
▁committees	-10.1156
سار	-11.2302
▁comment	-10.1333
▁secret	-11.1793
▁أمكن	-10.2197
يوم	-10.9206
▁صور	-10.6902
سير	-10.7111
البند	-9.9646
▁sale	-10.1533
rate	-11.8710
▁تحرير	-9.9831
▁البناء	-10.0852
-2015	-13.0700
▁والإقليمي	-10.0243
▁والعنف	-10.0466
▁assisting	-10.0278
▁٢٩	-11.4985
▁appear	-10.1921
2010	-12.6767
▁تسعى	-10.0537
▁٢٤	-10.7402
▁يست	-10.6142
طب	-10.6661
je	-11.4639
▁للأشخاص	-10.2734
▁preventive	-10.1081
▁character	-10.1586
▁sustainability	-10.1811
▁مراحل	-10.0502
▁وصندوق	-10.0581
▁ولد	-10.8324
بشأن	-10.0971
▁fell	-10.9707
كيف	-12.4293
▁تعيش	-10.5767
▁إعمال	-9.9949
EN	-11.6405
▁الرتبة	-10.1866
▁جورجيا	-10.0710
توقع	-10.6227
▁لكنني	-12.4784
▁Ecuador	-9.8909
▁فان	-10.4250
▁الدليل	-9.9639
terrorism	-9.8819
ورا	-10.9628
▁ولو	-10.5799
▁Romania	-9.8443
▁الوسائل	-9.9927
▁noting	-10.1554
▁وإضافة	-9.9947
▁receiving	-10.0879
▁اقتصادية	-10.0617
▁أبلغ	-10.0488
▁reaffirmed	-10.0230
▁مصالح	-9.9906
▁reviews	-10.2349
▁والبيئة	-10.1084
▁سويسرا	-9.9784
▁rapid	-10.1011
▁مفاوضات	-10.0102
cur	-11.9089
3-	-9.9399
▁subsequently	-10.0181
▁الحمل	-10.1935
▁12-	-10.0667
▁UNESCO	-10.1007
▁papers	-10.2948
▁يلاحظ	-10.0782
▁Rome	-10.1891
▁miss	-12.8239
▁رسميا	-10.1517
▁link	-10.0948
▁الرق	-10.7998
▁ولاحظت	-10.0427
▁السريع	-10.2007
▁permit	-9.9863
▁scheduled	-10.1357
▁بالإدارة	-10.0192
▁harm	-10.3044
حيل	-10.7837
▁location	-10.3272
▁product	-10.2284
قوا	-11.2981
▁Pre	-10.6836
▁disputes	-10.1196
▁أوكرانيا	-10.1115
▁board	-10.5020
▁LDCs	-9.8620
▁محق	-12.9034
▁المعيشية	-10.0469
▁انتباه	-10.0930
▁Costa	-9.9141
▁الحر	-10.6415
▁علاوة	-10.0095
مس	-10.9246
▁أذربيجان	-10.0929
▁الاستثمارات	-10.1300
ze	-11.3164
▁focal	-10.1285
6-	-9.9630
دام	-10.9008
▁التغييرات	-10.1002
بدو	-12.0838
▁asking	-11.6167
▁ومكافحة	-10.0132
▁الحائزة	-10.1362
▁نحتاج	-11.5110
وفي	-10.8738
▁التوعية	-10.1234
▁Society	-10.1392
بور	-10.9266
▁Earth	-10.6082
▁عمر	-10.6096
▁بدرجة	-10.0739
▁طول	-10.3652
▁الزمني	-10.1450
▁مؤقتة	-10.1138
▁تعيد	-10.2034
▁مغلقة	-10.1810
▁99	-10.8166
▁النجاح	-10.0354
▁اع	-10.9950
▁الإعلامية	-9.8754
▁للع	-11.1386
▁fast	-11.4332
ضرب	-11.5371
▁born	-10.5958
▁resumed	-9.9940
▁black	-11.6635
▁constraints	-10.0831
▁المواقع	-10.2066
▁600	-10.3506
▁نشاط	-10.0339
oo	-11.9294
▁attached	-10.1294
▁ideas	-10.3038
▁الشمال	-10.2420
▁north	-10.4489
ونه	-11.4807
▁Te	-11.2331
ارك	-11.8191
▁لان	-11.2274
▁prostitution	-10.0738
▁investments	-10.2611
▁86	-10.6958
▁بعمليات	-10.0146
AR	-11.3504
▁Foundation	-10.2784
▁التعويض	-10.0708
▁background	-10.1415
▁وطني	-10.1011
▁mental	-10.2212
▁Welcomes	-9.9639
▁achievements	-10.0568
▁استحداث	-10.0315
tel	-10.6449
▁contain	-10.0965
▁الحلقة	-10.1264
▁killing	-10.7588
▁picture	-10.9017
▁الواقعة	-10.1129
▁assigned	-10.0345
احة	-11.1290
▁Pa	-11.4553
زين	-11.4604
▁قراره	-10.1361
▁أسرع	-10.8443
▁Friday	-10.3047
▁للأنشطة	-10.1079
▁transmitted	-10.1305
▁البلاد	-10.3741
▁نت	-11.5086
▁improvements	-10.1398
▁التكنولوجيات	-10.0975
ذكر	-10.6205
▁الدستورية	-10.1424
▁فلسطين	-9.9922
▁regularly	-10.1035
▁الانسان	-10.8793
▁incorporated	-9.8096
▁advantage	-10.1597
▁اللغة	-10.0849
▁لأسباب	-10.0808
▁للتجارة	-10.0285
▁وتشجع	-9.9340
▁لمن	-10.8083
▁Rica	-9.9270
▁joined	-10.1530
▁migrant	-10.1941
63	-10.6384
▁neither	-10.3018
▁120	-10.7865
Commission	-9.7530
▁إيطاليا	-10.0252
▁عقود	-10.1035
.15	-10.8021
▁يتخذ	-9.9968
▁بالمادة	-10.0728
▁أدت	-10.0943
▁covering	-10.1845
▁option	-10.2181
bu	-11.9928
▁9-	-9.8173
▁showed	-10.3958
▁عبء	-10.0144
بري	-10.9560
▁ضعف	-10.2740
▁نام	-10.1660
▁invitation	-9.9881
▁تحديدا	-10.1427
وان	-10.9483
مات	-10.8591
▁ended	-10.3687
▁بإدارة	-10.1327
عدة	-10.5137
▁منتدى	-10.0148
▁released	-10.3686
طة	-11.1803
▁97	-10.7542
▁deliberations	-10.0018
▁محمد	-10.3881
▁rape	-10.2125
▁playing	-11.2049
.1).	-10.7036
▁تعليقات	-10.0158
42	-10.6178
▁Eritrea	-9.8929
▁UNODC	-10.2360
حال	-10.8706
ثة	-11.2888
▁لدول	-10.0278
ez	-11.4327
▁وبما	-10.0600
▁السعي	-10.1142
▁وتقوم	-10.0783
▁Sri	-9.9476
▁92	-10.7547
▁المراجعة	-10.1354
▁UNITED	-13.4123
▁المعرفة	-10.0536
بس	-11.0125
▁المباشرة	-10.1329
▁التفكير	-10.7512
▁الشديد	-10.1069
▁بري	-10.8320
conflict	-9.8327
▁Three	-10.8396
▁witnesses	-10.2168
▁firm	-10.2309
5-	-10.0111
▁الإحصاءات	-10.1419
▁seminars	-10.1622
▁حيثما	-10.0689
▁del	-11.1359
ble	-11.9192
▁جلستها	-9.9886
].	-10.9005
▁extensive	-10.0860
▁Venezuela	-9.9266
▁modalities	-10.0911
نز	-11.5720
▁قدمها	-10.0165
▁تسليم	-10.1323
▁والمواد	-10.1088
▁تخفيف	-10.0242
▁والق	-10.5252
▁التوجيه	-10.2032
▁يتسم	-10.0311
▁تنفيذا	-10.0971
▁المرتكبة	-10.0664
▁تسلم	-10.0760
▁earth	-10.1675
/7	-10.9581
▁الفت	-12.0243
▁المتبقية	-10.2007
▁تبقى	-10.6390
▁innovative	-10.1111
▁army	-10.4789
▁chemicals	-10.2587
▁opened	-10.3191
▁إضافي	-10.1427
▁بتوفير	-10.0643
▁feeling	-11.8901
▁ويتعين	-10.0000
▁ببعض	-10.7322
izing	-10.3663
بان	-10.9993
▁win	-12.0128
▁المؤشرات	-10.0798
▁ميانمار	-9.9977
▁وتطوير	-10.0889
▁capabilities	-10.1613
▁وافق	-10.1413
طو	-10.9042
raising	-10.1359
▁الرقم	-10.1562
▁Greece	-9.9878
▁المنظومة	-10.1600
▁lines	-10.3456
▁حر	-10.9510
▁extension	-10.1927
▁بمساعدة	-10.0699
▁starting	-10.6202
▁طائرة	-10.6204
▁Per	-11.3326
دور	-10.6960
▁تقر	-10.3372
▁controls	-10.1255
عالي	-11.1334
▁Indeed	-10.2434
▁everybody	-12.8321
▁بير	-10.9127
▁فرد	-10.1754
▁هد	-11.7307
▁usually	-10.4239
▁بالقلق	-10.1407
رجع	-11.1298
▁web	-9.9860
▁الغرفة	-11.3222
▁technological	-10.1545
▁بعنوان	-10.1242
▁bear	-10.3031
▁بقوات	-9.9800
▁advocacy	-10.1347
▁حاول	-11.4772
/13	-10.6878
▁يتفق	-10.0809
متابعة	-10.0283
▁الأفعال	-10.0440
▁completely	-10.7826
7-	-10.0234
▁اكثر	-10.3839
▁تأمين	-10.2066
▁Beijing	-10.0541
إعادة	-10.1413
▁counsel	-10.1032
▁realize	-10.6588
▁الدم	-10.9783
▁Science	-10.3324
▁تمكن	-10.2429
▁CEDAW	-10.4533
▁وسيكون	-10.1223
▁jointly	-10.1260
▁Was	-12.1768
▁للبرنامج	-10.1655
▁dealt	-10.1001
▁العشرين	-10.2891
51	-10.7483
▁panel	-10.0997
▁وجرى	-10.1291
▁بالحكم	-10.0615
▁train	-10.8113
▁تزايد	-10.0890
í	-11.5165
▁detained	-10.3817
▁الأعلى	-10.5139
▁Head	-10.4620
▁Each	-10.1550
▁دار	-10.4315
▁Change	-10.2102
▁Reaffirming	-10.0330
▁وصف	-10.1836
lin	-11.4944
-8	-10.7546
rap	-11.9627
▁links	-10.1905
▁En	-11.3223
▁نيوزيلندا	-10.0125
▁vulnerability	-10.0909
▁Activities	-10.1602
▁واجب	-10.2530
▁returned	-10.3534
▁الأسئلة	-10.3811
▁Portugal	-9.9571
▁أنشطتها	-10.0394
▁Ministerial	-10.0200
▁proportion	-10.1276
▁طبقا	-10.1274
Sub	-10.4680
▁examined	-10.1946
▁Lanka	-9.9508
▁91	-10.7640
▁YOU	-12.9024
راق	-11.0669
▁proliferation	-10.0052
▁announced	-10.1819
دية	-10.6329
84	-10.6570
▁spread	-10.1744
▁OIOS	-9.9365
وى	-11.3405
▁قليل	-10.7461
راه	-12.4328
▁wall	-10.5702
▁الخروج	-11.1326
▁NATIONS	-13.6393
▁built	-10.4643
▁perform	-10.1756
▁ولاحظ	-10.0726
▁والحد	-10.1259
▁Chinese	-10.3273
▁الخط	-10.6432
▁anniversary	-10.3480
زة	-10.8500
▁المدة	-10.2401
▁Nepal	-9.9363
▁الموحد	-10.1086
▁إيجابية	-10.0534
▁Serbia	-9.9078
over	-11.4378
▁expanded	-10.1227
فتح	-11.0271
هتم	-11.8951
▁93	-10.7826
▁الابتدائية	-10.0786
جة	-11.1620
82	-10.7587
بني	-11.2727
▁belief	-10.1890
▁جراء	-10.1154
▁outlined	-10.1122
▁كتاب	-10.6338
▁gap	-10.1292
طعم	-12.1084
▁عبد	-10.2000
▁mandated	-10.2093
▁كأن	-12.2511
▁south	-10.5095
▁تشريعات	-10.0802
jo	-11.5926
▁Strategic	-10.1990
▁الإقامة	-10.1477
▁gives	-10.4454
▁الجامعة	-10.2983
▁stupid	-13.9643
fect	-12.3238
▁أولويات	-10.1001
▁كار	-10.9830
▁المنزلي	-10.2981
▁حكومات	-10.0821
▁مستقبل	-10.2735
▁attempt	-10.2185
▁96	-10.7832
ney	-12.6010
▁وسائر	-10.0678
▁VII	-10.3635
فاف	-11.5088
▁standing	-10.6536
▁خاصا	-10.0693
▁Independent	-10.3366
▁المواضيع	-10.0923
▁بيع	-10.3922
▁notice	-10.2304
▁سام	-11.2059
▁وتقدم	-10.1173
▁voice	-10.7293
خب	-11.3402
▁Am	-11.6126
▁لأنشطة	-10.1037
▁الأمل	-10.1614
▁النرويج	-10.0593
▁كرواتيا	-10.2307
▁الفقيرة	-9.9971
▁94	-10.7958
ible	-11.8890
▁turned	-11.1697
▁المغرب	-10.1229
▁المدن	-10.1130
aw	-11.8000
▁وصلت	-11.0587
▁كجزء	-10.0631
ضر	-11.0767
▁النقد	-10.1463
▁convened	-10.0943
يش	-10.7438
▁89	-10.7302
▁campaigns	-10.1636
▁الث	-11.2715
▁بنود	-10.1042
▁1989	-10.8315
▁قريب	-10.8844
▁arbitrary	-10.2994
لمواجهة	-10.3649
▁بأعمال	-10.1778
▁disease	-10.2226
▁transferred	-10.2636
▁وأفراد	-10.2480
▁نقاط	-10.2323
▁الطعام	-11.2100
▁(2003)	-10.3486
نه	-11.6121
▁subjected	-10.3025
▁staffing	-10.2741
▁Dam	-12.8807
▁الانبعاثات	-10.2032
4-	-10.0083
▁اخت	-11.3132
▁Climate	-10.2836
لشؤون	-10.0456
▁لنظام	-10.1767
▁خلق	-10.7227
▁غيرها	-10.3117
▁وأضافت	-10.0264
▁سابق	-10.3846
▁Environmental	-10.3858
▁قو	-11.6105
▁يقع	-10.1983
▁خالية	-10.2161
▁coordinating	-10.1740
▁mines	-10.2597
▁difference	-10.5496
▁doubt	-10.4685
▁المطاف	-10.2978
كة	-11.3580
▁الجنوبية	-10.3215
▁الدائرة	-10.1086
▁يعملون	-10.3176
▁recognizes	-10.1718
▁الآ	-11.7445
▁المشتريات	-10.1835
▁أعلن	-10.1730
▁لله	-11.2611
▁شاهد	-11.3070
▁write	-11.0698
▁Cambodia	-10.1060
▁التقديرات	-10.3043
let	-11.4729
▁investigate	-10.3421
▁التدريبية	-10.2272
▁Strengthening	-10.2854
▁وفق	-10.2891
▁teachers	-10.2361
▁بالحق	-10.1777
▁1998.	-10.9819
ذه	-11.4963
▁nationals	-10.2870
▁مقاطعة	-10.4348
▁served	-10.2281
نس	-11.0282
▁غي	-10.7977
▁مص	-11.4063
59	-10.6362
▁المحتويات	-9.8756
▁انتقالية	-10.0720
▁لانكا	-10.0804
▁سانت	-10.3565
su	-11.7960
▁إم	-11.6148
▁serving	-10.0871
▁مثال	-10.5674
▁الاثنين	-10.3161
▁يبدأ	-10.2667
▁باريس	-10.3301
▁Hold	-13.5225
▁روما	-10.0898
▁expand	-10.1749
▁انتهاكا	-10.1571
▁بعملية	-10.1353
سك	-11.1721
▁Arabia	-9.9145
▁باستثناء	-10.2469
▁(2000)	-10.1884
▁Budget	-10.2210
▁كيوتو	-9.9753
▁يمكنها	-10.5834
▁الاحتلال	-9.9205
▁انعدام	-10.1381
ستي	-12.0700
ink	-12.1826
▁contrary	-10.1373
▁Kyoto	-9.9669
▁سيتم	-10.3835
▁يومي	-10.1979
FCCC	-10.3059
▁ونزع	-10.0981
▁traffic	-10.3384
▁طرفا	-10.1109
▁ICT	-10.0126
▁pleased	-10.0583
▁باعتباره	-10.1137
▁examples	-10.1202
▁wonder	-11.7688
▁وجنوب	-10.1600
▁Platform	-10.2558
▁Planning	-10.2373
▁valuable	-10.1581
▁suffered	-10.2065
▁مم	-11.5318
▁أكدت	-10.1179
▁أشكر	-10.0616
▁cell	-11.3193
تنمية	-10.1224
▁Model	-9.9556
▁حقيقية	-10.4635
▁processing	-10.2831
وص	-10.6701
▁بالتزاماتها	-10.0627
▁لرصد	-10.1538
▁تمديد	-10.1901
حص	-11.2248
▁solidarity	-10.1020
▁والمسائل	-10.1620
▁modern	-10.2173
hy	-12.0128
ham	-11.4490
▁البحري	-10.1696
/56/	-10.0258
▁الفكرية	-9.8907
▁المجموع	-11.1988
▁exports	-10.1922
▁وحمايتها	-10.1758
▁competence	-10.1546
den	-11.3391
▁المراكز	-10.1763
▁associations	-10.2251
▁residence	-10.0978
▁الموظفون	-10.3343
▁jobs	-10.4618
▁Southern	-10.2878
▁رسمي	-10.2565
▁السيطرة	-10.5411
▁becoming	-10.2225
▁طابع	-10.1231
▁simply	-10.3009
▁hair	-12.4654
9-	-10.0490
▁للصندوق	-10.1622
right	-11.7624
▁عرفت	-12.3729
▁وكفالة	-10.1149
▁Urges	-10.0175
▁الشهر	-10.2201
▁المقام	-10.2497
▁1988	-10.8182
▁حضور	-10.2075
▁spent	-10.7698
▁عوامل	-10.1436
▁changing	-10.3693
▁simple	-10.7756
▁متاحة	-10.1752
▁يستند	-10.0947
▁ban	-10.6461
▁نريد	-11.8355
▁unemployment	-10.2534
▁computer	-10.7015
▁invite	-10.0342
▁لاحظت	-10.3303
▁Additional	-10.1449
▁strength	-10.3938
▁تابع	-10.7201
▁unique	-10.1982
▁seminar	-10.1097
▁معنا	-11.7746
▁طبيعة	-10.1597
▁يستخدم	-10.3130
▁أراضي	-10.1428
▁السليمة	-10.2291
▁involve	-10.1178
▁الجغرافية	-10.2293
▁المتمثل	-10.0749
▁passed	-10.5384
▁اتخاذها	-10.1172
▁بضرورة	-10.1283
▁latest	-10.2087
▁المشاركون	-10.1034
▁بحسب	-10.0601
▁أش	-11.7874
▁البديلة	-10.0923
▁الشعبة	-10.1737
فال	-11.3689
▁Turkish	-10.2914
ft	-11.7726
▁class	-11.0546
زعج	-12.0161
▁hearing	-10.5077
▁regards	-10.2553
▁Salvador	-10.1301
ship	-11.1870
▁اتصل	-12.1578
▁الجمعة	-10.3053
▁الأب	-11.2800
az	-11.5330
▁150	-10.8215
▁شديد	-10.4505
▁cold	-11.3910
.9/	-10.4613
▁Monday	-10.3530
▁deliver	-10.3416
▁Racial	-10.0863
▁violated	-10.3856
▁Palestinians	-10.0297
▁الإنتاجية	-10.1777
▁تفيد	-10.2318
▁acceptance	-10.1332
▁1993,	-10.8181
▁السماح	-10.2678
▁احت	-10.7793
▁ملاحظات	-10.1348
▁withdrawal	-10.1105
ize	-10.9555
▁briefing	-9.9116
▁المعروضة	-10.1384
يتا	-10.9607
▁البو	-11.3889
▁rid	-12.0402
▁Issues	-10.1069
دني	-11.2181
الأ	-11.0595
▁نيروبي	-10.1386
▁حرب	-10.4349
▁intolerance	-10.0260
▁ببيانات	-10.0862
▁manage	-10.3605
▁Armenia	-10.1069
▁copy	-10.0674
▁استعداد	-10.1995
▁التوقيع	-10.0818
▁باستمرار	-10.1845
قط	-11.2576
▁mobilization	-10.1776
▁Island	-10.3651
▁الدفع	-10.3470
▁الشر	-11.2564
▁influence	-10.2174
▁المر	-11.0710
▁happens	-12.3291
▁أبو	-10.8270
▁تكوين	-10.1446
▁recommend	-10.2010
▁إحاطة	-10.0858
▁للأطراف	-10.1086
▁unilateral	-10.0419
سى	-12.0506
▁بالأطفال	-10.0709
▁أدلة	-10.3161
اعت	-10.8846
gg	-12.0553
▁والقطاع	-10.1144
▁الثقافي	-10.0879
/2009	-11.0088
مير	-11.1714
شو	-11.0369
▁sort	-11.7141
▁تخضع	-10.1203
▁المعاملات	-9.9974
▁trend	-10.1975
▁أنغولا	-10.1518
▁الجيدة	-10.4115
▁figures	-10.2640
▁شيلي	-10.1502
فار	-11.2525
▁(2005)	-10.3396
▁Sixth	-10.1221
ينغ	-11.0866
▁fish	-10.7416
▁orders	-10.8320
▁والأمم	-10.0927
▁اذ	-10.6108
▁nation	-10.1887
▁تتمكن	-10.2342
▁السويد	-10.0985
▁المرجع	-9.3414
▁trained	-10.4044
إمكانية	-10.2081
▁City	-10.6480
▁federal	-10.4492
▁wished	-10.2340
▁Combat	-10.2369
▁facts	-10.3641
▁تعالج	-10.1305
▁حدثت	-10.3040
ans	-11.6643
▁transmit	-10.2888
▁العابر	-10.0928
▁كله	-11.4950
▁danger	-10.4478
▁عضوية	-10.2340
▁الإيجابية	-10.0434
▁welfare	-10.2218
iz	-11.7072
▁Paul	-10.1556
كتشف	-11.9056
▁Observer	-10.2092
▁1980	-10.7282
▁Bu	-11.7789
▁نكون	-11.2012
▁custody	-10.5596
امي	-11.0651
▁وذكرت	-10.1655
▁الانتباه	-10.1842
توقف	-11.2196
▁قاد	-12.0168
ring	-11.5463
▁الحديث	-11.0751
▁مرض	-10.6483
▁Tanzania	-10.0470
▁القسم	-10.3953
نغ	-10.5109
▁ship	-10.9781
▁توضيح	-10.1637
▁Page	-11.0089
▁Violence	-10.3127
▁لعمل	-10.2756
▁وقبل	-10.1319
▁envisaged	-10.1732
تشر	-11.0299
▁والتدابير	-10.1839
صر	-10.5924
▁Oversight	-10.1137
▁المجاورة	-10.1603
▁أساسيا	-10.0841
▁represents	-10.2150
▁التهديد	-10.1981
▁Statistics	-10.2373
8-	-10.0792
▁(2008)	-10.8215
▁المساعدات	-10.0922
▁societies	-10.1058
▁ابت	-11.7762
▁organ	-10.6137
دعى	-10.5964
▁زيارة	-10.2755
▁الطائرات	-10.2540
▁الغذائية	-10.2463
▁path	-10.6043
▁association	-10.2252
▁raising	-10.2532
▁master	-10.6330
▁اتخذ	-10.1918
▁تسهم	-10.1369
▁Dan	-12.1188
▁المسؤولة	-10.1463
▁والشعوب	-10.1715
▁camps	-10.2646
▁كفاية	-10.4363
▁سلوك	-10.2681
قع	-11.2148
▁اتحاد	-10.2202
▁village	-10.6477
▁roles	-10.3054
▁explained	-10.2279
▁سياسي	-10.1869
▁التعليقات	-10.0875
ass	-11.6080
فترض	-11.5603
.2/	-11.0259
▁+	-11.1533
▁methodology	-10.2610
▁users	-10.2676
▁متنوعة	-10.3037
▁الجغرافي	-10.1973
▁'1'	-9.4187
▁version	-10.2477
▁overcome	-10.1454
▁الرئيسة	-10.1119
▁المصالح	-10.1022
▁بط	-11.5633
▁جزئيا	-10.2561
▁القاسية	-10.2267
ثر	-11.2434
خطة	-10.3710
▁مرات	-10.7409
▁تدرك	-10.3032
▁تقنية	-10.3058
▁track	-10.7608
▁يمكنه	-11.5620
▁قيادة	-10.3726
▁التشغيلية	-10.3115
▁عسكرية	-10.2804
▁تشدد	-9.9985
▁قانونا	-10.2428
▁الإنجاز	-10.0153
▁moved	-10.6441
▁Counter	-10.0514
▁نيجيريا	-10.1737
▁Safety	-10.1869
▁بوجود	-10.3593
رن	-10.9476
وغ	-11.1475
▁GENERAL	-13.1982
▁الإيدز	-9.9624
2,	-11.5637
▁العيش	-10.5406
▁banks	-10.3314
▁Measures	-10.2045
▁limits	-10.2501
▁والمشاركة	-10.1968
▁تملك	-10.9746
▁constitutes	-10.1833
▁الكافي	-10.2811
▁الأح	-11.8649
داد	-10.6884
▁directed	-10.1810
▁المفترض	-11.6206
▁يؤيد	-10.1066
▁الاشتراكات	-10.2063
▁للتدريب	-10.2437
ونا	-11.5032
ile	-11.3821
▁الصحيح	-10.6389
وسي	-10.8498
جيل	-11.2888
▁Uruguay	-10.0901
▁perfect	-11.5970
▁British	-10.3618
▁ويقدم	-10.2163
▁شبكات	-10.2048
ale	-11.7215
▁الجهاز	-10.3143
فه	-11.9169
▁قادرة	-10.4508
▁touch	-11.9931
شف	-11.2339
▁relevance	-10.1913
▁finding	-10.4490
▁وعليه	-10.1089
▁يعيش	-10.6079
▁عاتق	-10.1163
صح	-11.1811
reg	-12.0632
▁هن	-11.3326
Habitat	-10.2146
▁Reports	-10.2086
▁التأهيل	-10.3133
▁male	-10.4278
treatment	-10.6767
▁النسائية	-10.1619
▁biological	-10.2230
ثان	-11.4365
▁تطور	-10.2414
▁reality	-10.3260
▁combined	-10.2616
▁severe	-10.3356
▁Encourages	-10.1290
▁WHO	-10.3673
▁segment	-10.2048
▁بيجين	-10.0683
▁وتيسير	-10.1857
▁تتمثل	-10.1498
▁mid	-10.4008
▁pension	-10.2413
▁أنفسهم	-10.4065
▁demonstrated	-10.1584
▁القص	-11.6273
▁بإعداد	-10.1875
▁وتدعو	-10.0510
▁تفاصيل	-10.1901
wi	-11.6948
▁الخطيرة	-10.1116
▁التغيير	-10.4552
▁قابلة	-10.2005
▁المساءلة	-10.3091
▁الوثيق	-10.1594
▁النهاية	-10.9097
▁Today	-10.3406
▁الأزمات	-10.1477
▁Before	-10.5443
▁Number	-11.0106
▁المئوية	-10.6287
▁Agriculture	-10.2661
▁object	-10.2765
specific	-10.2002
▁fishing	-10.3026
mi	-11.6129
قام	-10.8451
▁lasting	-10.0386
▁periods	-10.3499
▁Vi	-11.5042
عرب	-10.0742
pri	-12.4787
▁Say	-12.4316
▁customs	-10.1582
▁Help	-11.7925
▁substance	-10.1136
▁2002-2003	-10.4181
ide	-11.8249
▁إنني	-11.6996
▁التحليل	-10.2022
ئي	-11.1148
▁يؤثر	-10.2029
▁وثيق	-10.1752
nt	-11.4558
▁الخيارات	-10.2428
▁broader	-10.1912
▁والمرأة	-10.1462
▁متزايد	-10.1961
▁dog	-13.0406
▁Land	-10.4826
▁تفسير	-10.3121
▁complaint	-10.3020
▁Equality	-10.3392
▁selection	-10.2751
▁أشد	-10.2655
عتبر	-10.2366
imp	-12.0636
▁dinner	-14.1703
▁شراء	-10.5853
form	-11.5951
▁drop	-11.2710
▁الأفرقة	-10.1932
▁إشراك	-10.1529
▁تهيئة	-10.1471
رغب	-11.5746
▁الشبكي	-10.3479
▁محدودة	-10.2127
▁السواء	-10.1182
▁الضمان	-10.0914
▁none	-10.8259
لاند	-11.0267
▁introduce	-10.3928
▁قر	-10.7603
▁voting	-10.1621
PV	-11.0721
▁Finance	-10.2693
addy	-13.8701
▁الحرة	-10.2455
▁Je	-11.8041
▁الشواغل	-10.0913
▁prohibited	-10.2579
▁والمعدات	-10.2777
▁lawyer	-11.1438
serv	-11.8272
▁legally	-10.3026
va	-11.5982
▁appreciate	-10.5559
net	-11.0486
▁1987	-10.9179
▁choose	-10.5802
▁مارس	-11.0855
/1995	-12.1227
تفهم	-11.4288
▁التدخل	-10.3157
scale	-10.3018
red	-11.3598
▁بوسع	-11.0375
▁update	-10.3141
▁المصادر	-10.2183
▁appears	-10.3437
فن	-11.2489
▁op	-10.9828
فس	-11.1378
▁liberty	-10.4897
▁وترى	-10.2499
▁foster	-10.3010
▁الكافية	-10.1763
▁والثقافة	-10.2124
▁افعل	-12.9934
▁وفدي	-9.8472
مكان	-11.8278
á	-11.4079
▁إبلاغ	-10.2003
▁والهيئات	-10.1791
▁سفر	-10.2967
▁map	-10.4287
▁تولي	-10.2235
▁أخيرا	-10.7870
▁fa	-12.3946
work	-11.5184
chi	-11.4265
▁budgets	-10.3962
▁دين	-10.8201
▁التشريع	-10.1883
▁تعديلات	-10.2098
har	-11.5394
▁وفود	-10.2031
▁مياه	-10.2543
▁adjustment	-10.3468
▁شركات	-10.3062
ًّ	-10.6321
▁Both	-10.4387
خص	-10.8893
▁بزيادة	-10.2037
نقذ	-11.9878
▁shoot	-13.5564
مكافحة	-10.1195
being	-10.2794
خيل	-11.6187
▁ليشتي	-9.8393
▁محاكمة	-10.3219
▁Mali	-10.2437
لحظ	-12.7679
▁ينطوي	-10.1610
▁homes	-10.3220
▁تعبئة	-10.2078
▁largest	-10.3373
▁الخبرات	-10.2058
▁تأييد	-10.0105
وش	-11.1581
▁البريد	-10.4247
▁٢٦	-11.3189
فيد	-11.0437
▁focusing	-10.2502
▁Senegal	-10.0407
▁distributed	-10.2614
ever	-11.4477
▁bearing	-10.1911
▁الخاضعة	-10.1189
▁Conventions	-10.3679
▁رئاسة	-10.0859
▁٢٧	-11.4929
▁reflects	-10.2081
▁premises	-10.4183
▁تدفع	-10.5632
▁لسنة	-10.1931
▁يظل	-10.2214
▁sides	-10.3498
▁ومؤسسات	-10.1851
حس	-11.0864
حف	-11.2106
طال	-11.1763
▁الض	-11.3364
▁الإنفاق	-10.3812
▁witness	-10.6098
▁التقاعدية	-10.3047
cr	-11.9880
▁للح	-11.1023
▁بتاريخ	-10.1780
▁قوي	-10.6249
▁أنشئت	-10.2028
▁لتيسير	-10.1909
▁حينما	-11.0066
▁Char	-12.7936
▁التشغيل	-10.4235
▁trans	-11.1696
وبة	-11.2639
▁detainees	-10.4802
اشي	-11.1668
▁Em	-12.0066
▁إسبانيا	-10.0964
▁بنشاط	-10.1467
▁Main	-10.2715
▁عملي	-11.0615
mil	-12.1488
▁يتناول	-10.1650
▁Ta	-11.3401
▁خامسا	-10.2997
لال	-10.7981
▁demands	-10.3052
▁لاحظ	-10.2169
▁ميل	-11.2872
▁Representatives	-10.2842
▁Hungary	-10.0575
▁Peacebuilding	-10.0153
رث	-11.2072
▁'2'	-9.4513
▁explanation	-10.2674
hu	-11.6931
▁تعويض	-10.2117
side	-11.4223
▁بفضل	-10.3132
▁فنلندا	-9.9019
▁Afghan	-10.0693
▁تفضل	-12.1101
▁أوغندا	-10.1038
▁جهد	-10.2116
▁الشكاوى	-10.3416
▁Tunisia	-10.0513
.1/	-10.9950
▁لتغطية	-10.3237
▁dream	-12.3105
▁وف	-10.7875
▁Water	-10.5756
▁structural	-10.4217
▁المعوقين	-10.0330
▁للطفولة	-10.1861
▁للمنظمات	-10.2299
Integrated	-10.3694
ari	-11.3617
▁يدفع	-10.5960
▁ضمانات	-10.2640
lie	-13.2122
▁تحد	-10.3697
▁محامي	-10.9147
▁add	-10.3576
▁street	-11.2314
▁أعلنت	-10.2409
الية	-10.9837
▁gaps	-10.3211
▁sections	-10.3045
▁FAO	-10.2722
▁Could	-11.9752
▁انني	-11.7669
▁يذهب	-11.8243
▁كلما	-10.6471
▁aggression	-10.1953
▁لمشروع	-10.0633
▁transportation	-10.4085
▁schedule	-10.4568
get	-12.8741
▁المج	-11.4549
▁المحليين	-10.2997
▁Takes	-10.1748
جاز	-10.9127
▁قم	-12.1910
▁الإغاثة	-10.1733
pt	-11.4120
du	-11.2368
row	-11.8210
يفا	-11.5056
▁Auditors	-10.3415
dding	-13.0167
▁ممن	-10.3866
▁الأردن	-10.2601
▁آل	-11.1484
▁الثامن	-10.2699
▁برا	-11.1386
▁تعطي	-10.9727
▁Operation	-10.4125
▁غواتيمالا	-10.1939
▁7,	-10.4838
▁catch	-11.9843
▁أتمنى	-12.8693
▁المش	-11.3514
▁بيرو	-10.1732
يرى	-10.3980
▁expresses	-10.1958
▁camp	-10.7460
▁الإبادة	-10.1342
▁بالجهود	-10.1662
▁والمبادئ	-10.1992
▁عدا	-10.6977
▁Indian	-10.5796
▁Nam	-10.1709
▁بح	-11.4139
▁ككل	-10.2473
▁appeals	-10.2639
▁11-	-10.0007
▁السفن	-10.2608
وزارة	-10.2336
مختلف	-10.2313
▁FOR	-11.6653
▁Har	-11.6992
▁eye	-11.8212
▁London	-10.7878
▁العنصر	-10.2620
▁وأنشطة	-10.2422
ris	-12.3796
بث	-11.0209
▁المفتوح	-10.3252
▁embargo	-10.2611
▁المبينة	-10.1767
You	-12.0101
▁التدريجي	-10.2031
IC	-11.4452
▁الموظف	-10.2646
▁coherence	-10.2581
▁corporate	-10.2948
▁المساهمات	-10.2529
▁مق	-11.1059
▁Bible	-9.2277
vo	-11.6518
▁وتحث	-10.0587
نق	-11.1859
▁الممكنة	-10.1907
ليك	-11.9032
▁Ibid	-9.5582
▁Bulgaria	-10.0705
▁المهارات	-10.2962
pro	-11.5482
▁David	-10.4018
▁(2009)	-11.6298
▁المل	-11.1486
▁ثقافة	-10.1746
▁(5)	-10.3827
▁موظفا	-10.3823
tin	-11.8019
▁heavy	-10.5705
▁سل	-10.8364
▁6,	-10.5399
UR	-11.9411
▁أطلق	-11.0013
ccupied	-10.1884
/8	-10.8361
جوز	-11.9834
▁Tom	-12.7922
▁بينهم	-10.4520
▁تس	-11.0667
▁greatest	-10.4457
▁ري	-10.9555
يط	-11.0574
▁بالقضاء	-10.2540
▁مشروعة	-10.2114
▁commit	-10.2873
▁تواجهها	-10.2366
▁advancement	-10.2463
▁نوعا	-11.6146
▁تتمتع	-10.2479
▁programming	-10.3548
▁للمشاركة	-10.1276
▁pain	-11.3180
رأة	-11.6688
▁managed	-10.4839
▁آمن	-11.3725
▁المستقل	-10.1475
▁التعليق	-9.8945
▁enterprise	-10.2935
▁indicates	-10.3354
▁المتمثلة	-10.1906
▁conclude	-10.1546
▁معرض	-10.3392
ائد	-11.0234
duc	-11.9033
▁الأخ	-11.7603
▁posed	-10.2306
▁cities	-10.2760
▁السلبية	-10.2443
▁charged	-10.4102
▁Put	-13.1053
▁Sp	-12.0398
▁تنطبق	-10.0727
▁سحب	-10.4755
▁handle	-11.4219
▁وعند	-10.3205
▁الأو	-10.8208
▁الهجمات	-10.0826
▁تظهر	-10.6378
▁المحاسبية	-10.6437
▁غالبا	-10.2857
▁preparations	-10.2836
وات	-11.0154
▁يشجع	-10.2005
▁مزيدا	-10.2209
▁معهم	-10.9575
▁٢٨	-11.1565
▁managers	-10.3112
▁فرع	-10.4282
▁undertaking	-10.2115
▁signature	-9.9687
▁تقدما	-10.2261
▁Di	-11.2254
▁فإننا	-10.0707
▁يش	-11.0939
▁certainly	-10.6683
▁urge	-10.0838
?"	-11.9260
▁trading	-10.2491
▁منسق	-10.2372
ana	-11.4433
IV	-10.8869
▁اثنين	-10.7829
▁شعور	-11.1191
▁thousands	-10.3231
▁وربما	-10.5125
▁devoted	-10.2596
▁expect	-10.8572
▁طائفة	-10.2254
▁اهتماما	-10.1401
نفس	-11.7788
ood	-12.4186
▁German	-10.5994
▁انتخابات	-10.2590
سيء	-12.2755
▁acquisition	-10.2193
▁تركت	-12.2806
▁Air	-10.9036
▁Recommendation	-10.1439
▁للق	-10.9282
af	-11.7266
▁والسلام	-10.0996
▁topics	-10.2858
ments	-11.7563
▁هذين	-10.2634
▁belonging	-10.3145
▁الأجر	-10.4620
لاك	-11.3279
▁برو	-11.2331
▁اللاإنسانية	-10.2841
▁صكوك	-10.1968
▁Serious	-10.7047
▁Shu	-12.8636
إتاحة	-10.2554
▁Defence	-10.2901
▁جهات	-10.2491
راب	-11.1913
▁savings	-10.4631
▁pull	-12.7091
▁الاتجاهات	-10.2877
▁00/10	-10.0807
▁بالتشاور	-10.2561
▁شهرا	-10.3415
▁Consideration	-10.2228
▁white	-11.7590
▁Libyan	-10.1701
▁ذكرت	-10.3747
▁يحق	-10.2125
▁تعكس	-10.2860
تسم	-11.0019
▁Peter	-10.7627
▁النمسا	-10.1853
-9	-10.8020
▁multiple	-10.4665
▁Keep	-12.5211
▁المقيمين	-10.3754
/10	-10.7752
/16	-10.8327
▁اعتمدتها	-10.1693
▁الملك	-10.6208
▁للس	-11.1533
▁insufficient	-10.2876
▁Ghana	-10.0963
▁والرعاية	-10.2467
▁بعضها	-10.4247
▁largely	-10.3266
▁وانت	-11.4397
▁الفقراء	-10.2490
▁بات	-10.8780
▁closer	-10.5612
▁occasion	-10.2989
▁اختصاص	-10.3004
▁تكنولوجيات	-10.2181
▁طبيب	-11.5850
▁وغيرهم	-10.2443
▁وإعداد	-10.3097
▁أشياء	-12.1116
▁البت	-10.2551
▁باستعراض	-10.2445
▁شعر	-11.7512
mentioned	-10.3047
ربما	-11.8627
▁تفعله	-12.4479
▁experienced	-10.3004
كول	-11.6282
▁للمواد	-10.2678
▁وتنسيق	-10.2693
care	-10.4252
▁والمساواة	-10.2616
خو	-10.7960
▁وأكثر	-10.3072
▁launch	-10.4155
▁widespread	-10.2967
▁دستور	-10.3221
▁mention	-10.6404
including	-10.3270
ورو	-10.9369
▁deployed	-10.3667
ja	-11.5413
رتي	-11.5372
▁pass	-10.9421
ائهم	-10.7197
▁Heads	-10.3823
لقي	-11.1210
▁cl	-12.0916
▁integrate	-10.2578
▁Call	-11.8998
ارا	-11.1407
▁أيا	-11.1170
▁وتنص	-10.2528
▁كينيا	-10.3052
▁brain	-12.3100
▁interventions	-10.2879
▁command	-10.5407
▁warning	-10.4017
ظهر	-10.7262
▁قياس	-10.3963
▁airspace	-10.3535
▁المتمتع	-10.2200
ane	-11.8211
▁والج	-10.7607
▁منهما	-10.5127
▁تنقيح	-10.2674
قترح	-10.3688
▁Cl	-12.8472
وض	-10.8404
▁southern	-10.3036
▁وتبادل	-10.2737
▁ولايتها	-10.2131
ومي	-11.4379
▁بيلاروس	-10.2888
▁الأوضاع	-10.1883
طار	-11.5212
▁وأوصت	-10.2878
الا	-10.9154
جيم	-11.3773
▁shut	-12.4292
X	-11.1097
▁Should	-11.1311
لتلبية	-10.6666
▁الكر	-11.2733
▁الضرائب	-10.3445
▁الهوية	-10.4799
▁Once	-10.7958
▁وإجراء	-10.3278
قابل	-11.9353
▁الحقيقية	-10.5473
▁المادية	-10.2202
▁الفلبين	-10.2251
▁السرعة	-10.5662
▁بالأمر	-11.3058
▁allowance	-10.4154
▁الأرضية	-10.3883
▁أسماء	-10.3879
ايا	-11.0216
▁سيئة	-12.0323
/17	-10.7712
▁خيار	-10.8694
▁inventory	-10.2678
▁يوصي	-10.1649
دخ	-11.3881
▁seat	-10.6480
uk	-11.2357
ger	-11.6852
▁ha	-11.8916
ump	-12.2175
يبي	-11.8841
▁الشراء	-10.3575
ix	-11.5582
▁وإجراءات	-10.2671
▁Procedure	-10.3520
▁شراكة	-10.2222
▁وهكذا	-10.2640
▁فصل	-10.5374
▁Communications	-10.5295
▁stress	-10.3053
▁سين	-11.0416
/14	-10.7893
.17	-11.1032
▁الصادرات	-10.2858
▁أجزاء	-10.3599
ory	-11.2850
▁اعط	-11.9475
▁جماعة	-10.4900
▁asset	-10.2754
▁بدل	-10.7647
ursuant	-10.3106
▁rose	-10.3565
▁الفرد	-10.3721
عم	-11.2127
▁105	-10.9639
لان	-11.0005
▁محلية	-10.2981
▁visited	-10.4125
▁blow	-12.2475
▁treated	-10.4067
▁حيال	-10.8363
za	-11.2595
▁بالبشر	-10.4847
rat	-11.9894
▁fixed	-10.5641
▁غياب	-10.4367
▁الوطن	-10.5236
▁التطبيق	-10.2500
▁المنشأ	-10.2394
▁stable	-10.3601
▁المح	-10.8317
▁التحديد	-10.2825
▁شبه	-10.4015
▁Reduction	-10.3128
▁المسؤول	-10.4669
باب	-11.2890
discrimination	-10.3207
▁increases	-10.3933
جير	-11.3657
▁Kazakhstan	-10.1730
vers	-11.7493
▁slow	-10.8196
▁كول	-11.1739
طي	-11.2029
▁الخطر	-10.3752
▁لفريق	-10.4059
▁استئناف	-10.2285
▁Slovenia	-10.0541
▁شارك	-10.2480
▁variety	-10.3115
▁proceed	-10.2517
CEDAW	-11.1192
ip	-11.8943
▁controlled	-10.3813
▁أبلغت	-10.3305
▁مجالي	-10.3491
سكي	-11.2956
▁المفوض	-10.4204
▁تاما	-10.1780
▁ومما	-10.1956
▁يدي	-12.2398
▁التحفظات	-10.1498
▁requesting	-10.3157
▁ذك	-11.5875
▁disposal	-10.3849
اكي	-11.3052
▁عين	-10.9931
▁البن	-10.7264
▁جاك	-12.2077
▁وعد	-11.0837
▁prove	-10.7979
▁هوية	-10.3992
/15	-10.8720
▁ينطبق	-10.2234
▁Everything	-13.4619
▁وخطة	-10.2653
▁الولادة	-10.3870
▁ملابس	-12.3304
بجميع	-10.2042
▁حاولت	-11.9826
▁المتح	-10.8915
▁مفيدة	-10.2589
▁لجان	-10.3250
▁pregnant	-10.8288
▁WTO	-10.1035
دير	-11.2973
▁ارت	-10.9683
▁يحيل	-10.3328
عز	-11.4486
▁destroyed	-10.5646
▁إشارة	-10.4791
.,	-10.5986
▁decade	-10.3365
ase	-12.2224
▁اقت	-10.6781
▁حياتك	-12.7048
▁Committees	-10.6431
رم	-11.0535
▁borders	-10.2533
▁نموذج	-10.4813
▁بالغة	-10.2687
▁Provisional	-10.2453
▁واحترام	-10.1665
▁نسبيا	-10.3073
▁والتقنية	-10.2508
▁Cross	-10.3560
▁reply	-10.3982
▁protocol	-10.3665
▁ومنها	-10.3833
▁وتؤكد	-10.2328
ضاء	-11.5450
▁genuine	-10.2419
▁decides	-10.2733
▁لخدمات	-10.3859
▁أرسل	-11.6269
▁اللبنانية	-10.2328
▁وأنها	-10.4457
▁إليهم	-10.5474
▁advanced	-10.4292
صال	-11.9941
▁sponsors	-10.2111
▁fault	-11.8931
فضل	-11.2793
▁تقاسم	-10.2772
▁League	-10.2668
you	-12.8853
▁إساءة	-10.3234
▁Make	-11.8389
▁accession	-10.2768
▁adopting	-10.2959
▁المبين	-10.3405
.14	-10.9514
VI	-11.2048
▁representing	-10.3479
قار	-11.3097
▁locations	-10.5985
لق	-11.1126
▁الدروس	-10.3070
▁transnational	-10.3412
رجو	-12.1269
▁800	-10.4638
▁sixth	-10.3068
▁يعكس	-10.3079
▁resident	-10.3643
▁رسم	-10.4888
▁quickly	-10.6543
▁تجميع	-10.3748
▁حملة	-10.3576
ther	-12.0759
▁تصدر	-10.2954
▁توجه	-10.3738
tre	-11.9890
▁التوازن	-10.3391
▁المظالم	-10.4648
▁عش	-11.8905
▁Macedonia	-10.0480
uff	-12.2814
▁quick	-11.1834
▁أسبوع	-10.6891
▁ملزمة	-10.1682
▁انتقال	-10.3097
▁مسؤولة	-10.2949
درس	-10.8336
▁glad	-12.0633
▁اقترح	-10.2881
وء	-11.3609
▁file	-10.5940
▁Mechanism	-10.6555
▁قصيرة	-10.5187
يقة	-11.5089
▁غل	-11.3575
رز	-10.9917
▁الصيد	-10.4505
▁considerations	-10.3742
▁المستمرة	-10.2413
▁po	-11.8950
▁رؤ	-12.0158
▁أسمع	-12.4342
Leste	-9.8744
▁utilization	-10.3705
▁والمجلس	-10.2555
▁جعلت	-11.4745
ook	-12.3614
▁نظ	-11.0860
▁الرؤساء	-10.3415
▁Montenegro	-10.2071
▁conservation	-10.3614
▁دعونا	-12.5914
▁بالح	-11.3569
ock	-12.5231
▁seeing	-11.6821
▁تقييد	-10.3312
تحرك	-11.4670
▁كيانات	-10.3357
▁Bolivia	-10.1759
▁الأماكن	-10.5872
▁مثير	-11.9999
▁consolidated	-10.1483
▁الهام	-10.1701
▁execution	-10.4763
▁Christ	-10.4030
▁موت	-11.1891
▁Guidelines	-10.3415
ks	-12.1239
طير	-12.1050
TH	-12.1994
ضي	-11.1404
▁ملاحظة	-10.3135
▁agents	-10.5764
▁قتلت	-12.5234
▁التسليم	-10.2415
▁تحرك	-11.5943
▁الطويلة	-10.3623
▁الوظيفة	-10.5552
yl	-11.8439
ذار	-11.5964
▁العالي	-10.3781
▁التشاور	-10.2991
▁UNOPS	-10.4211
▁جيش	-10.6118
بما	-10.4420
▁عنصرا	-10.2623
▁prohibition	-10.3604
▁وخصوصا	-10.1491
▁Invites	-10.2021
▁composition	-10.3462
▁الخطرة	-10.3577
▁رح	-11.7081
▁الإدارات	-10.2806
اسي	-11.1651
▁الخيار	-10.2917
يسي	-11.7000
.11	-10.8507
▁replace	-10.3558
▁demobilization	-10.2061
▁يعتقد	-10.9516
▁Team	-10.4479
زان	-11.4907
▁وأيرلندا	-10.2447
▁سبعة	-10.5999
▁forums	-10.3731
▁المهينة	-10.3387
▁Thursday	-10.4817
▁وقام	-10.4197
▁NGO	-10.2777
/18	-10.8536
▁الخسائر	-10.2822
▁تقد	-10.3844
▁bill	-10.6912
▁careful	-11.0828
▁قضائية	-10.3179
nie	-12.8246
▁facility	-10.6216
▁مضى	-10.7488
▁لإعداد	-10.3308
▁نيابة	-10.3450
▁الاستعراضي	-10.2326
▁مستمرة	-10.3138
انه	-12.0320
▁video	-11.1419
▁سار	-11.3818
▁لسن	-11.2690
▁المرور	-10.5327
▁والمادة	-10.2029
▁الأيام	-10.9606
▁افريقيا	-11.7246
▁weapon	-10.9839
▁Nevertheless	-10.2810
▁meaning	-10.4205
▁لمناقشة	-10.2827
▁happening	-12.1745
aire	-12.0499
▁شكر	-11.8398
▁1997.	-11.3164
▁impossible	-10.7926
روع	-11.3567
▁vehicle	-10.7036
دات	-10.9972
▁tenth	-10.2791
▁مرتبات	-10.4714
▁لتشجيع	-10.2631
▁الثابتة	-10.3806
▁والحق	-10.3473
▁ودعا	-10.3424
(	-20.0205
دل	-10.9353
/55/	-10.2874
▁GEF	-10.4058
▁بع	-11.0465
▁Frank	-12.7164
van	-12.1152
نها	-11.3576
▁intellectual	-10.1496
رعاية	-10.2838
▁بالمسائل	-10.3173
▁satellite	-10.4738
▁Mauritius	-10.0707
State	-10.2091
▁الشمالي	-11.2229
غام	-11.4023
▁conducting	-10.3771
▁المق	-11.0753
▁integral	-10.3108
▁اجتماعية	-10.3430
▁degradation	-10.3150
▁يتمتع	-10.3072
▁مو	-10.7142
عثور	-11.2217
▁بحكم	-10.2819
▁reportedly	-10.7031
▁وسن	-10.7259
▁تغطية	-10.4126
eng	-11.8065
▁stock	-10.6966
▁Statement	-10.3662
▁convinced	-10.3583
▁وسأ	-11.4092
▁تصرف	-10.5459
▁totally	-11.4877
▁الهواء	-10.9650
لوس	-12.0865
▁honey	-13.2662
▁مساهمات	-10.2997
▁1996.	-11.3724
▁التوزيع	-10.3355
▁تتولى	-10.3331
▁exception	-10.3506
▁لق	-11.8640
▁employed	-10.3669
▁اخرى	-10.8019
▁بالتنسيق	-10.3296
عنى	-11.0887
▁inadequate	-10.3604
▁Fine	-13.7960
▁للنظام	-10.3357
▁flow	-10.4467
des	-11.8443
▁أد	-11.1791
▁الزمن	-10.6290
▁فحص	-10.7162
▁UNRWA	-10.4234
▁الدكتور	-11.0304
▁أسابيع	-10.7892
▁worse	-11.6831
▁كمبوديا	-10.4480
▁الإنجابية	-10.2986
▁المنسق	-10.3525
▁sets	-10.5220
▁بالج	-11.4515
باس	-11.1235
▁تعترف	-10.3333
▁terrorists	-10.1749
val	-11.9727
/1999/	-11.2486
▁Ki	-11.0781
▁إعطاء	-10.3749
▁سيئ	-12.8051
▁Assessment	-10.3889
▁وتنمية	-10.3587
▁الحكوميين	-10.3309
▁adverse	-10.3702
fi	-11.5259
▁تر	-11.0758
▁acknowledged	-10.3578
▁ويتضمن	-10.3599
/57/	-10.5240
▁السجناء	-10.5727
▁authors	-10.4776
▁الطبيب	-11.9459
ator	-11.8411
عات	-10.9722
▁للحكومة	-10.3514
▁Decision	-10.3200
ضح	-11.6129
روا	-10.9183
▁الإيكولوجية	-10.4192
▁tourism	-10.4655
▁Very	-12.6174
▁البرية	-10.4201
▁فلم	-10.8261
▁أشير	-10.2301
▁Document	-10.3424
▁غسل	-10.2156
▁extradition	-10.3458
.20	-10.9378
لدى	-10.4790
od	-11.6114
▁مفتوحة	-10.4732
▁functional	-10.3269
▁understood	-10.4476
ward	-11.6939
▁Chad	-10.2793
يدة	-11.2029
▁الحقائق	-10.4087
▁الوطنيين	-10.3739
▁perhaps	-10.6532
▁التمثيل	-10.4016
▁أج	-11.8016
▁توقع	-10.8037
▁Treatment	-10.4087
▁teaching	-10.3907
▁التغذية	-10.3725
▁zones	-10.3852
▁110	-11.0956
▁Yemen	-10.2707
▁وشك	-11.7575
▁Roma	-10.4351
▁قدمه	-10.2718
-10	-10.7095
تو	-11.0304
е	-13.3965
▁اتخذته	-10.3533
▁يساور	-10.5310
ole	-12.0044
▁detail	-10.4729
▁Qatar	-10.1239
bb	-11.8973
لأغراض	-10.2837
▁(2002)	-10.3740
▁بأنني	-12.0228
.18	-11.1289
جه	-11.0535
▁district	-10.6144
ثم	-11.5074
▁prohibit	-10.3814
▁تغطي	-10.3772
▁الزراعي	-10.3580
▁wider	-10.3206
▁(2	-11.0696
▁يهوه	-9.1407
/9	-10.7473
قدت	-10.5134
▁reiterates	-10.4304
▁remedy	-10.4490
▁القديمة	-10.9852
▁li	-12.0568
▁بلجيكا	-10.2316
▁المؤسسي	-10.4046
sk	-11.8907
▁الأحزاب	-10.3827
▁الجماعي	-10.2774
▁discriminatory	-10.3869
▁المقدس	-9.3101
▁رئيسا	-10.2960
ابي	-11.2336
▁Press	-10.7834
/1997/	-12.1481
▁9,	-10.6501
▁Process	-10.2825
▁الفرنسية	-10.5396
▁٣٩	-12.6988
▁operate	-10.4117
▁reading	-10.5422
▁التعديل	-10.3076
▁مقدونيا	-10.1778
▁استكمال	-10.3320
▁المتكلمين	-10.1683
▁المستوطنات	-10.3126
shi	-11.8627
▁maternal	-10.4869
▁يذكر	-10.3740
▁lawyers	-10.6383
▁رئيسة	-10.4128
▁تي	-10.8913
▁formed	-10.4220
▁ولايته	-10.2856
▁أجر	-10.8656
▁salary	-10.4767
▁جديدا	-10.4494
/1998/	-12.0468
▁drew	-10.4230
▁Case	-10.6353
▁Constitutional	-10.4639
▁accessible	-10.4612
▁xenophobia	-10.1853
▁يعرب	-10.3031
▁التخفيف	-10.4085
أسف	-11.7022
إذا	-11.4637
ليف	-11.5874
▁ني	-11.0446
▁اتجاه	-10.4695
▁الجيد	-11.4203
▁صربيا	-10.2860
▁بنغلاديش	-10.2978
▁الأدوات	-10.4114
▁شديدة	-10.4856
▁وإقامة	-10.2866
▁الخارجة	-10.3175
▁King	-10.8439
▁transmitting	-10.4762
▁الذكر	-10.4413
▁Michael	-11.7148
▁منصب	-10.4886
▁السبل	-10.2745
▁remote	-10.4334
▁صدور	-10.4016
▁الخطط	-10.4372
آل	-11.8102
▁guaranteed	-10.5139
▁promoted	-10.4117
▁بوسائل	-10.4113
▁وترحب	-10.2087
▁الليبية	-10.3157
ability	-11.0178
ID	-11.3131
▁1986	-11.0885
▁double	-10.8296
▁الصورة	-10.6141
▁Yugoslav	-10.1386
▁Faso	-10.1454
▁المتضررة	-10.3725
▁التحتية	-10.3602
▁00/15	-10.1711
▁الاختفاء	-10.5495
▁وط	-10.7076
▁organize	-10.3619
▁14,	-10.6807
▁finds	-10.5564
Proliferation	-10.4130
▁المذكرة	-10.3277
▁الإصلاحات	-10.3410
▁القتال	-10.6885
▁fill	-10.6762
▁النصف	-10.5058
▁decline	-10.4235
▁سيدتي	-12.2383
▁قرارا	-10.4064
▁المتبعة	-10.2565
▁peacebuilding	-10.1962
▁الاس	-11.2763
▁أفعال	-10.4240
▁لمواصلة	-10.2799
▁willing	-10.8090
▁يعزز	-10.2976
▁أنشأت	-10.3299
ación	-11.6503
▁والمتوسطة	-10.2862
av	-11.7870
▁signing	-10.3874
▁والجمهورية	-10.2667
▁بالع	-11.1190
▁explore	-10.3982
▁laid	-10.5160
▁اقتصاداتها	-10.2736
▁Adviser	-10.3071
▁الخميس	-10.4546
▁رهنا	-10.2424
▁balanced	-10.3474
▁الموقف	-10.5172
▁decades	-10.4694
▁intervention	-10.4230
▁spend	-11.5835
▁مي	-11.3669
▁الصعوبات	-10.3018
▁نفاذ	-10.2767
▁claimed	-10.4179
▁ظلت	-10.3524
▁duration	-10.3765
▁crises	-10.3817
▁Developed	-10.3262
▁سب	-11.4348
▁101	-11.0995
▁Tuesday	-10.5685
▁الاستقصائية	-10.3668
راقب	-11.8808
▁وقررت	-10.3444
▁إعلامية	-10.3427
/2003/	-10.7910
▁غرف	-11.7532
▁وتطبيق	-10.3460
▁الجهة	-10.3321
▁Trafficking	-10.3820
▁barriers	-10.4278
▁rejected	-10.4665
▁movie	-13.0444
erry	-12.5587
▁ball	-13.4668
▁cluster	-10.4350
▁مواطن	-10.4428
ريب	-11.3369
يض	-11.1952
cker	-12.7045
▁صوب	-10.4013
tes	-11.7241
▁recognizing	-10.3952
▁lady	-13.8008
قدر	-11.1181
iff	-12.3255
▁طراز	-10.8616
▁صفوف	-10.3780
▁properly	-10.4756
▁acceptable	-10.3429
▁Transitional	-10.2128
▁الأخذ	-10.3439
▁المعدل	-10.4225
.13	-10.9493
▁وبينما	-10.2800
▁بقضايا	-10.3147
▁المستفادة	-10.4011
▁talks	-10.5412
▁1995.	-11.5658
▁تحظى	-10.3942
▁Sa	-11.3251
▁افتتاح	-10.3602
▁innocent	-10.6957
غار	-11.1277
▁administering	-10.3776
▁يؤ	-11.1932
▁Local	-10.5079
▁تأخر	-10.8370
▁نجد	-11.1438
▁fisheries	-10.3701
ional	-12.2900
يج	-11.2080
▁بأحكام	-10.2646
▁التنفيذيين	-10.4210
▁منهجية	-10.4111
▁الست	-10.6607
واء	-11.1899
▁Cameroon	-10.2014
▁Through	-10.4706
▁ممثلة	-10.3816
▁ويقوم	-10.3476
ious	-11.7318
ستن	-11.1687
▁music	-11.7503
▁مؤ	-11.3068
▁البطالة	-10.4248
▁piece	-12.3086
▁procedural	-10.3876
▁التاسع	-10.4733
لد	-11.6862
▁generation	-10.5153
▁إرسال	-10.6485
بدأ	-11.8768
▁عودة	-10.4298
▁الهيكل	-10.3215
▁بانتظام	-10.3579
▁اللعب	-12.6292
▁التفاهم	-10.3117
▁المتبادلة	-10.3578
▁بيساو	-10.2827
leg	-12.5431
▁للحدود	-10.2229
▁نقوم	-11.8839
▁المائية	-10.4093
▁كر	-11.0354
▁أقدم	-10.8103
▁بني	-11.1183
▁بولندا	-10.3593
▁تايلند	-10.3406
▁بصدد	-10.4204
▁ho	-12.4206
▁تع	-11.1189
▁الجسيمة	-10.3458
▁rich	-10.7806
▁House	-10.8582
▁disabled	-10.4768
▁Lo	-11.5942
▁مستقل	-10.3871
▁إليكم	-10.6102
▁Tra	-12.0641
▁online	-10.6973
▁يتمكن	-10.3821
▁التشريعي	-10.2731
عرض	-10.5347
▁sect	-10.2326
▁إبرام	-10.3150
▁ثاني	-10.8259
▁putting	-10.9209
▁تقبل	-10.8049
▁والحكومات	-10.3483
▁الاطلاع	-10.3748
▁بتنظيم	-10.3375
▁اللاحقة	-10.3420
▁الحاضر	-10.4062
▁كف	-11.4444
▁deaths	-10.5793
▁ماليزيا	-10.3086
▁تبذل	-10.2991
▁والعلم	-10.3990
▁والقواعد	-10.3640
▁المادتين	-10.3373
▁ministries	-10.4084
▁ministerial	-10.3503
▁المقاطعات	-10.4542
▁بمنع	-10.2882
▁يتوقع	-10.4312
ندي	-11.3814
باك	-11.4035
▁أسوأ	-11.1067
ada	-11.6530
رنا	-11.1863
▁drinking	-10.8965
▁ريو	-10.5806
In	-10.4529
ظم	-10.6977
ular	-10.6297
▁violent	-10.5161
▁Th	-12.2102
▁anybody	-13.7306
▁performed	-10.4096
▁reaching	-10.4030
▁UNCITRAL	-10.2829
▁Wednesday	-10.4709
▁جماعات	-10.3637
ium	-11.6445
0,000	-10.6959
▁تقديرها	-10.2965
▁ذاك	-11.6254
▁أرمينيا	-10.4355
▁وأكدت	-10.3660
▁ضروب	-10.4036
▁Anti	-10.4561
▁الموجودات	-9.9647
▁Rio	-10.5890
▁اليومية	-10.4150
جاه	-11.4259
▁تفكر	-12.4346
▁Dis	-11.4853
▁موجودة	-10.7664
دوم	-11.5421
▁مرور	-10.5090
bar	-11.5520
▁adequately	-10.4140
حين	-11.1728
cc	-11.5411
▁1540	-10.8032
▁1985	-10.9807
▁تغييرات	-10.3969
▁السكانية	-10.5611
gent	-12.4018
EM	-11.6453
▁box	-11.7051
▁Poverty	-10.3008
▁dedicated	-10.4671
▁700	-10.5199
ins	-11.9088
▁About	-11.4554
▁المحيطات	-10.4110
▁opposition	-10.5270
▁55/2	-10.5167
ub	-12.0878
▁بالمعلومات	-10.3458
▁negotiation	-10.3859
▁Annual	-10.4364
▁Something	-14.1275
ade	-12.0676
▁relate	-10.4696
دعي	-11.4277
▁البضائع	-10.2589
▁الصور	-10.9920
▁assume	-10.6368
اته	-10.9342
▁للاجئين	-10.3783
▁الغد	-12.1793
▁رئيسيا	-10.3546
▁وعمل	-10.4907
▁denied	-10.5778
▁Se	-11.6838
▁وبموجب	-10.3512
▁عليكم	-12.2215
▁التجارب	-10.6395
▁secured	-9.9477
▁يقترح	-10.4445
▁equally	-10.3649
▁movements	-10.4861
▁Lithuania	-10.1743
▁وعي	-10.5376
▁سماع	-12.2040
▁٥٠	-12.5457
▁المصالحة	-10.2254
▁المضي	-10.5019
▁13-	-10.1454
شتر	-11.8748
▁سابقة	-10.4451
▁الرسائل	-10.6225
▁import	-10.3076
▁$2	-10.7563
▁لجمع	-10.3762
▁ring	-12.5868
▁Slovakia	-10.1855
عيش	-11.9346
صديق	-11.6529
▁larger	-10.4812
▁heading	-10.9174
▁قطر	-10.4013
▁Gre	-12.6861
▁البنية	-10.4663
غو	-11.0932
▁ran	-11.9726
▁قائلة	-10.3261
▁رسائل	-10.6838
▁Nicaragua	-10.2679
▁contingent	-10.5807
▁تأخير	-10.4290
▁المركبات	-10.7240
▁financed	-10.4664
▁للن	-11.3357
ph	-12.0258
إلى	-11.8758
contributing	-10.3550
▁هار	-11.6838
▁Drug	-10.4182
▁repatriation	-10.5366
غر	-11.4460
vel	-12.4170
▁red	-12.1530
الت	-10.9833
▁defenders	-10.6062
▁mitigation	-10.5157
▁تدمير	-10.5457
▁collect	-10.5992
▁جمعية	-10.3800
▁المرشحين	-10.4030
▁determining	-10.3692
▁السري	-11.4443
ko	-11.2477
▁suit	-11.5345
▁حصة	-10.5227
fr	-11.6252
▁الثانوية	-10.7399
▁List	-10.4013
▁قضي	-11.8821
▁Saint	-10.1823
▁التصرف	-10.4532
▁covers	-10.4835
▁شاركت	-10.4106
▁Journal	-10.7868
▁وفيات	-10.5692
ريف	-11.4005
▁تجارية	-10.3631
▁outputs	-10.4146
هت	-11.4099
▁los	-12.0656
▁stages	-10.4641
▁المكتسب	-10.1872
▁والتجارة	-10.3750
؟"	-12.5795
▁Among	-10.3792
▁تتبع	-10.7639
AN	-11.6387
اتهم	-10.6680
▁مركبات	-10.4665
▁تجاوز	-10.6211
باء	-11.2316
▁card	-11.5360
▁الإصابة	-10.3569
Terrorism	-10.1818
رؤ	-11.7586
nc	-12.0457
▁بالألغام	-10.3345
ولد	-11.4829
▁displacement	-10.4944
bro	-12.7313
▁Penal	-10.3989
▁مفوض	-10.1705
▁ولذا	-10.3867
صبح	-11.7941
▁خير	-11.1985
▁Guide	-10.1216
▁الأع	-11.9378
فون	-11.6553
▁تتحمل	-10.4516
▁reviewing	-10.4487
▁103	-11.0633
▁صك	-10.3219
▁المجرمين	-10.4467
▁enemy	-11.0818
▁dance	-12.7926
زام	-11.2315
▁drawing	-10.5345
▁القابلة	-10.3243
اقة	-11.2979
▁وقتا	-11.3680
الأمم	-10.3151
نش	-11.2973
ob	-12.2712
▁Standing	-10.5465
هيئة	-10.5340
▁الجو	-11.1277
▁تنزانيا	-10.4439
▁العربي	-10.4167
▁تراعي	-10.3381
▁ترتيب	-10.4830
▁نشوب	-10.1045
▁مور	-11.0378
▁وقامت	-10.4193
▁الإضافي	-10.3887
▁دعت	-10.3707
▁straight	-12.5618
▁Arms	-10.3090
▁feet	-11.5326
▁14-	-10.1756
▁خيارات	-10.5181
▁الطبي	-10.7431
ستان	-11.7131
sis	-11.6655
▁Prohibition	-10.4053
▁Statements	-10.3699
▁equity	-10.4355
▁Jamaica	-10.1792
▁وجهة	-10.5787
▁demonstrate	-10.3533
▁وضعها	-10.5186
زوج	-11.1987
▁أعماله	-10.2406
بع	-10.8312
▁الجاري	-10.3620
▁الشهود	-10.3438
▁monthly	-10.6203
▁الثلاثاء	-10.5734
▁الوقائية	-10.4789
▁Based	-10.4888
▁square	-10.9590
▁requiring	-10.3928
▁pertaining	-10.4215
آخ	-11.2354
▁وتوسيع	-10.3955
hm	-12.7739
ائق	-11.0752
▁1982	-11.0529
▁العقلية	-10.5576
▁الاقتصادات	-10.5319
راع	-11.0684
▁قدمته	-10.3926
▁الأصلي	-10.4199
▁sun	-11.6491
دد	-10.5381
▁وبعض	-10.5594
▁Jamahiriya	-10.1799
▁continuous	-10.4304
مول	-11.1358
▁تلقى	-10.5571
فصل	-11.0812
▁بالأعمال	-10.3558
sharing	-10.4797
▁neighbouring	-10.3932
▁objection	-10.1925
mp	-12.1214
▁outreach	-10.5284
▁البيولوجية	-10.3675
▁incident	-10.6839
▁تنظم	-10.4062
▁الشفوية	-10.2042
▁تدهور	-10.3673
▁فض	-10.9089
▁seeks	-10.4029
▁ثمانية	-10.7324
▁استنتاجات	-10.3676
▁أصدقاء	-11.7652
▁إنسانية	-10.3469
▁تونس	-10.3555
روي	-11.2202
ear	-11.7251
▁اليونسكو	-10.4747
▁adjustments	-10.4644
н	-13.5972
ash	-11.7569
▁مؤتمرات	-10.4493
▁allegedly	-10.6945
▁au	-12.4995
▁career	-10.8358
▁Country	-10.5255
▁فترات	-10.4305
▁يهدف	-10.4014
▁instructions	-10.5167
▁تنشأ	-10.3232
▁Nor	-11.4421
ably	-11.4181
▁Burkina	-10.2082
▁تسمع	-12.7696
▁بالاشتراك	-10.4243
▁المواضيعية	-10.3695
▁وهما	-10.4605
▁وتحليل	-10.4618
▁Stay	-13.8283
▁الانحياز	-10.3884
▁ST	-11.3265
Corr	-10.5995
▁مادة	-10.5212
.1،	-10.3468
▁108	-11.0596
▁أيدي	-10.8123
ATION	-12.4141
▁لاستخدام	-10.4632
▁title	-10.5047
قيم	-11.0903
▁Least	-10.4016
▁يسهم	-10.3322
▁tolerance	-10.3774
▁واصلت	-10.4780
▁وبذلك	-10.3901
▁التنبؤ	-10.4305
▁biennial	-10.3612
▁2015.	-11.5318
▁بعدها	-11.6658
▁enforced	-10.6303
▁المستحقة	-10.5173
▁psychological	-10.5569
▁الداخل	-11.4658
▁composed	-10.4517
▁فور	-10.7756
ونغ	-11.0863
▁allowing	-10.4526
▁نتحدث	-13.1101
▁remind	-10.7895
▁consolidation	-10.3507
▁accident	-11.4275
▁suggestions	-10.4112
▁بطرق	-10.4981
فير	-11.8430
▁التنظيم	-10.3189
▁للشعوب	-10.3205
▁Investment	-10.5555
▁قليلة	-10.5978
▁التعرض	-10.5556
ليل	-11.6730
▁وتقرير	-10.3438
▁المستشار	-10.4387
▁equivalent	-10.4274
▁معين	-10.6548
▁sell	-11.6437
▁الحظ	-11.7778
▁Youth	-10.5609
▁Com	-11.9616
▁حضر	-10.8276
▁للشعب	-10.2686
▁وأي	-10.4783
▁بمكان	-10.6467
▁abroad	-10.4649
comm	-12.5044
▁إقليمي	-10.4006
fa	-11.3526
ترا	-11.4001
UNEP	-10.8921
place	-12.5426
▁lay	-10.7681
▁القطاعين	-10.4804
التي	-10.8082
ew	-12.2362
زيل	-10.9332
▁الممثلة	-10.4700
▁وماذا	-11.9751
رمي	-11.6850
▁الأربعة	-10.5486
▁flight	-11.2846
▁احب	-12.1925
▁البلاغات	-10.5454
▁الأكبر	-10.6781
▁assisted	-10.4578
▁المرض	-10.4140
▁يرغب	-10.5526
▁package	-10.6506
▁أسر	-10.9910
▁ويجوز	-10.3312
▁behaviour	-10.4614
▁معروضا	-10.3339
▁التحدي	-10.3761
▁ourselves	-10.6894
▁مواضيع	-10.4123
سمح	-10.9417
▁يتحدث	-11.9040
▁شق	-11.8478
▁Settlements	-10.4216
Part	-10.8422
▁التثقيف	-10.3998
▁النقاش	-10.4490
▁تخرج	-11.7577
دال	-10.8863
▁الأنصبة	-10.4248
▁والإبلاغ	-10.4619
▁سائر	-10.3456
▁Singapore	-10.1928
▁الأمام	-10.7738
▁Educational	-10.4287
▁العقبات	-10.3387
▁الجزيرة	-10.6309
▁inspection	-10.5831
▁revision	-10.4716
▁غو	-10.9638
▁suggest	-10.7574
▁الضعف	-10.4883
كال	-11.3001
▁loved	-11.8378
▁مدرسة	-10.8686
2.	-11.6831
income	-10.5309
▁formulated	-10.3654
▁والشباب	-10.4538
▁testing	-10.7007
▁أوصى	-10.3408
أغلبية	-10.8847
▁accountable	-10.4610
▁الفردية	-10.4595
ual	-11.8993
▁عنوان	-10.6359
What	-12.3736
▁Malta	-10.2100
▁newly	-10.5159
▁الحسبان	-10.3415
Self	-10.3991
cus	-12.4952
▁مطالبة	-10.2824
▁وهل	-10.8846
▁تبحث	-11.5150
راح	-11.7097
▁الشخصي	-10.4671
▁صافي	-11.0309
▁مريض	-12.5553
▁الديمقراطي	-10.5157
▁تصدق	-11.2791
▁يحيط	-10.4516
▁Election	-10.4393
حادث	-11.6424
▁حزب	-10.6023
▁لاتخاذ	-10.4040
▁الدوحة	-10.2878
▁refers	-10.3733
تقل	-11.3163
▁والبحث	-10.3966
إنهاء	-10.4290
▁Sixty	-10.2313
Bissau	-10.2880
▁ومركز	-10.5056
▁قوائم	-10.4178
▁صراحة	-10.4088
▁الملائم	-10.3197
▁transfers	-10.4717
▁حظ	-12.1182
.16	-11.2416
رية	-11.0326
▁السائدة	-10.4298
▁القيم	-10.3974
▁estimate	-10.6678
▁dear	-12.5603
▁sensitive	-10.5144
IT	-11.5535
▁ممثلين	-10.4368
▁subparagraph	-10.1850
▁تستحق	-10.9096
▁المحتجزين	-10.5987
▁وعدد	-10.4382
نيك	-11.8304
▁Greek	-10.5545
▁التماس	-10.4082
▁Kat	-12.2114
▁دا	-11.0519
▁conjunction	-10.4979
▁Never	-12.9851
▁IT	-11.4428
▁تحديث	-10.5223
▁التخلص	-10.6561
▁النفس	-10.4756
رسي	-11.0166
▁Latvia	-10.2858
▁desire	-10.4682
كاس	-11.6968
▁الطب	-10.9499
▁15-	-10.2321
▁Albania	-10.3776
▁وينص	-10.4621
▁successfully	-10.4205
yo	-12.2312
ert	-11.9634
▁المنتهية	-10.4575
وحد	-11.7051
▁خلاف	-10.4122
▁تصنيف	-10.5596
lement	-12.2727
20)	-11.3542
▁projected	-10.5568
▁Similarly	-10.4030
▁وبلدان	-10.3445
خل	-11.3019
▁exclusion	-10.4005
▁تحل	-10.7498
oriented	-10.4541
▁نيبال	-10.3424
▁ووسائل	-10.3695
fer	-12.1680
▁بالموارد	-10.3957
▁شركاء	-10.5452
▁صعوبة	-10.5898
▁يستحق	-11.1414
ستمع	-11.7934
وكي	-11.4061
▁CO	-11.3681
▁يثير	-10.4554
▁1994.	-11.6000
▁الصناعة	-10.5617
▁واعتمدت	-10.3957
▁Viet	-10.2860
▁فن	-10.9188
fin	-12.1471
بير	-11.7384
▁qualified	-10.5002
▁مصائد	-10.3524
▁academic	-10.5518
▁harassment	-10.5691
▁Building	-10.7121
▁الورقة	-10.7685
▁capable	-10.6500
▁التحول	-10.7596
▁اليونان	-10.4529
▁الإنجازات	-10.2913
▁قائد	-11.0526
▁Sh	-12.2104
▁والجهات	-10.5399
▁المضيفة	-10.4398
▁bound	-10.5240
▁fit	-11.1307
▁تجديد	-10.4907
▁الأبيض	-10.9673
▁مسبقا	-10.7050
والد	-11.7147
PC	-11.2299
▁00	-11.5215
▁دمج	-10.4703
▁فما	-10.6089
▁reliable	-10.4628
▁للتجارب	-10.5861
▁begun	-10.5171
ارية	-10.9694
▁الاستمرار	-10.4829
▁ولايات	-10.4391
▁إنما	-10.6900
▁تعليق	-10.4506
▁نووية	-10.5003
▁كور	-11.1270
bil	-12.1712
▁strict	-10.4824
▁يركز	-10.4209
لماذا	-12.7136
▁Zambia	-10.2172
▁Watch	-11.4041
▁الستين	-10.1468
▁الطبيعة	-10.6338
▁والا	-10.8342
▁وتمثل	-10.3963
▁تنتهي	-10.8283
▁fiscal	-10.6320
▁مبالغ	-10.5518
house	-11.2326
▁coastal	-10.4641
▁ضرورية	-10.3995
▁weight	-10.8227
▁وبأن	-10.4614
لاء	-11.1710
▁تمتع	-10.4843
▁Jim	-13.6517
▁التحرير	-10.4556
▁Ge	-11.8721
▁Time	-11.0526
▁العنوان	-10.5245
▁distinction	-10.4032
▁الإست	-12.0576
▁customary	-10.4782
▁ميلاد	-12.4385
▁realized	-10.8797
▁commended	-10.5306
طور	-11.5174
رفع	-11.2200
▁Doha	-10.3473
▁والح	-10.8457
▁الأربعاء	-10.4886
▁الضعيفة	-10.4906
▁prejudice	-10.3782
▁Whatever	-12.4998
يمي	-11.5977
▁Welcoming	-10.3840
▁مايو	-11.4977
▁Inspection	-10.4889
▁تبدي	-11.2626
▁offers	-10.4596
▁Washington	-10.9258
▁FCCC	-10.3833
▁عد	-11.3532
▁copies	-10.5665
▁تجنب	-10.5661
▁تستمر	-10.6458
مشكلة	-10.5417
▁اللا	-11.2144
نحن	-12.6520
▁قيود	-10.5234
▁Protocols	-10.4408
▁الإسهام	-10.3283
GE	-12.2462
▁format	-10.3876
▁deeply	-10.4760
▁occupying	-10.2642
▁التوظيف	-10.4322
ونها	-11.2470
▁1:	-10.8279
▁Terrorism	-10.2421
فات	-11.2194
▁بتحقيق	-10.4725
▁volume	-10.4768
قو	-11.0318
غن	-11.1877
▁يدخل	-10.8639
▁زي	-11.2704
dam	-13.0348
▁واليابان	-10.3896
▁2011.	-12.3676
▁الشرط	-10.9929
und	-11.9041
سان	-11.1647
▁مسار	-10.6517
▁Montreal	-10.4346
▁وداع	-12.9778
▁Organized	-10.3489
▁لأعمال	-10.3826
ye	-12.0706
▁constituted	-10.4680
▁وبالنظر	-10.4481
تواجد	-11.5431
▁votes	-10.4138
▁متن	-11.0905
▁تترك	-11.4995
▁وبرامجها	-10.4200
▁الإطارية	-10.3768
▁stocks	-10.5323
▁طرد	-10.9125
▁واضحا	-10.5411
▁اقتصاد	-10.5389
▁stick	-12.3994
▁coffee	-12.3887
▁استمر	-10.9935
▁بالسجن	-10.5812
▁corresponding	-10.4740
▁الاشتراك	-10.4257
▁104	-11.1525
▁Moldova	-10.3219
▁لش	-11.6697
▁للشرطة	-10.6314
▁المتبادل	-10.3312
▁flexibility	-10.4377
▁continent	-10.3530
▁phenomenon	-10.4438
▁Interim	-10.3371
▁بضعة	-11.2289
▁sovereign	-10.5185
▁وكيف	-10.8570
ani	-11.3672
▁المحافظة	-10.3635
keeping	-12.1229
▁quarter	-10.8090
▁شهادة	-10.5126
▁commodity	-10.4932
.19	-11.0675
▁بول	-11.1110
▁الدانمرك	-10.3906
▁الأجور	-10.4939
▁(6)	-10.5445
▁lists	-10.4705
▁grow	-11.0435
▁أسواق	-10.4877
▁الأطلسي	-10.5394
▁البرتغال	-10.4377
مها	-11.4042
▁تتألف	-10.4868
▁vocational	-10.4962
▁يشعر	-10.9766
ire	-12.0805
▁عملت	-11.1787
▁المخ	-11.3770
▁sa	-12.0939
يجب	-12.3616
▁يتولى	-10.4993
par	-12.0572
▁professionals	-10.5653
زلي	-12.0138
▁السابقين	-10.4462
▁سجن	-11.0104
▁till	-12.8299
▁٣٢	-11.7164
▁النوم	-12.5660
▁fan	-12.8522
▁يحاول	-11.6444
▁وتوصيات	-10.4056
▁العم	-11.4956
▁للولايات	-10.5192
▁الإشراف	-10.5240
ology	-11.5913
▁وتمكين	-10.7220
▁تطبق	-10.4229
▁Arabic	-10.3226
▁يظهر	-10.9323
روف	-11.2958
▁كتب	-10.6797
▁لحق	-10.4135
▁responded	-10.4670
▁الصيغة	-10.4283
▁التأثير	-10.5764
سقط	-11.5306
▁يصدر	-10.4432
▁سعادة	-10.5709
▁طلبها	-10.4591
▁truly	-10.6402
▁Mu	-11.7866
▁Employment	-10.4473
▁Delegations	-10.5195
▁لنفس	-11.7268
▁Actually	-13.7813
▁والخاص	-10.4938
RO	-11.7217
▁المستدام	-10.5249
▁انضمت	-10.4232
▁الوزارات	-10.4456
▁weak	-10.8444
government	-11.0953
▁الأخضر	-10.7272
▁ending	-10.6676
▁instances	-10.5490
▁Reaffirms	-10.3851
▁breach	-10.3982
▁oral	-10.5050
الس	-11.4440
▁percent	-10.5893
▁television	-10.7678
▁بالس	-11.1644
يزي	-11.7398
▁تراجع	-11.1087
▁الحيوية	-10.5543
▁interaction	-10.4356
▁الابتدائي	-10.4727
▁هياكل	-10.4433
▁texts	-10.5427
▁overview	-10.5592
▁أصدرت	-10.4916
▁الاحترام	-10.4728
▁والمناطق	-10.4685
▁للمر	-10.9656
▁٤١	-12.7820
▁إثبات	-10.5889
▁صف	-11.3947
▁household	-10.5092
▁seized	-10.5393
▁106	-11.1881
▁وجزر	-10.4820
▁patterns	-10.7014
▁وأعضاء	-10.4020
▁والفقرة	-10.4342
▁الإفلات	-10.3583
▁OR	-12.8042
تح	-11.4690
جمع	-10.8741
▁استقرار	-10.3898
▁بهما	-10.5478
▁للجهود	-10.3763
▁program	-10.8640
▁Ne	-11.7502
▁suffer	-10.5559
▁1967	-10.9910
▁اتفاقيات	-10.4191
▁juvenile	-10.5436
فع	-11.2046
▁جلسته	-10.4139
▁Ed	-12.3138
▁Against	-10.2809
▁الحديثة	-10.5300
▁scheme	-10.5772
▁مصلحة	-10.4677
▁العراقية	-10.3240
▁ammunition	-10.5087
▁يورو	-10.4476
▁للتعليم	-10.4389
▁الاحتفاظ	-10.4764
▁thereto	-10.4424
▁الكشف	-10.5342
▁recalls	-10.6363
▁الأرقام	-10.6142
▁ويبدو	-10.5933
▁تمس	-10.4926
▁والان	-11.4597
▁المضيف	-10.4604
▁submissions	-10.5358
▁الفور	-10.7409
▁يريدون	-12.0190
▁(3	-11.1790
▁convening	-10.3624
ica	-11.9225
▁بفعل	-11.0186
▁ويتم	-10.4713
▁kiss	-13.9371
▁headed	-10.8076
▁occur	-10.4857
▁ونظام	-10.5259
▁عاملا	-10.4271
▁وتعمل	-10.4890
▁Emergency	-10.5762
▁techniques	-10.5646
▁Ca	-11.7833
▁Increased	-11.4650
▁storage	-10.7008
▁إدارية	-10.4402
▁therein	-10.5605
owned	-10.8018
▁رق	-11.7801
▁للقطاع	-10.7991
▁filed	-10.6307
▁إكوادور	-10.3622
▁Decree	-10.4930
▁conventional	-10.5303
▁الجر	-11.6243
▁القليل	-11.5590
▁تتخذها	-10.4460
▁الفعالية	-10.4303
▁يتعرض	-10.4851
دهش	-11.8749
▁أسرهم	-10.5191
▁hunger	-10.4970
▁القمر	-10.8709
▁8,	-10.6793
▁proof	-10.8716
▁بص	-11.2995
ging	-11.2069
▁العرب	-10.7236
▁أوضح	-10.5005
▁Appeals	-10.4061
▁Ali	-11.1076
سكو	-11.7069
▁107	-11.1580
▁بتغير	-10.4508
▁قائم	-10.5928
▁الفعل	-10.4057
▁lived	-11.0536
▁أصول	-10.6216
▁الترجمة	-10.5193
own	-12.3242
▁negotiating	-10.5511
▁بالإنكليزية	-10.4798
ثبت	-11.0033
▁George	-11.8272
▁خطاب	-10.7082
▁امر	-11.3436
▁شغل	-10.4040
▁caught	-11.9343
▁powerful	-10.8764
▁extra	-11.2864
▁اليوغوسلافية	-10.3471
▁الإلزامية	-10.5415
▁biodiversity	-10.6052
▁northern	-10.5452
tu	-11.7498
▁insolvency	-9.8191
▁thereon	-10.4466
▁الضحية	-10.9963
▁الخمسين	-11.1112
▁وحدها	-10.5262
افي	-11.2734
▁injured	-10.5218
▁propose	-10.4642
▁arrangement	-10.4968
OL	-11.2640
SP	-11.5698
▁extrabudgetary	-10.5537
▁مقبول	-10.5366
باع	-10.9866
▁Advancement	-10.3945
▁والأفراد	-10.3878
▁السياحة	-10.6197
▁مفتوح	-10.6680
▁طرائق	-10.4205
ries	-11.8186
فقد	-12.0070
▁نسمة	-10.5101
pl	-11.9964
▁claimant	-10.3392
▁مستعد	-11.8398
▁الحساب	-10.6966
▁القوى	-10.6495
ped	-11.8238
▁قدرتها	-10.4540
▁صل	-12.1694
▁الفرق	-10.8388
▁تجهيز	-10.6973
▁Organizations	-10.7278
▁آي	-11.6835
▁عيني	-11.5407
▁arbitration	-10.4355
CRC	-11.1640
▁department	-10.9802
▁speed	-11.0539
فور	-11.7047
▁واقع	-10.6642
▁الخبير	-10.4282
▁حديثا	-10.5818
▁hazardous	-10.5272
تبع	-11.0933
نين	-11.5715
نادي	-11.7984
▁Within	-10.5273
▁hang	-13.3472
▁معنى	-10.9501
▁بتمويل	-10.4032
▁أعيد	-10.7709
▁امتثال	-10.4193
زر	-11.4079
▁شفويا	-10.4277
▁والستون	-10.2886
▁نق	-11.5005
▁مسجل	-10.4191
▁somewhere	-13.4927
حالة	-10.3720
▁تجربة	-10.7689
حض	-11.5771
▁المد	-10.9302
▁renewed	-10.4875
▁والنقل	-10.5268
▁forests	-10.5862
▁method	-10.5225
▁الام	-11.1250
▁كاب	-11.6602
▁يدعم	-10.4445
▁invites	-10.4512
▁أوضاع	-10.4829
▁لحساب	-10.6138
▁presidential	-10.5107
▁root	-10.5346
▁أسس	-10.5095
▁evaluate	-10.5015
▁reflecting	-10.5582
▁inputs	-10.5312
▁احتجاز	-10.7264
▁قصد	-10.7446
▁نعلم	-11.7520
زاع	-10.5428
▁بنجاح	-10.4639
▁واثق	-11.9527
معرفة	-10.9084
▁stresses	-10.4854
باد	-11.4773
▁mouth	-11.9851
▁تتعاون	-10.4099
▁بالغابات	-10.2592
▁يفترض	-11.4113
▁مرتكبي	-10.4502
▁Recommendations	-10.4701
▁وأمن	-10.3871
▁Regarding	-10.5203
SC	-11.3243
▁الطبيعي	-10.7461
▁راي	-12.1580
▁النشر	-10.5134
▁الفوائد	-10.5615
▁لجعل	-10.7628
/1996/	-12.9096
▁وحده	-10.8973
▁تحسن	-10.5468
▁الصك	-10.2438
▁beat	-12.9101
▁moral	-10.5152
hen	-12.4267
تشي	-11.5233
▁machinery	-10.5251
CH	-12.1781
عثر	-11.7247
▁16-	-10.2955
▁التحفظ	-10.4085
▁linkages	-10.5043
▁بالفرنسية	-10.0953
▁القليلة	-10.5145
▁بمزيد	-10.4341
▁عقدها	-10.4601
▁cruel	-10.6678
▁transitional	-10.5587
▁kick	-13.0749
▁broke	-12.3426
▁evil	-11.2722
▁1998،	-10.1582
اعة	-11.3019
▁Hall	-10.8938
▁Father	-11.0833
▁Transport	-10.6106
▁تق	-11.0131
▁Army	-10.8408
▁notification	-10.4214
▁Evaluation	-10.6700
▁عائلة	-12.0184
▁عادل	-10.6730
▁العلمي	-10.5931
رأي	-11.8765
ربي	-11.5129
▁بموجبه	-10.5076
ky	-12.4086
▁mistake	-12.5603
▁مستقبلا	-10.4614
▁coherent	-10.4829
▁stopped	-11.6767
▁green	-11.8142
▁لأمريكا	-10.6046
are	-11.5756
▁books	-11.0946
▁القومية	-10.7253
▁School	-10.7103
▁Procurement	-10.5187
▁ظاهرة	-10.4932
▁judgement	-10.5011
▁اليمن	-10.7841
▁والنظام	-10.4656
▁للمعايير	-10.6024
▁وبالرغ	-10.4353
eh	-11.6178
سياسة	-10.4703
gre	-12.3402
got	-13.4862
▁الإجمالية	-10.5350
▁$3	-10.8373
▁صون	-10.3421
▁exp	-12.8424
▁amounted	-10.5781
▁102	-11.2227
▁معنية	-10.5126
▁دورية	-10.7334
ناها	-11.3083
▁software	-10.6629
▁."	-11.5246
▁Ga	-11.7189
▁planet	-11.5037
▁الأربع	-10.5562
سداء	-10.6703
▁Fa	-11.4675
▁لدور	-10.6367
/65	-12.5846
▁yesterday	-11.4612
¶	-16.3386
og	-11.7280
لغ	-10.9266
ريا	-10.9607
▁incurred	-10.5015
ement	-12.1010
▁لنزع	-10.5528
▁fulfilment	-10.4391
▁respected	-10.5695
▁أوروغواي	-10.5848
▁المقد	-10.6690
▁وتشكل	-10.4427
▁أزمة	-10.6124
▁للنهوض	-10.4678
▁وتدابير	-10.4535
▁greatly	-10.4561
▁اف	-12.0162
▁Former	-10.4936
▁تجمع	-10.6940
▁التح	-11.7580
كام	-11.2565
▁فرق	-10.9653
▁بالبيئة	-10.6177
▁Contents	-10.2748
▁resolved	-10.4541
▁للأمانة	-10.5220
▁المسؤوليات	-10.4604
▁النارية	-10.5478
▁فقال	-10.3922
▁موجود	-11.2857
▁Luxembourg	-10.2619
▁invasion	-10.4707
▁declarations	-10.4812
٢٠٠	-11.8492
▁بالأنشطة	-10.5531
▁applies	-10.4136
▁وعملية	-10.4970
▁Resource	-10.4592
uc	-11.8217
▁السكن	-10.4680
▁interesting	-11.4632
▁صوتا	-10.4327
▁Tajikistan	-10.5169
▁يكونوا	-11.0749
▁Ver	-11.7694
tions	-12.2388
▁112	-11.1599
▁باللغة	-10.4739
▁شراكات	-10.4429
AT	-11.8249
تعبئة	-10.5006
▁لصندوق	-10.5212
▁وتعرب	-10.4304
▁عذر	-12.8160
▁سعر	-10.7995
▁remove	-10.7489
▁واعتماد	-10.5111
ضطر	-11.7039
▁الخاصين	-10.4307
▁للأغذية	-10.5210
.25	-11.2458
▁Transnational	-10.4133
▁أيض	-12.1954
▁بتحديد	-10.5208
▁Strip	-10.5564
▁انتهى	-11.7009
▁بجانب	-12.0516
▁dark	-12.2195
▁يضم	-10.5087
▁معقولة	-10.4991
American	-10.5591
▁الأمني	-10.5954
▁replaced	-10.6060
▁اتفق	-10.3606
▁يستمر	-10.6276
▁annually	-10.5635
▁التزامها	-10.4169
▁wake	-11.8529
▁تعصب	-10.1810
ino	-11.6724
ms	-11.6907
▁assessing	-10.5329
منح	-10.8061
يص	-11.7785
▁ويشكل	-10.4446
▁Five	-11.2495
▁intelligence	-10.7502
▁مشروعا	-10.6830
▁pursued	-10.5262
▁والواقع	-10.6527
وتو	-11.1269
▁وكندا	-10.3835
att	-12.6798
▁تكلم	-10.8838
▁الرفيعة	-10.5076
▁جلب	-11.8129
▁الحوادث	-10.5864
▁Benin	-10.3068
▁لنقل	-10.8006
▁قصة	-12.1914
▁مفاده	-10.3570
▁مراقب	-10.6960
▁صعوبات	-10.5027
▁ويمثل	-10.4718
▁يشارك	-10.4653
▁1984	-11.2182
درجة	-10.9538
لف	-11.0641
gan	-12.1794
▁harmonization	-10.5476
**	-11.5431
▁يحمل	-10.8194
▁الأضرار	-10.4689
▁Yet	-10.5091
▁لآسيا	-10.5990
▁لأول	-10.7775
▁البدنية	-10.5099
▁وحد	-11.4572
▁المفوضة	-10.4015
▁مونتريال	-10.4992
▁يوافق	-10.4935
▁المساعد	-10.6792
باط	-11.2630
▁Progress	-10.6193
▁responding	-10.5389
▁السماء	-11.4445
ified	-12.0312
1.	-11.6833
fu	-12.3215
▁Uzbekistan	-10.3439
▁111	-11.2049
▁pollution	-10.5108
called	-10.6269
▁carbon	-10.6599
▁للحماية	-10.9933
▁regardless	-10.5669
LE	-11.7248
▁proud	-11.6016
▁لعقد	-10.4645
▁المضطلع	-10.5568
▁والهند	-10.4760
▁Panama	-10.3432
▁relationships	-10.6575
▁اللاتي	-10.6048
▁الطارئة	-10.5087
▁productivity	-10.6063
▁historical	-10.6285
▁hundred	-11.1336
▁ووكالات	-10.4867
▁للقرار	-10.3011
▁أجد	-12.6667
▁والأهداف	-10.4147
علن	-10.7226
▁بالموضوع	-10.6699
▁brief	-10.6039
▁الإعراب	-10.3857
حذر	-11.4497
▁Relations	-10.5486
▁Last	-11.3696
▁Gra	-11.9764
-12	-11.1187
▁worst	-11.2975
▁يقضي	-10.6080
▁define	-10.5653
▁gentle	-13.3898
▁الفا	-11.7627
▁lies	-10.8474
▁زاد	-10.5593
ugh	-13.2407
▁separation	-10.6234
▁الإناث	-10.6229
▁العاصمة	-10.6519
▁لعب	-12.0045
▁contractual	-10.5721
▁ويشير	-10.6378
▁seventh	-10.4957
▁VIII	-10.8355
▁واستعراض	-10.5232
▁guilty	-11.1129
▁huge	-11.2330
▁التفاصيل	-10.7115
▁هذ	-10.8992
سين	-11.3113
eth	-11.2062
▁smart	-13.5999
▁الجنود	-10.6400
لازم	-11.6440
▁grants	-10.5702
log	-12.0728
▁الحي	-11.4376
▁orally	-10.5022
▁خسائر	-10.4735
▁fired	-11.5246
▁genocide	-10.5304
▁السيادة	-10.5181
▁ربط	-10.8367
▁مفصلة	-10.4740
▁الأصل	-10.6082
ؤرخ	-11.4353
▁continuation	-10.5007
▁لغرض	-10.5083
▁والمعايير	-10.5060
▁issuance	-10.5240
▁جنائية	-10.6511
stru	-12.6595
▁Sahara	-10.5043
▁households	-10.6551
▁المرسوم	-10.5039
▁بالدول	-10.4859
▁كلية	-10.7921
▁للإجراءات	-10.4571
▁translation	-10.6678
▁Ju	-11.8711
▁الموعد	-10.6731
▁input	-10.5659
لز	-11.4395
▁أغلب	-10.8561
▁لحل	-10.5472
▁وهيئات	-10.4560
▁delays	-10.6702
▁يعطي	-10.8921
▁presents	-10.7244
▁journalists	-10.8463
nes	-11.6486
▁والاستثمار	-10.5427
يلة	-11.4872
وارد	-11.2655
▁التسوية	-10.5019
▁limitations	-10.5610
▁وعقد	-10.5610
▁والسيدة	-10.2319
▁الأوزون	-10.4146
▁Mike	-13.8549
▁spoke	-10.8601
▁والتسريح	-10.3912
▁التعريف	-10.4821
تشا	-11.8576
▁الشمس	-11.6327
▁الزمنية	-10.5133
▁wear	-12.5412
▁يعرض	-10.6421
▁والش	-11.2136
▁facilitated	-10.5885
▁stronger	-10.7522
▁liaison	-10.6773
▁$4	-10.8143
▁purchase	-10.6164
▁مناسبا	-10.5737
▁السفينة	-11.1647
▁يبين	-10.4791
▁الوقائع	-10.5054
▁تسبب	-10.7493
pre	-11.7457
دعو	-11.0531
▁pages	-10.8921
▁Zimbabwe	-10.3351
▁أعداد	-10.6029
▁contacts	-10.6273
▁1970	-11.2696
▁currency	-10.6525
▁award	-10.5256
▁recall	-10.5562
تخذ	-10.7855
▁introducing	-10.5615
▁explosive	-10.7139
▁تكرر	-10.4900
الات	-11.2771
▁900	-10.6923
▁يتجزأ	-10.4378
▁موريشيوس	-10.4042
▁millions	-10.7204
▁الضارة	-10.5801
▁109	-11.2029
▁المصابين	-10.4955
▁applying	-10.5208
▁ordinary	-10.6886
▁الكلام	-11.3298
▁accordingly	-10.5367
▁المنشورات	-10.6734
hal	-11.8790
▁يتوقف	-10.8004
▁exists	-10.6250
▁وتشغيل	-10.6389
▁consultants	-10.7013
▁البار	-11.9513
▁removal	-10.6542
فوز	-12.9372
قيادة	-10.6442
▁("	-10.5429
▁foundation	-10.5488
▁وممثلي	-10.5791
▁المجلد	-9.9653
▁مضمون	-10.3796
▁إحصاءات	-10.5517
▁الضغط	-10.9053
▁اختتام	-10.5025
▁تجر	-11.3762
فاء	-11.3375
▁finish	-12.2774
▁arrived	-10.9939
▁الخلف	-12.0136
▁notably	-10.5778
▁يقتل	-12.4004
▁17-	-10.3481
▁علاج	-10.9998
▁لحالات	-10.5576
▁super	-12.1719
▁twice	-11.2081
▁smell	-13.8881
▁شواغل	-10.4432
فرد	-11.3906
▁Center	-10.7706
tim	-11.2295
▁cooperative	-10.5588
▁gain	-10.6244
should	-12.4414
col	-12.3283
▁seemed	-11.0104
▁2:	-10.8419
▁صح	-11.6860
▁wastes	-10.6970
▁للتربية	-10.5449
▁deprived	-10.6692
▁DC	-10.9182
▁حاسمة	-10.4335
law	-11.2499
وجد	-12.0725
▁لتنظيم	-10.5659
▁منتجات	-10.5928
▁اننا	-11.6169
▁النقاط	-10.5879
▁Chemical	-10.5879
▁wedding	-12.8651
▁analytical	-10.5233
▁المعاشات	-10.5988
▁shelter	-10.7332
▁Mozambique	-10.4225
▁الأجواء	-10.4526
▁واستنادا	-10.5239
GC	-11.2079
▁mobilize	-10.5278
▁named	-11.1734
▁المخطط	-10.6782
▁اقتراحات	-10.4602
▁objects	-10.5198
▁Russia	-10.7583
▁للعنف	-10.6038
▁الخمسة	-10.5856
▁alternatives	-10.6742
▁شخصية	-10.9466
▁amazing	-13.3355
ld	-12.1586
▁Migration	-10.6098
▁wrote	-10.7911
▁الوفيات	-10.6820
▁fu	-12.7755
▁comprising	-10.6312
▁ونظم	-10.5216
▁scene	-11.5979
▁inhuman	-10.6304
▁possession	-10.5060
▁يواجه	-10.5509
▁Iceland	-10.3100
شغل	-10.9324
▁لتطوير	-10.5310
▁العلوم	-10.7128
▁يحقق	-10.5461
▁Data	-10.7207
▁si	-12.3254
▁ونتائج	-10.4058
cha	-11.8615
zi	-11.5179
▁Men	-11.1142
خطئ	-12.4597
▁القارة	-10.4057
▁شعوب	-10.4320
▁كشف	-10.6783
▁٤٨	-12.9828
▁maritime	-10.5441
1994	-11.7170
▁التشديد	-10.4081
طول	-11.1612
▁king	-10.6430
▁مساء	-11.8901
▁dimensions	-10.6118
▁يقدمها	-10.5079
▁جولة	-11.0099
▁الأسعار	-10.6498
▁incorporate	-10.5395
▁ممتنا	-10.6337
يتين	-10.7599
▁farmers	-10.6611
▁ويؤكد	-10.5559
▁mercury	-10.8263
خدع	-12.9615
▁2012.	-12.8884
▁gains	-10.6331
▁organizing	-10.5282
▁وموظفي	-10.5434
▁الصليب	-10.5249
▁أحدث	-10.6346
▁ابدا	-12.2172
▁المعتمد	-10.4762
▁توحيد	-10.7018
▁مسؤول	-10.6944
о	-12.9862
▁destroy	-11.1179
,4	-11.0842
▁Che	-12.1762
جرى	-10.6414
عوا	-11.2963
يرو	-10.8647
▁discharge	-10.4996
▁تبرعات	-10.5353
▁schemes	-10.6314
وكا	-11.2811
▁المجتمعية	-10.6406
زو	-11.0742
▁سك	-11.9330
▁نعتقد	-10.6724
▁السيارات	-11.2822
▁الهجوم	-10.7773
▁الضفة	-10.5715
▁رومانيا	-10.4686
arry	-13.1359
▁environmentally	-10.7534
▁micro	-10.8481
▁desertification	-10.5922
▁ratify	-10.5484
▁الأكاديمية	-10.7290
▁اد	-11.0761
aff	-12.1236
▁carefully	-10.6076
▁RE	-11.8937
▁الردود	-10.5087
▁injury	-10.5619
▁star	-13.2342
▁بالمقارنة	-10.6186
▁خلالها	-10.7253
▁18-	-10.3738
▁التقيد	-10.5189
▁mostly	-10.8357
tt	-11.9426
ó	-11.8351
▁lands	-10.6534
▁كافيا	-10.6914
▁replies	-10.6351
▁أسئلة	-10.9166
رأى	-10.8698
▁anywhere	-12.2744
▁worried	-13.2352
▁disseminate	-10.5718
▁broken	-11.5084
▁Namibia	-10.3661
▁تمنح	-10.6212
▁freely	-10.5939
▁dimension	-10.5376
▁مقترح	-10.5521
رها	-11.3565
▁calm	-11.4244
▁البدء	-10.7108
▁معروف	-11.2842
▁قيمتها	-10.6235
▁أمريكي	-11.1039
▁Holy	-11.0644
عجل	-11.5743
شت	-11.2516
خشى	-11.8541
▁الأمير	-11.9940
▁وتلك	-10.5945
▁شاب	-11.5836
▁والمنظمة	-10.5386
▁lying	-12.7404
▁operative	-10.5419
▁bath	-12.9137
وكس	-11.8405
▁مراقبي	-10.9565
▁flexible	-10.6127
▁الإبقاء	-10.5900
▁struggle	-10.5528
▁bag	-13.3681
▁بصفته	-10.4276
▁انبعاثات	-10.7066
▁الأونسيترال	-10.3480
▁buildings	-10.8773
▁Industrial	-10.6841
نتج	-10.8676
▁receipt	-10.5887
▁وتدريب	-10.5744
▁Ow	-11.6060
▁anticipated	-10.6545
ker	-11.9820
▁allows	-10.6426
▁المتزايد	-10.4901
▁المتصل	-10.6242
▁Estonia	-10.3697
▁للوكالة	-10.5645
▁Everyone	-12.5073
▁عاد	-11.6245
▁فاسو	-10.3824
▁السرية	-10.7999
لوا	-11.2543
▁Provision	-11.2335
▁يعقد	-10.5003
▁abuses	-10.7525
▁mining	-10.9220
▁elaboration	-10.5865
▁Interior	-10.6622
▁إجازة	-10.6712
جيد	-12.1919
▁التزاما	-10.4193
▁شو	-11.4656
▁ضروري	-10.5835
▁الطائرة	-11.5620
▁(1998)	-11.0787
▁بالا	-11.2112
idi	-12.5391
طاق	-11.5981
▁subjects	-10.6572
▁killer	-13.3917
under	-10.9334
كلي	-11.7743
▁السلفادور	-10.7393
▁وتتضمن	-10.5430
q	-11.1752
▁evaluations	-10.7476
▁plus	-11.5300
▁متطلبات	-10.5780
رابطة	-10.5247
▁excuse	-11.9107
▁اضطلعت	-10.5484
اسم	-11.3330
▁العملي	-10.7503
▁اسمه	-11.3770
▁reserve	-10.6735
▁هاتين	-10.5316
▁المحدودة	-10.5683
▁دان	-11.9844
▁بعين	-10.6368
▁خطير	-10.9332
▁Durban	-10.4253
▁bus	-12.2152
▁Emirates	-10.3890
▁j	-12.3626
br	-11.8906
▁supervision	-10.6477
▁عادلة	-10.6761
▁vacancy	-10.7267
▁جميعها	-10.8788
نجو	-12.3642
▁surveys	-10.6976
▁أسم	-12.1233
▁الحين	-10.8622
ارتي	-12.0884
ches	-12.2012
▁موظفو	-10.6004
▁سبع	-10.8246
▁واقترح	-10.5577
▁ضحية	-10.6614
▁كازاخستان	-10.6292
▁وآليات	-10.5424
▁treat	-11.1258
▁قراري	-10.6710
▁Captain	-13.6194
▁الانتهاء	-10.7081
▁التنقل	-10.6135
▁client	-11.3814
اوي	-11.0467
طا	-11.2398
▁طلبا	-10.6734
▁leader	-10.9910
▁Atomic	-10.5363
▁السير	-10.7472
تأكد	-11.9282
▁emphasize	-10.4596
▁التزاماتها	-10.5024
▁يخضع	-10.5291
а	-13.0134
▁municipal	-10.5656
INA	-13.1917
▁الاتساق	-10.5710
▁المعمول	-10.5617
▁متزايدة	-10.5340
جس	-11.1767
▁ضباط	-10.8051
▁Consequently	-10.5662
▁بشأنه	-11.4206
▁آلاف	-10.8244
▁أولي	-10.9456
▁الطوعية	-10.6248
▁بالمساواة	-10.6224
mar	-11.5150
▁dependent	-10.6321
▁الفائدة	-10.9407
▁attempts	-10.6217
rea	-12.0336
▁Business	-10.7380
▁pattern	-10.7832
▁إرهابية	-10.4151
▁mutually	-10.5757
▁watching	-12.8608
اللجنة	-10.3059
▁ستعمل	-12.2974
▁اختبار	-10.8992
▁العجز	-10.7282
▁المستشفى	-11.7057
▁البط	-11.9677
▁آمل	-12.2829
▁attributable	-10.7421
▁summit	-10.4611
▁شاملا	-10.5434
موا	-11.1059
قاعدة	-10.5563
▁port	-10.7771
▁Without	-10.8642
▁يضمن	-10.5805
▁كوستاريكا	-10.4924
غري	-11.7019
▁nobody	-13.2709
▁speaker	-10.3923
بارك	-12.1773
▁Cuban	-10.6773
▁accomplishments	-10.4279
▁prisons	-10.8573
▁tables	-10.6594
▁عنهم	-11.5619
ique	-11.8122
▁دقيق	-11.1276
ضمن	-11.1828
فاد	-11.4123
▁1978	-11.2472
▁والمشاريع	-10.6384
▁ومؤتمر	-10.6216
▁وعملا	-10.5736
▁خبرة	-10.6395
▁competitive	-10.6664
▁استقلال	-10.6203
▁throw	-13.0527
COM	-11.3077
خار	-11.7327
▁إيرادات	-10.5965
▁بيئيا	-10.7573
▁وشدد	-10.5620
▁يترتب	-10.4979
▁assumed	-10.7318
▁revenue	-10.7387
▁الادعاءات	-10.7336
نته	-11.7711
▁يحث	-10.4838
▁يسمى	-10.8401
▁أرجاء	-10.4732
▁مخصصة	-10.6149
▁مرت	-11.5909
▁بغض	-10.7584
▁للا	-11.2255
ral	-12.3505
▁حوادث	-10.7102
جان	-11.8489
▁liberalization	-10.5797
▁frequently	-10.6421
▁بشيء	-12.4786
▁لإقامة	-10.5292
gar	-11.8185
▁قلب	-11.3724
▁المتعاقدة	-10.5403
▁valid	-10.5227
▁ride	-13.6064
▁deemed	-10.6027
▁تمارس	-10.6841
▁61/2	-11.0237
national	-10.9180
▁والمساءلة	-10.5987
▁أمثلة	-10.5388
▁وفاة	-10.8788
sion	-12.1062
▁متكاملة	-10.6188
تزوج	-12.4100
▁السل	-11.2107
▁Has	-11.6178
دول	-11.1200
▁degrading	-10.6463
▁restructuring	-10.7677
▁بموافقة	-10.3940
▁يعانون	-10.5948
▁terrible	-11.9823
▁جنسية	-10.6138
▁formulate	-10.5858
▁114	-11.2947
▁يغطي	-10.6356
▁expanding	-10.6574
▁Voluntary	-10.7824
▁117	-11.1763
▁Mer	-11.9580
▁130	-11.1973
▁Basel	-10.6338
▁صفحة	-10.7304
▁2008)	-11.2469
mu	-12.5243
▁لتبادل	-10.5669
▁وإصلاح	-10.5806
▁الاقتراحات	-10.4845
▁صالح	-10.8770
▁memorandum	-10.4767
▁يع	-11.1858
NGO	-11.6187
ender	-12.2532
▁افضل	-11.7604
▁السنغال	-10.5598
▁الصف	-11.3753
▁تتوقف	-11.2148
افة	-11.4916
▁المحضر	-9.8654
▁Ombudsman	-10.7710
▁aspect	-10.5380
▁حينها	-11.4106
▁الواحد	-10.9445
▁مستدامة	-10.5927
▁فأنا	-12.8099
▁وأثناء	-10.5532
▁Mongolia	-10.4046
▁necessity	-10.5633
▁115	-11.3342
▁proceeds	-10.3337
▁auspices	-10.5616
▁الأسرية	-10.5984
▁أسف	-12.3036
▁beings	-10.7553
sa	-11.5582
▁19-	-10.4052
▁التقييمات	-10.6555
▁صيد	-10.8001
قيد	-10.8592
▁لمنطقة	-10.6009
▁species	-10.7973
▁saved	-12.0354
à	-11.2146
▁والإدارية	-10.5460
▁المؤ	-10.9921
▁للمشاريع	-10.5898
▁plant	-10.9711
▁marry	-11.9448
▁بازل	-10.6437
▁استخدم	-10.9494
▁للف	-11.3195
▁length	-10.7065
▁العائلة	-11.3865
▁صناعة	-10.7148
▁preserve	-10.5820
▁بنظام	-10.6753
▁والموظفين	-10.6204
▁citizenship	-10.6664
▁الرأس	-11.0094
▁تفويض	-10.5800
▁للسياسات	-10.6006
PR	-11.2275
▁الهي	-12.1589
دمت	-10.8246
▁seats	-10.6885
▁conviction	-10.6360
▁Pr	-12.1861
باسم	-10.3047
▁innovation	-10.9179
▁رفيع	-10.6072
▁تتعرض	-10.6635
رئ	-11.4625
▁والتحديات	-10.5384
▁threatened	-10.8889
▁balances	-10.8865
▁21,	-10.6861
▁يجد	-11.1597
▁شريك	-11.6565
▁مطالبات	-10.4444
▁اخرج	-13.1679
rn	-11.9417
صنع	-11.5876
▁وسياسات	-10.6378
▁تعلمون	-12.6874
▁eligible	-10.6139
▁thereof	-10.5260
▁الشحن	-10.7194
RI	-11.7014
▁تدفقات	-10.6021
ient	-12.1294
▁Senior	-10.7778
▁اليه	-10.7802
▁تقاريرها	-10.5084
▁فع	-10.6514
▁استخدمت	-10.7982
▁mothers	-10.7202
▁الدفيئة	-10.6067
▁characteristics	-10.5972
▁بعقد	-10.5181
▁fees	-10.7517
▁الأفكار	-10.7799
▁مب	-11.1822
حمل	-11.4935
خلص	-11.2281
▁لعدد	-10.6059
▁فإذ	-10.7186
▁trip	-12.0073
▁عالميا	-10.6197
▁depend	-10.6066
▁correct	-10.9033
▁1992,	-10.9691
ord	-11.6926
200	-12.3577
▁reductions	-10.7188
▁الدائمين	-10.5836
▁تحكم	-10.7020
1/	-11.6729
▁الدستوري	-10.6596
ave	-12.1305
▁فائدة	-10.8748
▁للمراقبة	-10.6527
▁reiterate	-10.4369
▁اجتماعا	-10.6903
شخص	-11.1877
▁الإثني	-10.8462
▁بقية	-11.0711
▁honor	-11.7605
▁بالضرورة	-10.6098
▁conducive	-10.5723
▁تثير	-10.6267
▁rapidly	-10.6496
▁الاتحادي	-10.6468
▁تقدمه	-10.6284
▁بتطبيق	-10.6101
▁forthcoming	-10.5154
▁افت	-11.6922
▁تحققت	-10.6997
▁الأنظمة	-10.6890
▁التن	-11.5798
▁استعادة	-10.6571
▁والتكنولوجية	-10.5886
▁Bear	-10.6380
▁بإجراءات	-10.5453
▁المراقبين	-10.8508
▁تتوفر	-10.5317
▁marked	-10.6531
▁لإيجاد	-10.6769
AS	-11.4430
▁مقد	-10.8954
▁Twenty	-10.9247
▁الفجوة	-10.5484
▁وحيد	-11.4726
▁ادعاءات	-10.8347
▁حكومتي	-10.5118
▁الزئبق	-10.8275
▁العالية	-10.6956
enny	-13.5389
▁زلت	-13.0193
▁السجلات	-10.8127
▁فعالا	-10.5553
TION	-12.6714
▁convene	-10.5570
▁الواجبة	-10.6619
▁للبحث	-10.8124
▁مدتها	-10.6439
▁$5	-10.8693
▁قادة	-10.5645
sen	-11.5406
▁ولي	-11.1579
▁Move	-12.9572
▁ثنائي	-10.5054
رتب	-11.1897
نتي	-11.7621
عالج	-11.1729
▁wage	-10.6942
▁تقديمها	-10.6378
▁لع	-11.6307
▁الضرورة	-10.5609
â	-13.0556
▁فقدان	-10.8814
▁العشر	-10.6706
press	-12.3042
▁platform	-10.9066
▁التجربة	-10.7028
▁موحدة	-10.6285
▁Directorate	-10.6296
▁2)	-11.5393
htm	-10.8445
▁Ru	-11.6163
▁grand	-12.7028
متلازمة	-10.3627
▁الإعسار	-9.9886
▁Basic	-10.7489
▁accompanied	-10.6100
ese	-12.0298
▁Studies	-10.8097
▁فنزويلا	-10.6083
▁المختلطة	-10.7666
▁والرجل	-10.5855
▁118	-11.2352
▁تدريجيا	-10.5984
▁Audit	-10.7859
▁أراد	-12.5126
▁للمستوطنات	-10.6021
▁للأم	-11.2281
ado	-12.1658
▁Facility	-10.5691
▁regimes	-10.4928
▁Final	-10.6442
▁الحفل	-13.0797
▁Consultative	-10.5451
▁Du	-11.7722
▁managing	-10.6735
▁وفرنسا	-10.5166
▁كهذا	-11.8655
▁وأوضح	-10.5266
▁talked	-12.9338
▁بيننا	-12.2770
▁relates	-10.5816
▁trials	-10.5203
▁Mi	-12.0800
▁ومشروع	-10.5350
▁أنظمة	-10.6594
▁الدورية	-10.6967
مبنى	-12.5314
▁الآسيوية	-10.5277
▁تتفق	-10.5955
▁مارك	-11.2357
not	-11.2084
▁للتحقق	-10.7670
▁الرو	-11.6323
▁حادث	-11.2992
▁صعب	-12.3267
~	-13.9965
▁Ya	-11.5745
▁الاحتياطي	-10.8798
▁للمكتب	-10.6746
▁لشعب	-10.6446
▁النواتج	-10.5841
انغ	-11.1334
▁السجل	-10.6050
▁intensify	-10.5388
ss	-11.5365
غا	-10.8941
▁underlying	-10.6049
▁protocols	-10.5455
▁56/2	-10.9939
▁الأسف	-11.0390
▁وإدارتها	-10.6105
lly	-12.9993
▁driving	-11.6121
▁طويلا	-11.3320
▁أصلا	-10.8159
▁parallel	-10.6326
▁forever	-11.7956
▁reinforce	-10.5786
▁لضحايا	-10.5958
▁أنشئ	-10.5656
▁التعسفي	-10.7932
▁ومبادئ	-10.5309
▁James	-11.5121
▁القدر	-10.9991
▁laugh	-13.3190
▁gold	-11.4016
▁وجهات	-10.6494
▁الحلول	-10.6245
▁تكافؤ	-10.5738
/2002/	-10.9743
▁Lu	-11.6292
▁لاحتياجات	-10.5915
▁٤٢	-12.7109
AB	-11.6454
▁Nobody	-13.9459
▁استشاري	-10.7281
▁خل	-11.2324
▁والأشخاص	-10.6941
▁عال	-11.3953
▁وجعل	-10.9228
▁الحزب	-10.8336
▁الطلاب	-10.8885
ai	-11.7363
▁Hague	-10.5388
▁consult	-10.7386
▁restricted	-10.6988
▁proved	-10.6192
شة	-11.5529
▁فات	-12.3154
▁الخطأ	-11.6496
eg	-11.9783
▁تام	-10.8228
▁tribunal	-10.5068
▁ارتكبت	-10.6595
▁ملاك	-10.8781
▁صحية	-10.6892
▁Capacity	-10.7073
mission	-11.7357
Aligned	-10.6116
▁وكأن	-12.6429
محاكمة	-10.9417
▁Mary	-11.7657
بيع	-11.8787
▁تنقل	-10.6418
يزا	-12.1579
▁مؤقت	-10.6822
▁والذين	-10.8304
▁بلغاريا	-10.5725
▁توعية	-10.6588
▁لتقرير	-10.5709
▁surveillance	-10.9465
▁حكومته	-10.6384
▁استكشاف	-10.6281
▁الجملة	-10.5640
▁ويتمثل	-10.5346
/24	-11.3333
▁المملوكة	-10.8010
▁مؤخ	-13.1034
▁أسرة	-10.7130
حمي	-11.6116
/21	-11.2484
▁becomes	-10.8523
▁تلقت	-10.6287
صير	-11.1280
▁وضعتها	-10.6750
▁شباب	-11.6576
▁وخ	-10.9694
▁ببرنامج	-10.6646
▁للرئيس	-10.5952
▁116	-11.2385
▁Bob	-13.4991
▁مبكر	-10.7904
▁زمنية	-10.5219
▁observation	-10.7158
▁بمشروع	-10.4983
▁والحماية	-10.6101
▁reaffirms	-10.5597
present	-12.4953
▁الأشهر	-10.5630
▁250	-11.2182
▁المتهم	-10.7929
▁دعمها	-10.5531
▁20-	-10.4561
▁والمجتمعات	-10.6261
▁RIGHTS	-11.0992
▁pleasure	-11.2803
▁Expresses	-10.5292
▁للش	-11.6323
▁هان	-11.4927
▁Liechtenstein	-10.3351
▁أطلب	-12.0672
مستوى	-10.6544
▁تري	-12.1753
▁الشعور	-11.4416
▁زواج	-11.2005
عكس	-10.8214
table	-11.3052
▁تنتظر	-11.6121
▁تنفيذه	-10.7173
حيا	-11.6050
▁57/2	-11.1444
▁Christian	-10.2294
▁sitting	-12.1046
3/	-11.5110
▁paying	-11.0822
▁والمصالحة	-10.4979
▁الانكليزية	-11.1462
▁وفريق	-10.7189
▁permitted	-10.6331
▁Question	-10.8259
▁jump	-12.9213
▁للمقرر	-10.5554
▁دوما	-11.5610
▁arise	-10.5174
▁الذكور	-10.7771
tle	-12.4230
▁fraud	-10.6670
▁الأمهات	-10.6842
▁expulsion	-10.6242
▁بكم	-12.2362
المعترف	-10.6530
▁MONUC	-10.2983
▁استهلاك	-10.6024
▁Articles	-10.6341
▁mis	-11.7189
laundering	-10.4668
▁حملات	-10.6371
عقل	-11.9631
▁أطر	-10.8091
▁تهيب	-10.4465
▁منتظم	-10.6233
▁showing	-10.9518
▁يعاني	-10.7555
حدث	-11.3034
▁تسل	-10.8109
rr	-12.2937
▁أقوى	-10.9870
▁للحكومات	-10.6402
رص	-11.6069
▁Think	-12.8670
المتعلقة	-11.1062
▁رسوم	-10.8043
بارا	-12.2278
▁facilitation	-10.6616
▁shift	-11.0953
▁ظهور	-10.8045
▁Qu	-12.0375
▁123	-11.2315
▁59/2	-10.9616
▁المرتبط	-10.8562
ديس	-11.3207
▁devices	-10.8166
▁Statistical	-10.7632
▁أراضيها	-10.5899
▁حذر	-12.0696
▁والمرافق	-10.6307
▁أجري	-10.6616
▁اتصالات	-10.7593
▁مولدوفا	-10.6443
ius	-11.9551
▁sentenced	-10.8311
▁العامين	-10.8065
▁محطة	-11.3142
سلم	-11.7228
He	-12.1924
▁أوامر	-11.1273
▁عاجلة	-10.5661
▁2000-2001	-10.7721
▁عمليا	-10.6838
▁قطعة	-11.8327
-3)	-11.2201
▁والص	-11.0814
▁المهتمة	-10.5171
▁سيجري	-10.6716
▁entrusted	-10.6110
▁مستمر	-10.6991
▁description	-10.7406
▁harmful	-10.6777
▁hide	-12.2577
▁رجلا	-11.8979
▁agent	-11.4547
كوك	-11.5844
▁بنقل	-10.6506
")	-10.3578
▁وأيضا	-10.7555
▁accurate	-10.6679
▁rock	-12.1264
▁prospects	-10.6227
ثي	-11.6205
▁بتوافق	-10.5845
▁الذخائر	-10.6829
personnel	-10.7044
▁الغير	-11.3941
▁الشبكات	-10.6745
▁Dominican	-10.4240
▁meaningful	-10.6189
▁وقواعد	-10.5716
▁الأمية	-10.5966
كوب	-12.0552
▁Lastly	-10.6294
▁دخلت	-11.1312
▁تثبت	-10.6706
▁emphasizes	-10.5881
▁speech	-11.0342
▁خصوصا	-10.7664
▁آر	-11.3470
▁اشتراك	-10.6788
حوا	-11.3318
▁count	-11.6354
pdf	-10.8213
▁بتعيين	-10.5870
▁appeared	-10.7175
AP	-11.3597
▁تعترض	-10.6159
▁بالتقدم	-10.5860
▁صناديق	-10.7940
ضا	-11.2859
ترجم	-10.8644
▁convicted	-10.8980
▁المنهجية	-10.7175
▁بون	-11.0448
▁reaffirm	-10.4880
▁انتظار	-10.9573
▁Back	-11.9361
▁مدونة	-10.5471
▁ويعمل	-10.6557
▁صدرت	-10.6104
تمكن	-11.5910
▁يبذلها	-10.5205
▁إريتريا	-10.5900
▁solid	-10.8098
▁ملكية	-10.5954
▁afford	-11.0823
▁Independence	-10.6985
▁ordered	-11.1475
▁patient	-11.9186
▁مقبولة	-10.6490
عاقب	-11.1714
▁ويكون	-10.5289
▁ودول	-10.6176
▁المنح	-10.8068
lect	-12.0865
▁12,	-11.1636
▁نظره	-10.3309
/30	-11.4861
▁أسلوب	-10.8061
▁الماس	-10.4960
▁تجارة	-10.7332
▁لرئيس	-10.6262
▁fix	-12.5688
▁تكثيف	-10.6297
▁قضاء	-10.8462
▁الشرعية	-10.5426
▁بالمسؤولية	-10.5005
▁الأبعاد	-10.7650
▁supplementary	-10.6571
▁removed	-10.8670
▁citizen	-10.7691
▁liabilities	-10.8102
صيب	-11.5505
▁الأمد	-10.6270
dar	-12.1045
▁ثقة	-10.6257
▁شملت	-10.6515
▁Major	-11.1184
▁loans	-10.7394
▁يو	-10.9831
▁mandatory	-10.6867
ju	-12.3123
▁غازات	-10.6934
▁Remember	-12.6244
▁المصارف	-10.5711
▁الإجرائية	-10.5657
▁Bahrain	-10.3880
▁immigration	-10.6963
▁busy	-12.5024
▁سد	-10.8390
б	-15.6141
▁Honduras	-10.4500
▁incentives	-10.7269
▁أبعد	-11.2981
وبي	-12.4443
صور	-11.4064
▁جان	-10.9446
▁صيغة	-10.5270
▁الثقافة	-10.6955
▁Punishment	-10.7201
▁مستعدة	-11.0902
▁necessarily	-10.6979
▁SBSTA	-10.5475
▁قب	-11.8735
▁واعت	-10.8341
▁landlocked	-10.6494
▁فهذا	-11.1294
▁الجمعيات	-10.7580
▁السوري	-10.6593
▁122	-11.2908
▁derived	-10.6054
▁لإعلان	-10.5852
▁إحالة	-10.5078
▁verbale	-10.6948
▁Post	-11.1268
▁guided	-10.7241
▁النظيفة	-10.5838
▁المشتبه	-11.0698
▁أرسلت	-11.4901
▁statute	-10.8606
تظاهر	-11.8919
▁الموص	-11.1709
▁وبغية	-10.5219
▁أمنية	-10.7183
▁يقدر	-10.8657
▁لعبة	-12.6209
تمام	-12.1788
▁الجدار	-10.6231
▁بالله	-12.5198
▁للمبادئ	-10.6460
▁تفتيش	-10.9268
IP	-11.4256
فان	-11.2441
▁generate	-10.6973
▁الدرجة	-11.1495
▁بالعنف	-10.7018
▁الاستماع	-10.8774
▁wearing	-12.7326
▁الدعوى	-10.6602
▁tangible	-10.5445
▁لوقف	-10.5416
▁Participation	-10.7382
▁وقرار	-10.6298
▁قراراتها	-10.5427
.21	-11.3815
▁بالتجارة	-10.5003
▁enshrined	-10.6741
▁swear	-13.4735
▁afternoon	-11.4119
▁الفن	-12.2281
اعي	-11.4579
▁والبيانات	-10.6619
▁Sector	-10.9067
▁dress	-12.7313
▁Four	-11.2747
▁طن	-10.7123
▁ازدياد	-10.6263
آلية	-10.7622
▁توصل	-10.6292
▁اني	-11.8488
قين	-11.5208
ائنا	-11.4301
▁**	-11.3776
شكل	-10.8992
▁محاكم	-10.7054
▁GDP	-10.8886
▁بيانا	-10.6657
▁transaction	-10.4925
▁وبالمثل	-10.6014
▁clarification	-10.6568
▁الوزارة	-10.6538
TER	-12.8792
رؤية	-11.5428
▁connected	-10.9670
/58/	-11.0135
▁Pension	-10.7857
/66	-12.8438
▁Ste	-12.5403
▁الأهلية	-10.7111
▁140	-11.2832
▁evening	-11.8756
▁بالخارج	-12.9390
▁تهم	-10.8475
سجل	-10.8593
▁ودور	-10.6420
oke	-12.8681
▁Port	-11.0468
▁suitable	-10.7155
▁يتحقق	-10.6436
▁لمجموعة	-10.6583
▁حياته	-11.2466
▁TD	-11.3383
▁البغاء	-10.5539
▁Relief	-10.6334
▁Ocean	-10.7441
▁Closed	-10.5883
▁سرية	-10.8897
▁dates	-10.8811
▁villages	-10.7296
▁الاستهلاك	-10.8466
▁Habitat	-10.5805
▁industries	-10.8141
▁Ko	-11.3403
▁possibly	-11.1168
▁generated	-10.6851
يكو	-11.3021
depth	-10.6412
▁window	-11.6936
▁نطاقا	-10.6929
▁أغلبية	-10.6114
▁المتأثرة	-10.7231
▁te	-11.0309
▁Region	-10.6909
▁الإمكان	-10.6348
▁زاي	-10.7157
انات	-11.3719
حرق	-11.8847
▁themes	-10.7030
▁عددها	-10.7992
▁للشباب	-10.7747
▁accelerate	-10.7171
▁replacement	-10.8707
اغ	-11.3266
main	-12.2034
وذ	-11.6702
▁النتيجة	-10.7868
▁collected	-10.7669
▁التهديدات	-10.5796
▁جين	-12.3550
▁طالب	-10.9240
/59/	-10.8266
▁القوي	-10.6666
▁متأخر	-11.8375
بوت	-11.4876
▁penalties	-10.7437
▁فر	-11.1995
▁advances	-10.7362
ea	-12.0455
▁113	-11.3605
▁تدفق	-10.7029
▁تقضي	-10.8228
▁ملائم	-10.6968
▁أحرز	-10.6506
.2)	-11.0631
▁اعتراض	-10.4955
▁gift	-11.6431
▁1981	-11.1769
▁والمقرر	-10.5924
▁birthday	-13.2592
▁أحسن	-12.0370
▁miles	-11.5469
طبيعة	-10.6331
▁أفادت	-10.7234
▁(2007)	-10.8099
▁السم	-11.9513
▁aged	-10.8388
▁Ok	-12.7002
▁60/2	-10.9894
▁Common	-10.6644
▁الستة	-10.6272
▁واصل	-10.9537
▁تف	-11.1830
▁Welcome	-12.4424
واجه	-11.5305
▁تتاح	-10.6094
▁ووزارة	-10.7013
▁heritage	-10.6919
▁concepts	-10.7390
▁التأخير	-10.7213
▁Access	-10.7876
▁Commonwealth	-10.7637
▁Paraguay	-10.4285
▁والقيام	-10.6433
▁pour	-11.2410
▁المستأنفة	-10.6017
cle	-12.7181
▁التفاعل	-10.6461
▁eliminating	-10.6458
▁macroeconomic	-10.7098
▁بقلق	-10.6310
▁العرقية	-10.5404
▁حذف	-10.5875
▁هاي	-11.9867
▁magic	-13.6771
▁consequence	-10.7067
▁الارتياح	-10.5620
▁21-	-10.4902
▁مشغول	-13.1072
▁للبلد	-10.6294
▁بالقرب	-11.3998
uch	-12.2409
▁signs	-11.2629
ban	-12.3383
▁roll	-11.6022
▁'3'	-9.8972
▁prompt	-10.6937
▁الكاميرون	-10.6409
▁المقدرة	-10.9428
بوا	-11.6361
▁آخرون	-10.6033
▁1983	-11.3995
▁سليمة	-10.7268
▁والاقتصادي	-10.6535
▁غانا	-10.6602
▁دواعي	-10.6097
▁Dar	-11.8861
▁خال	-11.2991
▁عقده	-10.6098
▁film	-11.8053
قضي	-11.8825
▁زه	-11.1224
▁الادعاء	-10.6671
▁spending	-11.0936
▁الجم	-12.1167
▁الممتدة	-10.7544
▁النقطة	-10.9128
▁merely	-10.7361
بوس	-12.0417
MAN	-13.0114
▁النصوص	-10.7028
▁easily	-10.9235
▁vast	-10.7719
▁طالما	-11.5689
President	-10.6318
▁ضروريا	-10.7044
▁وأعمال	-10.6368
طفل	-11.9026
▁Free	-11.1130
تخل	-11.6631
▁طبيعي	-11.4746
▁suspected	-10.9143
▁سادسا	-10.7400
▁Ba	-11.6465
▁sw	-12.6674
▁وإنهاء	-10.6182
▁ممكنة	-10.6703
▁ومضى	-10.7312
iti	-11.9391
med	-12.4330
▁refused	-10.9118
▁والف	-10.9492
▁لأقل	-10.5944
▁الرئاسة	-10.5717
els	-12.2072
▁sectoral	-10.7364
▁بوليفيا	-10.7645
▁تهديدا	-10.6101
▁assure	-10.7637
▁closing	-10.9201
▁missed	-12.6235
▁بالصحة	-10.6699
▁قضاة	-10.6552
▁سجلات	-10.9799
▁Grand	-11.9075
▁fresh	-11.4940
▁الموئل	-10.6898
/54/	-11.6890
some	-12.4056
▁hopes	-10.7548
point	-11.6967
▁renewable	-10.8033
▁Yo	-13.0036
باري	-12.3615
▁الجماهيرية	-10.6506
▁يقتضي	-10.5688
▁باست	-11.4339
▁تحديا	-10.5760
▁الرصيد	-10.7619
2/	-11.9215
▁الانشطارية	-10.7629
▁Situation	-10.7965
كسر	-12.0853
yn	-11.8522
▁غاية	-11.0257
شرك	-11.5142
ادات	-11.2572
RC	-11.4627
▁District	-10.8963
ily	-12.5310
ونات	-11.2672
▁quiet	-12.4970
▁العادل	-10.6056
▁TV	-12.1470
▁machine	-11.9492
▁مصرف	-10.6944
▁علمت	-12.5175
▁المفروض	-10.8394
▁Alliance	-10.7727
▁الإرادة	-10.5709
▁المزمع	-10.5717
▁boat	-12.3804
▁التو	-11.3616
▁تعليمات	-10.7485
قتر	-11.8696
▁favourable	-10.6915
▁providers	-10.7502
▁زادت	-10.7021
▁جهودا	-10.6005
▁يوميا	-10.8948
▁٣٣	-11.7778
▁وجوب	-10.6423
▁طي	-11.6057
-11	-11.2260
▁appoint	-10.6852
▁healthy	-11.0195
▁لندن	-11.0886
▁compulsory	-10.7033
▁اللحظة	-11.9737
▁بمسائل	-10.6660
▁subregion	-10.5684
III	-10.7620
▁sales	-10.8448
▁التغيرات	-10.8019
▁briefings	-10.6849
▁الاغتصاب	-10.6670
▁مجتمعات	-10.6368
▁sixtieth	-10.3231
ستمر	-12.8277
▁بالسياسات	-10.7451
▁تشاد	-10.5995
▁pregnancy	-10.7880
جلب	-12.1053
▁IDB	-11.3332
▁models	-10.9019
ENT	-12.5269
▁beneficiaries	-10.7700
▁FDI	-10.5569
▁والمشردين	-10.6220
▁Upon	-10.7977
▁كمية	-10.8671
تعامل	-11.6929
اغو	-11.6658
▁الكفيل	-10.6596
▁نهجا	-10.6253
▁للتحقيق	-10.7651
▁Biological	-10.6307
▁Conflict	-10.6874
▁بصرف	-10.6318
▁Paragraphs	-11.1409
▁Za	-11.4489
▁1949	-11.0560
car	-11.6823
وين	-11.4473
▁الأقصى	-10.6457
▁clarify	-10.6862
▁والمكسيك	-10.6209
▁observance	-10.6992
▁حامل	-11.4675
▁les	-12.0846
▁houses	-10.9470
SBI	-11.1434
▁Violations	-10.6688
▁servants	-10.5355
وجه	-10.9635
▁chosen	-10.8263
▁ردود	-10.6863
article	-10.6586
▁تحقيقات	-10.9823
▁Guy	-13.5613
▁التنافسية	-10.6267
▁الاعتمادات	-10.7673
▁الروما	-11.0123
▁الإرهابيين	-10.4336
▁المصرفية	-10.6784
▁سريع	-11.2557
▁نعمل	-11.2203
▁division	-10.8036
▁targeting	-10.7458
▁Da	-11.6508
▁ice	-12.4132
حافظ	-11.2434
▁unity	-10.5535
طبع	-11.7112
▁wealth	-10.8085
غان	-11.5164
▁المقررات	-10.7121
كافة	-10.5553
▁imagine	-12.2722
▁surprise	-12.2434
▁الجودة	-10.8824
▁يقولون	-12.7213
▁entering	-10.9235
▁depends	-10.8104
▁إطارا	-10.7841
▁مغ	-11.5857
صن	-11.6139
▁التنظيمي	-10.7625
▁مستشار	-10.8109
▁literacy	-10.7263
▁telephone	-10.9701
▁يحل	-11.1400
▁عرضت	-10.8330
▁يبحث	-11.5774
key	-12.7596
▁لأوروبا	-10.8224
▁salaries	-10.8045
▁للحسابات	-10.7638
▁الاسم	-10.8783
ami	-12.3358
▁بإمكانك	-11.5540
▁المحامي	-10.9721
▁جاهز	-12.9635
▁مسؤوليات	-10.5928
▁لطلب	-10.7679
▁falling	-11.0864
▁presidency	-10.4219
▁زوجتي	-13.1496
▁بديلة	-10.7548
▁exceptional	-10.7318
▁ومد	-10.8175
▁يثبت	-10.7512
▁approve	-10.7480
▁favor	-12.2603
▁والنرويج	-10.5917
▁الإثنية	-10.7335
▁ocean	-11.0758
▁إلقاء	-10.9135
▁اللقاء	-12.6543
نف	-11.0047
▁وأفادت	-10.7890
▁register	-10.7957
▁آخذ	-11.4384
▁تنشيط	-10.6843
ough	-12.4240
رخ	-11.6293
▁normally	-10.7996
▁خبير	-10.9679
▁em	-12.0958
▁detect	-11.4107
ball	-13.0776
وقف	-11.4229
▁minor	-10.8770
-30	-11.3538
▁sur	-12.3327
▁via	-10.8512
▁انتم	-11.4388
▁لفائدة	-10.8234
▁complement	-10.6848
▁facto	-10.7692
كاي	-12.1731
▁نفذت	-10.8583
▁والاتصال	-10.6640
▁عجز	-10.8040
▁clearance	-11.0127
▁لبلدان	-10.6350
▁صدق	-12.0149
▁المرتبات	-10.8076
▁التضامن	-10.6697
▁تساهم	-10.5842
▁بطلب	-10.6759
سحب	-11.7343
▁persistent	-10.7681
▁تسهيل	-10.6863
بناء	-10.7282
▁والحصول	-10.8377
▁وحكومة	-10.5753
▁الإسكان	-10.6862
▁متعلقة	-10.7923
▁رفضت	-10.9754
▁Between	-10.8888
▁المحاسبة	-10.7100
+	-11.7174
▁inequality	-10.8657
▁offering	-10.7504
▁Disaster	-10.6494
▁قص	-12.1644
▁consolidate	-10.6474
▁eighth	-10.6924
▁بالالتزامات	-10.6119
▁Son	-11.3624
▁قادر	-11.3980
▁1975	-11.3808
▁Corruption	-10.6243
▁المباني	-10.9498
▁logistical	-10.8062
▁durable	-10.7054
▁Mother	-12.3992
▁الشروع	-10.6668
▁وإنتاج	-10.6369
▁أولى	-10.7493
/2008/	-10.9315
رني	-12.1976
▁regarded	-10.6624
▁لأعضاء	-10.6020
▁والعمليات	-10.7448
▁exposure	-10.9659
▁العضو	-10.6773
▁لأحد	-11.2607
▁إمكانيات	-10.6072
▁Web	-10.9726
▁الإعداد	-10.6400
▁Sha	-11.7298
ET	-12.2618
rist	-12.5708
▁الميلاد	-11.4082
▁undermine	-10.6759
ei	-11.8617
▁bas	-13.1941
▁الثنائي	-10.8294
▁Communication	-10.6361
▁أطلقت	-11.1696
كات	-11.5712
▁للبيانات	-10.7788
▁انتهت	-11.1844
border	-10.5942
▁والبنك	-10.6562
ric	-12.3818
▁المز	-11.4869
▁بمقدار	-10.7922
▁addresses	-10.7310
▁المأذون	-10.9816
rick	-13.0229
▁الآونة	-10.7574
▁والفقر	-10.5217
آر	-11.8600
▁وفعالية	-10.6517
Agency	-10.6814
▁excellent	-10.7776
▁تهدد	-10.7206
▁ويدعو	-10.6493
داي	-12.1867
▁credibility	-10.6955
▁لكون	-11.0144
▁External	-10.8091
▁كوسيلة	-10.6297
▁بالن	-11.4705
▁escape	-11.5529
▁الجدد	-10.8560
▁التق	-11.7811
▁Responsible	-10.6961
▁manufacture	-10.6364
ett	-12.2639
run	-11.9012
▁لإصلاح	-10.7066
▁نود	-10.5677
▁يمنع	-10.9615
▁الثقافات	-10.6299
▁UNMIK	-10.3468
10)	-11.0350
▁الاحتفال	-10.8576
▁شهدت	-10.7791
▁مون	-11.4067
صياغة	-10.7179
▁التوفيق	-10.5474
ji	-11.4872
▁وتوفر	-10.6985
▁مشاعر	-11.2132
ush	-12.1115
▁(4	-11.4215
▁store	-12.0614
تفق	-12.0009
▁regret	-10.9722
▁inhabitants	-10.7187
▁استثنائية	-10.7043
html	-11.1868
▁eastern	-10.8032
رسال	-11.4197
▁المفيد	-10.6002
/1)	-11.5880
▁فردا	-10.9262
.22	-11.4178
سافر	-11.4236
gue	-11.8783
▁Gi	-12.1818
▁acquired	-10.7101
▁سنوية	-10.7676
▁twentieth	-10.6997
▁وجب	-11.4170
▁generations	-10.8200
▁النموذجية	-10.7801
eur	-11.9667
لط	-11.9473
▁Dialogue	-10.6434
▁التطور	-10.7391
مارك	-12.3163
▁دوائر	-10.6829
▁121	-11.3561
▁memory	-11.4865
▁التصدير	-10.6738
▁president	-11.8255
ency	-12.2566
▁التوجيهي	-10.4613
سيل	-12.3003
▁الترويج	-10.7762
▁tests	-11.2613
▁residents	-10.8826
▁accommodation	-10.9682
▁أعدت	-10.8418
8).	-11.1769
ذة	-11.7008
فريق	-11.2112
ess	-12.3014
30)	-11.6792
▁سباق	-10.8907
▁excessive	-10.7761
▁تهتم	-11.8893
▁unlawful	-10.8335
▁الصحافة	-10.9775
▁جسد	-11.9703
▁thousand	-11.3545
▁(1991)	-11.4461
▁chief	-11.1517
▁يمارس	-10.7559
▁cultures	-10.6737
▁جهوده	-10.6015
▁Disabilities	-11.0113
can	-11.7367
▁رفعت	-10.6403
DI	-11.5006
▁Professor	-11.1695
▁بالدور	-10.6811
▁OECD	-10.7024
▁كا	-11.4043
mmunit	-12.4811
sign	-12.4170
▁Jan	-11.4396
▁المفهوم	-10.6856
▁lock	-13.0882
▁تأهيل	-10.7573
▁truck	-12.5117
▁بعضهم	-11.4181
▁963	-11.7867
▁Officers	-10.7948
▁تسعة	-11.0487
▁Branch	-10.8099
▁متكامل	-10.6864
ابا	-11.5133
▁مشكل	-12.3686
▁involves	-10.6894
▁cancer	-11.3641
▁clothes	-12.4770
▁التحالف	-10.7477
▁ألبانيا	-10.7283
service	-10.8719
▁Reporting	-10.7295
▁العل	-12.3089
▁كبرى	-10.7317
▁Home	-11.4432
▁للتعذيب	-10.8596
▁والب	-10.9132
и	-13.1831
▁Leave	-12.8966
▁employers	-10.7843
جيب	-11.8262
▁eradicate	-10.6518
▁تقدر	-10.9370
سيس	-11.9011
غت	-11.5897
▁مرتين	-11.3375
▁Mine	-11.0719
▁(7)	-10.8040
▁underlined	-10.6950
▁الاعتبارات	-10.7593
▁الكف	-11.7605
▁يسعى	-10.7365
طرد	-11.1547
▁آمنة	-11.0098
▁البرنامجي	-10.8848
بقية	-11.3377
▁Perhaps	-11.7596
▁غنى	-10.6070
▁ولأن	-10.8107
▁Still	-11.7245
▁الفني	-10.8019
▁اليد	-11.2995
▁تشك	-11.0022
▁الصياغة	-10.6525
▁promised	-11.5760
▁الأحياء	-10.8672
لمس	-12.4048
▁SBI	-10.7711
▁UNIFEM	-10.5754
▁المرونة	-10.6992
▁تحتوي	-10.8093
ik	-11.7474
▁الشاحن	-10.9758
▁القديم	-11.8013
compliance	-10.6257
▁resort	-10.7956
▁شن	-10.9577
▁والديمقراطية	-10.5786
▁par	-11.8536
▁الأمريكي	-11.0937
▁إنقاذ	-11.5290
/67	-12.8995
12)	-11.8096
▁هنغاريا	-10.6606
▁22-	-10.5508
▁يملك	-11.5161
▁ceasefire	-10.5128
▁strictly	-10.7934
vin	-12.2300
▁imperative	-10.6606
▁فرعية	-10.6981
ريان	-11.7896
▁المعيشة	-10.8941
▁Judge	-10.8100
▁جبل	-10.8554
تهيئة	-10.7165
زت	-11.4418
▁الدومينيكية	-10.6609
▁اعتباره	-10.6480
▁وحرية	-10.7728
عام	-11.2644
لاع	-11.7636
▁بالق	-11.5089
▁يسوع	-9.7062
▁للك	-11.4932
▁للمخدرات	-10.8031
▁تقييمات	-10.8577
▁3:	-10.8972
▁125	-11.3683
bra	-11.9510
▁ملف	-10.9876
▁الأرجح	-11.7019
▁المستعمرة	-10.8017
▁قلقه	-10.7666
▁العميل	-12.7239
tr	-11.9634
▁23-	-10.5503
▁whereby	-10.7388
▁وتعتبر	-10.6959
▁1325	-11.0528
▁60/1	-10.9160
رجى	-10.9270
فحص	-11.5175
▁expectations	-10.7403
CD	-11.6151
los	-12.2849
▁أمم	-10.8844
حترم	-11.5642
▁gratitude	-10.6467
▁نهر	-10.8985
▁attitudes	-10.7036
▁spare	-11.1115
▁حددت	-10.7550
طاع	-12.4686
▁البل	-11.5000
▁عب	-11.2941
▁المنقح	-10.7506
▁مماثل	-10.6384
▁malaria	-10.6844
▁wood	-11.6683
▁parliamentary	-10.7933
▁والرصد	-10.6983
▁counselling	-10.7172
▁interactive	-10.7634
▁Ri	-12.0303
▁Djibouti	-10.4763
▁feels	-12.1591
▁ويطلب	-10.8250
7).	-11.1641
▁اعتمدته	-10.5812
▁للأعمال	-10.6634
▁remarks	-10.6267
▁أدخل	-11.6073
▁ساعدت	-11.1463
▁Legislative	-10.6432
▁Stockholm	-10.7311
▁occasions	-10.7824
▁pool	-11.3935
▁MDGs	-10.6669
▁revealed	-10.9491
TI	-12.3564
سات	-11.4071
آب	-11.2301
▁التشجيع	-10.6605
ICEF	-11.2784
زاز	-11.6795
▁النبي	-11.8991
▁teacher	-11.3516
▁Survey	-10.8188
▁بصفتها	-10.6065
صوت	-11.1719
▁بعدد	-10.7887
▁na	-12.8237
▁مذهل	-12.7820
▁تترتب	-10.6365
▁يقرب	-10.9251
▁adults	-10.8774
▁والسلامة	-10.7712
▁ملتزمة	-10.6303
▁فقر	-10.7307
▁التلوث	-10.7191
▁adolescents	-10.7156
▁نسخ	-10.9283
▁soul	-11.7310
دها	-11.4348
▁offset	-10.8115
▁آت	-12.2259
▁ردا	-10.7392
▁WFP	-10.8500
يتهم	-11.1576
▁arm	-12.0503
▁واعتمد	-10.6524
▁constant	-10.8638
سابق	-11.7821
▁ولما	-10.7961
غالبية	-10.7645
يتنا	-11.3950
▁الحيوانات	-11.3014
▁جامايكا	-10.6529
▁يبقى	-11.1241
لوفاء	-10.6158
▁للأمن	-10.7122
▁decent	-11.1743
▁رك	-11.5250
▁whenever	-10.9895
▁مدار	-10.9052
▁138	-11.3913
▁أعوام	-11.0448
▁ينتهي	-11.8202
▁بأننا	-11.8519
▁والتخطيط	-10.8065
▁الأرصدة	-10.7636
▁وكره	-10.2928
راش	-12.1748
▁بكامل	-10.7583
▁competitiveness	-10.7252
▁refrain	-10.7277
١٠	-12.9576
IL	-11.8846
▁ne	-12.4365
▁استمع	-11.5843
ati	-11.7548
▁المتكررة	-10.8652
▁والجبل	-10.6507
▁التوسع	-10.7674
▁الاستعانة	-10.8473
▁الكفاية	-11.5919
▁لتنسيق	-10.7687
▁حمل	-11.1053
▁قرب	-11.1554
▁adult	-10.9314
▁بالاتفاقية	-10.6741
▁absolute	-10.8999
ification	-11.7682
▁assurances	-10.7974
▁dollar	-11.0241
▁HUMAN	-11.3757
▁orientation	-10.9147
▁Conduct	-10.8481
لية	-11.1845
▁والتطوير	-10.8187
▁صعبة	-11.1121
▁recruited	-10.8713
▁Hol	-12.0092
▁methodologies	-10.7529
dr	-12.2308
▁deprivation	-10.9361
▁المرج	-12.1138
▁غرار	-10.6357
▁متع	-12.1593
▁القائد	-12.0873
▁ومساعدة	-10.6961
▁ديربان	-10.5986
▁البحرين	-10.6345
▁طيب	-12.2281
case	-11.1680
▁تخل	-11.2275
▁lunch	-13.2144
▁redress	-10.8499
▁1993.	-11.9192
▁ستقوم	-11.3984
▁granting	-10.7384
▁concerted	-10.6462
ré	-12.1613
صمت	-13.0311
▁سداد	-10.7363
▁يقومون	-11.1489
▁الأخطار	-10.6007
▁الروابط	-10.7071
▁فوائد	-10.6728
▁والطفل	-10.8222
▁appropriation	-10.8624
▁blue	-12.6303
▁sake	-11.7056
ists	-11.3566
▁الكو	-11.8815
▁أنشأ	-10.7535
برت	-11.5142
▁أعمارهم	-10.7426
▁ماري	-11.3206
▁استنفاد	-10.5874
▁الدوائر	-10.7787
▁وتن	-10.9942
▁الذهب	-11.5380
كتب	-11.8074
-13	-11.2935
▁دعوى	-10.7880
▁Ka	-11.5924
▁transmission	-10.8110
▁consists	-10.8012
▁بالمساعدة	-10.7239
ابر	-11.3764
▁كلمات	-10.9300
▁رأت	-10.9816
▁mobility	-10.8295
▁obtaining	-10.7522
▁يدل	-10.7867
▁القريب	-10.7112
كير	-12.0030
▁mobile	-11.0973
▁التكنولوجية	-10.7919
▁الانخفاض	-10.8672
▁بمركز	-10.8209
▁لغة	-10.8429
▁progressive	-10.7738
هيب	-11.3510
▁sentences	-10.9638
▁والنهوض	-10.6670
▁للص	-11.3771
تحد	-12.0587
▁المص	-11.3752
▁مول	-11.6713
3).	-11.0476
▁والالتزامات	-10.6572
▁Order	-10.8718
▁disappearance	-11.1100
▁prosecutors	-10.9672
زية	-11.3485
▁اقول	-12.8660
▁الأمثلة	-10.7111
str	-12.2626
▁Establishment	-10.9260
▁ابي	-11.2655
▁الكلية	-11.0955
▁٣٥	-12.0234
▁محدود	-10.7303
▁apartment	-12.6911
▁emergencies	-10.8488
▁reserves	-11.0780
▁اش	-11.4526
▁المشر	-12.0126
▁نظمت	-10.7815
تولى	-11.3836
▁branch	-10.7504
▁يترك	-11.2765
▁التعيين	-10.6905
▁أطول	-11.2180
▁والمياه	-10.7478
▁الفيروس	-10.7173
▁بلادي	-10.4482
how	-11.3641
ö	-11.7423
▁موجزة	-10.7139
▁تبت	-11.1042
▁يعيد	-10.9630
▁chain	-11.1875
▁impose	-10.7491
▁وتمويل	-10.7313
▁Turn	-13.3863
▁enhancement	-10.7380
▁التعجيل	-10.7706
▁أخبار	-12.4208
▁USD	-10.6072
▁الوظيفي	-10.8299
▁باللغات	-10.2178
▁nutrition	-10.8883
كوم	-11.3219
▁cease	-10.9502
▁أحداث	-10.7361
▁supplement	-10.6852
▁شعرت	-12.1144
▁قدراتها	-10.7261
▁شخصيا	-11.0371
▁ويعتبر	-10.7052
طلاق	-11.8534
▁willingness	-10.7109
▁Luc	-12.8254
▁restore	-10.7456
▁كلام	-11.8042
▁breath	-12.9076
▁رحلة	-12.0020
▁authorization	-10.7927
▁closure	-10.8776
▁وتع	-11.1491
نفذ	-10.8893
▁Life	-11.1113
▁capability	-10.8194
▁cat	-13.0701
▁Round	-10.9939
▁روسيا	-10.9443
▁consistently	-10.7692
ern	-11.6023
▁complementary	-10.7028
▁برنامجا	-10.8938
▁المدفوعات	-10.7819
▁تقتضي	-10.6576
▁الأونروا	-10.8722
▁العاشر	-10.8533
▁المعد	-10.8548
▁ينتظر	-11.2393
▁تسع	-11.0824
▁للغابات	-10.7377
▁ثمن	-11.5332
معاملة	-10.7772
▁Institutions	-10.7006
▁ninth	-10.8339
▁الناجم	-10.7089
▁Source	-10.5700
▁firms	-10.9267
▁hotel	-12.4169
▁urgency	-10.6789
▁massive	-10.9872
▁Syria	-10.7703
tory	-10.9888
▁questionnaire	-10.5717
board	-11.8913
▁قي	-10.9583
[...]
