</s>	0.0000
<unk>	0.0000
.	-3.1740
▁the	-2.9173
>>ara<<	-100.0000
,	-3.1780
▁of	-3.3785
،	-3.5737
▁and	-3.6708
▁to	-3.7586
▁في	-3.7325
▁in	-4.1608
▁من	-4.0862
▁(	-4.9105
▁-	-4.7268
▁a	-4.4953
'	-4.4405
▁على	-4.5765
s	-4.5381
▁for	-4.7565
▁that	-4.7723
▁أن	-4.7108
-	-4.9135
▁on	-4.8573
▁I	-4.7532
)	-5.3250
ً	-4.8542
▁إلى	-4.9503
▁و	-4.9902
/	-5.3756
▁you	-5.0549
▁The	-5.2028
?	-5.1324
▁is	-5.2564
▁with	-5.3228
ة	-5.2309
▁"	-5.6959
ا	-5.1270
ه	-5.1677
▁by	-5.4236
▁be	-5.3987
▁التي	-5.3970
▁as	-5.5387
▁عن	-5.4410
▁it	-5.4761
▁لا	-5.4188
ُ	-5.4741
ي	-5.3881
ّ	-5.5098
ها	-5.4836
:	-6.3202
؟	-5.4914
▁هذا	-5.5701
▁was	-5.6844
▁المتحدة	-5.7101
t	-5.7004
▁are	-5.8100
▁ما	-5.7541
▁ذلك	-5.7791
▁أو	-5.8136
▁at	-5.8983
▁its	-5.9312
َ	-5.7380
▁have	-5.8814
▁this	-5.9192
!	-6.1450
▁not	-5.9344
▁United	-5.9870
;	-5.9769
▁from	-5.9983
▁الأمم	-5.9888
▁هذه	-5.9633
▁or	-6.0613
؛	-6.0085
ات	-6.0851
▁مع	-6.0048
...	-6.3799
ـ	-5.9690
▁Nations	-6.1415
▁	-6.2688
ين	-6.0574
▁all	-6.1372
▁an	-6.1809
▁.	-6.2360
▁ل	-6.0553
▁ب	-6.0907
ِ	-6.0755
▁الذي	-6.1683
▁which	-6.2800
ت	-6.0863
▁their	-6.3015
▁اللجنة	-6.2416
▁You	-6.2210
ك	-6.0725
▁Committee	-6.3657
▁has	-6.3591
m	-6.2391
▁A	-6.6088
▁It	-6.3218
▁In	-6.4289
▁،	-6.2513
▁لم	-6.2926
▁me	-6.2918
▁'	-6.5758
▁will	-6.4113
▁been	-6.4283
▁had	-6.4511
▁بين	-6.3917
▁States	-6.4836
▁غير	-6.3861
▁وفي	-6.4465
▁we	-6.3857
▁ي	-6.3634
▁بشأن	-6.4485
▁العامة	-6.4561
▁were	-6.5169
▁international	-6.5616
▁؟	-6.3589
ن	-6.2871
ون	-6.4280
re	-6.4273
▁ت	-6.4742
م	-6.3768
▁should	-6.6096
▁also	-6.6289
▁would	-6.6016
▁other	-6.6115
ية	-6.5694
▁can	-6.5817
▁العام	-6.6033
نا	-6.5132
▁كان	-6.5343
▁ال	-6.5716
ب	-6.5436
▁م	-6.5906
▁كل	-6.5630
▁Council	-6.7339
▁my	-6.6189
هم	-6.5516
ing	-6.7100
▁s	-6.7825
د	-6.5933
▁development	-6.7662
▁)	-6.6939
▁do	-6.6620
▁هو	-6.6307
▁1	-7.2866
▁your	-6.6440
▁out	-6.7010
▁عام	-6.6970
▁وال	-6.7783
▁أيضا	-6.7077
▁rights	-6.8117
▁countries	-6.8020
▁الدولية	-6.7423
▁he	-6.7110
▁الإنسان	-6.7462
▁الدول	-6.7327
).	-7.4624
وا	-6.7358
d	-6.8038
▁We	-6.7422
▁know	-6.6932
▁العمل	-6.7545
▁report	-6.8342
▁أ	-6.6701
▁الدولي	-6.7657
▁أي	-6.7076
▁أجل	-6.7516
▁إن	-6.7144
▁they	-6.8264
▁one	-6.8155
▁قد	-6.7770
▁جميع	-6.8168
▁right	-6.8138
▁أنا	-6.7444
(	-6.7787
▁under	-6.9352
▁resolution	-6.9322
▁what	-6.8284
ــ	-6.8048
▁بما	-6.8767
A	-7.4810
▁هل	-6.7449
▁work	-6.9269
▁about	-6.8748
▁there	-6.9778
▁What	-6.8398
▁حقوق	-6.9100
▁such	-6.9710
▁يا	-6.8021
▁الأول	-6.8993
▁human	-6.9898
▁الم	-7.0121
▁including	-6.9924
▁Assembly	-7.0024
▁General	-7.0025
▁البلدان	-6.9292
▁his	-6.9555
▁women	-7.0201
ل	-6.7440
▁up	-6.9224
▁لل	-6.9743
▁but	-6.9551
▁لقد	-6.8372
▁أنه	-6.9691
▁بال	-6.9647
"	-6.9129
▁no	-6.9744
▁so	-6.9797
▁3	-7.5743
ر	-6.8522
▁more	-7.0543
▁2	-7.4723
▁information	-7.0965
▁support	-7.0876
▁just	-6.9759
General	-7.0986
▁like	-7.0001
أ	-7.0197
▁session	-7.1113
▁كما	-7.0173
▁national	-7.1097
ْ	-6.9469
▁وقد	-7.0463
▁don	-6.9974
▁خلال	-7.0499
▁State	-7.1306
a	-7.2060
▁made	-7.1314
▁No	-7.0586
▁Secretary	-7.1508
▁And	-7.0213
▁into	-7.1319
▁الجمعية	-7.0883
▁فيما	-7.1047
▁,	-6.9610
▁He	-7.0702
▁those	-7.1521
ان	-7.0680
▁who	-7.1223
▁بعد	-7.0616
▁بها	-7.1198
▁بأن	-7.0707
ى	-7.0480
▁them	-7.2837
▁المتعلقة	-7.1553
▁يمكن	-7.0954
▁implementation	-7.2172
▁need	-7.1421
▁time	-7.1461
▁Convention	-7.2179
▁if	-7.1439
▁أنت	-7.0361
▁الأمن	-7.1490
▁This	-7.1809
▁ان	-7.0487
▁well	-7.2181
▁هي	-7.1088
▁here	-7.1194
▁تلك	-7.1387
ll	-7.1155
▁هناك	-7.0960
▁any	-7.2184
▁مجلس	-7.1823
▁Government	-7.2581
▁her	-7.1583
▁إذا	-7.1234
▁الأمين	-7.1895
▁Commission	-7.2770
▁4	-7.7354
▁him	-7.1633
▁هنا	-7.0786
▁International	-7.2879
▁الأطراف	-7.2228
▁activities	-7.2924
▁المجلس	-7.2205
▁through	-7.2763
▁could	-7.2513
▁against	-7.2926
ج	-7.1630
▁ن	-7.1820
▁فيها	-7.3781
▁المادة	-7.2425
),	-7.5788
▁5	-7.7910
▁Mr	-7.2793
C	-7.9104
ال	-7.2249
▁تنفيذ	-7.2483
▁حسنا	-7.1230
▁“	-7.5420
و	-7.0823
ed	-7.3049
▁some	-7.2855
▁الثاني	-7.2675
▁between	-7.3501
▁الوطنية	-7.2938
▁ولا	-7.2569
▁That	-7.2438
▁أخرى	-7.2616
▁take	-7.2938
▁get	-7.2210
▁ومن	-7.2834
▁ماذا	-7.1679
▁meeting	-7.3648
َّ	-7.3068
▁كانت	-7.2554
▁people	-7.3245
▁الآن	-7.2241
▁our	-7.3259
▁يتعلق	-7.3168
▁new	-7.3548
▁law	-7.3827
▁ذات	-7.3095
▁these	-7.3676
▁القرار	-7.3162
▁مشروع	-7.3170
▁10	-8.0032
e	-7.4395
▁بعض	-7.3018
▁6	-7.9442
▁عمل	-7.3303
▁per	-7.4535
▁ف	-7.3167
▁system	-7.4309
▁القانون	-7.3757
▁country	-7.4533
▁Security	-7.4611
▁two	-7.4203
▁المعلومات	-7.3978
▁go	-7.3299
▁كانون	-7.3948
▁measures	-7.4752
▁به	-7.3547
)،	-7.5737
▁...	-7.4754
▁organizations	-7.4816
▁Conference	-7.4633
▁قبل	-7.3578
b	-7.5603
▁only	-7.4451
▁[	-7.9824
▁security	-7.4898
ve	-7.3988
▁over	-7.4381
▁مجال	-7.4216
▁تقرير	-7.3947
▁now	-7.4101
▁Republic	-7.4260
▁الفقرة	-7.4397
▁يكون	-7.3859
▁السلام	-7.4383
▁cooperation	-7.5131
▁التنمية	-7.4424
▁ينبغي	-7.4305
▁may	-7.5044
▁draft	-7.5203
▁الأعمال	-7.4533
▁إطار	-7.4589
▁when	-7.4607
▁ليس	-7.3500
▁children	-7.5343
ني	-7.3505
▁7	-8.0344
▁efforts	-7.5440
▁الخاص	-7.4564
▁المائة	-7.4906
L	-8.1638
▁15	-8.1592
▁than	-7.5249
▁لي	-7.4062
▁دولار	-7.4593
▁تعزيز	-7.5032
▁حتى	-7.4236
▁الدولة	-7.5159
▁لجنة	-7.4908
▁programme	-7.5543
S	-7.9772
▁الخاصة	-7.4971
▁وي	-7.5656
▁السيد	-7.4576
▁برنامج	-7.4915
▁resources	-7.5806
ما	-7.5029
▁يجب	-7.4275
▁Development	-7.5871
▁المرأة	-7.5222
▁فإن	-7.4946
▁non	-7.5931
c	-7.7707
▁Rights	-7.6040
▁كنت	-7.3936
▁الى	-7.4315
▁عليها	-7.5184
▁الأعضاء	-7.5382
▁فقط	-7.4270
▁she	-7.4913
▁لن	-7.4386
▁أكثر	-7.4988
▁make	-7.5398
▁number	-7.5912
▁ك	-7.4748
ع	-7.3885
▁8	-8.1173
▁did	-7.5323
▁want	-7.4793
▁Oh	-7.4908
▁مثل	-7.4924
▁use	-7.5996
▁got	-7.4956
▁order	-7.6201
▁must	-7.6118
▁Yeah	-7.4988
▁عدد	-7.5634
▁assistance	-7.6482
▁تقديم	-7.5856
▁regional	-7.6548
▁But	-7.5292
▁وأن	-7.5649
▁first	-7.6326
▁cent	-7.6713
▁وت	-7.5953
▁think	-7.5285
▁paragraph	-7.6631
▁years	-7.6425
▁Group	-7.6767
▁عملية	-7.6024
▁economic	-7.6758
▁process	-7.6775
▁issues	-7.6895
▁30	-8.3122
▁الأخرى	-7.6007
▁جدول	-7.6086
▁التعاون	-7.6115
▁12	-8.3215
▁ensure	-7.6689
▁provide	-7.6764
▁تكون	-7.5729
▁where	-7.6481
▁20	-8.3124
▁وضع	-7.6086
▁members	-7.7067
▁financial	-7.7030
▁further	-7.7066
▁us	-7.6066
▁So	-7.5914
▁Human	-7.7177
▁9	-8.2290
▁الذين	-7.6292
▁شيء	-7.5203
▁article	-7.7145
▁said	-7.6604
▁تشرين	-7.6521
▁ا	-7.5774
▁social	-7.7290
▁Special	-7.7282
▁المعنية	-7.6790
▁see	-7.6096
▁نعم	-7.5303
▁services	-7.7439
▁الدورة	-7.6754
▁عدم	-7.6800
▁They	-7.6675
▁الموارد	-7.6834
▁good	-7.6462
▁المساعدة	-7.6895
▁لكن	-7.5498
▁عليه	-7.6262
▁الوقت	-7.6347
▁shall	-7.7531
▁particular	-7.7594
▁الفريق	-7.6875
▁S	-8.0420
▁being	-7.7427
▁سي	-7.6525
▁التقرير	-7.7041
ف	-7.6113
▁decision	-7.7623
▁party	-7.7674
▁within	-7.7806
▁18	-8.4271
▁Office	-7.7791
]	-8.1700
ق	-7.5884
▁way	-7.6870
▁developing	-7.7846
▁الاقتصادية	-7.7187
▁provided	-7.7942
▁لها	-7.7123
▁programmes	-7.8105
▁الأطفال	-7.7354
▁11	-8.4356
▁relevant	-7.8148
▁14	-8.3786
▁ضد	-7.7402
▁لك	-7.5937
▁المعني	-7.7485
▁!	-7.7826
▁December	-7.8040
▁دون	-7.7414
▁how	-7.7373
▁الاتفاقية	-7.7661
▁back	-7.7095
▁before	-7.7874
▁Well	-7.7069
ز	-7.7493
▁منها	-7.9378
▁There	-7.7934
▁تم	-7.7481
▁gonna	-7.7069
▁public	-7.8401
▁كذلك	-7.7089
▁adopted	-7.8618
▁ولكن	-7.6774
▁الأمر	-7.6974
▁نحو	-7.7819
▁period	-7.8426
▁العالمي	-7.7841
▁during	-7.8512
س	-7.6155
▁areas	-7.8667
ly	-7.8003
▁الصلة	-7.7989
▁peace	-7.8632
▁At	-7.8800
▁world	-7.8384
▁staff	-7.8671
▁management	-7.8677
▁held	-7.8739
▁عندما	-7.7139
▁إنه	-7.7181
▁الحكومية	-7.8101
▁As	-7.9128
▁المالية	-7.8254
▁level	-7.8737
▁13	-8.5033
▁16	-8.5144
▁going	-7.7657
▁المجتمع	-7.8205
▁وفقا	-7.8263
▁President	-7.8772
ِّ	-7.8560
▁رئيس	-7.7921
▁إدارة	-7.8434
▁She	-7.7943
▁health	-7.9089
▁19	-8.5275
▁situation	-7.8934
▁ست	-7.8041
▁الأساسية	-7.8443
▁الفترة	-7.8553
▁طريق	-7.8078
▁taken	-7.9175
▁persons	-7.9330
▁political	-7.9222
▁regard	-7.9157
▁part	-7.9035
▁بموجب	-7.8570
):	-8.3024
▁مكتب	-7.8535
▁action	-7.9269
▁parties	-7.9278
▁العالمية	-7.8851
▁والم	-8.0708
▁فيه	-8.2213
▁All	-7.8589
▁وإذ	-7.8608
▁»	-7.7356
▁17	-8.5708
ديسمبر	-7.8634
▁«	-7.7381
▁review	-7.9322
▁الحكومة	-7.8750
▁following	-7.9520
▁حيث	-7.8543
▁منذ	-7.8463
▁النامية	-7.8775
▁legal	-7.9587
▁protection	-7.9554
▁community	-7.9616
▁most	-7.9365
▁both	-7.9437
▁بشكل	-7.8692
▁education	-7.9721
▁Programme	-7.9576
▁continue	-7.9524
▁Organization	-7.9583
▁تحقيق	-7.8794
▁وعلى	-7.8979
▁important	-7.9714
▁To	-7.9379
▁البند	-7.9106
▁same	-7.9501
▁special	-7.9814
▁accordance	-7.9838
▁respect	-7.9653
▁حالة	-7.9039
▁بناء	-7.9144
▁لدى	-7.9015
▁الطرف	-7.9324
▁agenda	-7.9796
▁أفريقيا	-7.9254
▁many	-7.9717
▁training	-7.9932
▁وم	-8.0541
▁النظر	-7.9222
▁سوف	-7.8285
▁الأسلحة	-7.9352
▁policy	-8.0146
▁among	-8.0104
▁31	-8.6518
▁وهو	-7.9165
E	-8.4796
▁year	-7.9867
▁capacity	-8.0181
▁E	-8.2929
▁recommendations	-8.0392
▁very	-7.9638
▁له	-7.9207
▁الاقتصادي	-7.9504
▁If	-7.9370
▁الرئيس	-7.9274
▁Member	-8.0317
▁منظمة	-7.9632
▁place	-7.9840
▁أعمال	-7.9477
▁الدعم	-7.9855
▁three	-8.0086
▁نظام	-7.9586
▁Africa	-8.0302
▁effective	-8.0469
▁after	-8.0010
▁مؤتمر	-7.9778
▁جدا	-7.8741
▁working	-8.0337
▁reports	-8.0929
▁جمهورية	-7.9827
لا	-7.8562
▁وأ	-7.9800
▁come	-7.9284
▁كيف	-7.8520
▁المؤرخ	-7.9528
▁C	-8.2376
▁أحد	-7.9128
▁established	-8.0736
▁العالم	-7.9573
تي	-7.9876
▁21	-8.6292
▁عمليات	-8.0000
▁البرنامج	-7.9842
▁زيادة	-8.0123
y	-8.1081
▁role	-8.0626
▁وهي	-7.9945
▁access	-8.0734
th	-8.1125
▁الإقليمية	-8.0285
▁المحكمة	-8.0175
▁..	-7.9957
▁because	-8.0325
er	-8.2166
ته	-8.0443
▁life	-8.0294
▁without	-8.0704
▁25	-8.6802
▁then	-8.0155
▁view	-8.0981
▁progress	-8.1090
▁الاتحاد	-8.0274
▁present	-8.0882
▁22	-8.6797
▁آخر	-7.9644
al	-8.3186
▁المنظمات	-8.0363
▁related	-8.1135
▁down	-8.0045
▁case	-8.0823
▁P	-8.2463
▁النظام	-8.0388
▁سيما	-8.0607
▁بالنسبة	-8.0220
▁June	-8.1144
▁World	-8.1234
▁full	-8.1190
▁قرار	-8.0195
تها	-8.0849
▁set	-8.0969
▁إلا	-8.0184
▁أنها	-8.1501
▁المقرر	-8.0550
▁help	-8.0514
▁Parties	-8.1510
▁say	-8.0051
كم	-7.9250
▁nuclear	-8.1328
▁How	-8.0220
▁item	-8.1347
▁For	-8.1098
▁وذلك	-8.0705
▁الإدارة	-8.0739
▁since	-8.1301
▁البشرية	-8.0810
ـــ	-8.0249
i	-8.2281
▁ع	-8.0336
▁الرئيسية	-8.0900
▁الخدمات	-8.0925
▁appropriate	-8.1496
▁possible	-8.1497
▁حزيران	-8.0997
▁still	-8.0975
▁لحقوق	-8.1042
▁وقت	-8.0193
▁necessary	-8.1662
▁نحن	-7.9663
▁23	-8.7410
▁Economic	-8.1698
▁العامل	-8.0898
▁الوطني	-8.0868
▁المؤتمر	-8.0933
▁violence	-8.1719
ح	-8.0189
▁Hey	-8.0340
▁even	-8.0894
▁Okay	-8.0373
▁التدابير	-8.1103
▁استخدام	-8.0958
▁المنظمة	-8.1065
تين	-8.1812
▁Board	-8.1773
▁global	-8.1707
▁Social	-8.1789
▁technical	-8.1690
▁man	-8.0604
▁basis	-8.1785
يا	-8.0646
▁end	-8.1392
▁budget	-8.1748
▁الولايات	-8.1097
▁وما	-8.1142
▁معلومات	-8.1237
▁gender	-8.2040
يونيه	-8.1314
▁million	-8.1609
▁النووية	-8.1251
اء	-8.1528
▁African	-8.1939
▁لو	-8.0343
▁أعضاء	-8.1237
▁الأنشطة	-8.1289
▁اتفاقية	-8.1448
▁ثم	-8.0539
▁الإنمائية	-8.1510
▁24	-8.7733
▁On	-8.1993
▁المسائل	-8.1451
”	-8.3197
▁institutions	-8.2172
▁used	-8.1854
▁نطاق	-8.1424
▁needs	-8.2391
▁while	-8.1927
▁الاجتماعية	-8.1708
▁long	-8.1776
▁each	-8.2124
▁meetings	-8.2602
▁لعام	-8.1715
▁شخص	-8.0790
▁provisions	-8.2471
▁إجراء	-8.1687
▁عند	-8.1466
▁اليوم	-8.0912
▁cases	-8.2601
▁account	-8.2396
▁أساس	-8.1514
▁النساء	-8.1821
▁B	-8.3679
▁إنشاء	-8.1832
▁general	-8.2546
▁consideration	-8.2522
▁July	-8.2461
▁groups	-8.2658
▁رقم	-8.1710
▁وجود	-8.1763
▁انا	-8.0834
▁didn	-8.1179
▁مما	-8.1733
▁too	-8.1654
▁give	-8.1814
▁الأمانة	-8.1972
▁upon	-8.2430
▁National	-8.2710
▁مجموعة	-8.1869
▁28	-8.8622
▁السلاح	-8.1873
▁خاصة	-8.1860
▁تدابير	-8.2098
▁really	-8.1446
▁للأمم	-8.1973
▁تقدم	-8.1910
▁قانون	-8.1905
▁الميزانية	-8.2053
▁high	-8.2630
▁المحلية	-8.2151
▁policies	-8.2817
▁الجهود	-8.2142
▁something	-8.1508
▁تموز	-8.2221
▁::	-8.7889
▁2005	-8.8649
▁الموظفين	-8.2315
▁الواردة	-8.2217
▁جانب	-8.1952
▁New	-8.2309
▁concerned	-8.2951
▁Yes	-8.1584
▁أنشطة	-8.2303
▁لأن	-8.1548
▁area	-8.2813
▁much	-8.2112
▁للجنة	-8.2320
▁Working	-8.3136
▁include	-8.2953
▁delegation	-8.3067
▁بصورة	-8.2257
▁May	-8.2854
يوليه	-8.2469
▁التعليم	-8.2452
▁القائمة	-8.2461
▁local	-8.3188
▁data	-8.3129
▁وينبغي	-8.2521
▁الأشخاص	-8.2664
▁issue	-8.3200
ٍ	-8.1739
▁trade	-8.3209
▁العنف	-8.2772
▁26	-8.8882
I	-8.4291
▁available	-8.3267
▁27	-8.9195
▁Why	-8.2021
▁tell	-8.1850
▁child	-8.3139
▁حكومة	-8.2565
▁والتنمية	-8.2455
▁region	-8.3325
▁دعم	-8.2638
▁does	-8.2898
▁proposed	-8.3393
▁خدمات	-8.2819
▁Court	-8.3335
▁يوم	-8.2045
▁فقد	-8.2362
▁considered	-8.3474
▁plan	-8.3165
▁واحد	-8.1877
▁إ	-8.2675
▁off	-8.2547
▁أفضل	-8.2274
▁little	-8.2302
▁never	-8.2325
▁الأولى	-8.2651
▁Secretariat	-8.3575
▁حالات	-8.2915
▁”	-8.7356
▁group	-8.3496
▁إليها	-8.2839
▁اتخاذ	-8.2808
▁increase	-8.3493
▁humanitarian	-8.3592
▁family	-8.3216
▁الجديدة	-8.2714
▁mean	-8.2155
▁D	-8.4544
▁البيانات	-8.3139
▁submitted	-8.3642
▁European	-8.3574
Add	-8.8102
▁based	-8.3646
▁framework	-8.3606
▁September	-8.3706
▁last	-8.2996
▁التمييز	-8.3163
▁noted	-8.3817
▁importance	-8.3730
▁Fund	-8.3659
▁المنطقة	-8.2941
▁المرفق	-8.2807
g	-8.5774
▁القانونية	-8.3100
▁particularly	-8.3825
▁2000	-8.8996
▁الحصول	-8.2870
▁bodies	-8.3792
▁My	-8.2827
▁بل	-8.2671
▁الساعة	-8.3029
▁الحق	-8.2919
▁November	-8.3723
▁وب	-8.3623
▁أهمية	-8.3157
▁means	-8.3699
▁:	-8.4129
▁better	-8.3128
▁المستدامة	-8.3202
▁Women	-8.3983
▁October	-8.3905
▁فريق	-8.3005
▁مليون	-8.3025
▁resolutions	-8.4429
▁توفير	-8.3280
▁الصدد	-8.3329
▁تقوم	-8.2980
▁وكذلك	-8.3265
▁God	-8.2989
▁فى	-8.1971
▁conflict	-8.3877
▁أيلول	-8.3206
▁address	-8.4006
▁لماذا	-8.2042
▁day	-8.3059
▁future	-8.3906
▁society	-8.4060
▁بسبب	-8.3035
▁بلدان	-8.3248
▁المتصلة	-8.3304
▁29	-8.9830
▁Action	-8.3988
▁البعثة	-8.3443
▁promote	-8.4015
▁developed	-8.4064
or	-8.5948
▁field	-8.3892
in	-8.5714
▁Come	-8.2583
مارس	-8.3435
▁document	-8.3951
▁Let	-8.2898
▁own	-8.3488
▁military	-8.3992
▁--	-8.6739
▁note	-8.4084
▁am	-8.3996
▁2006	-8.9474
▁participation	-8.4219
▁بذلك	-8.2892
▁للم	-8.5484
▁let	-8.2908
▁doing	-8.3149
▁السياسات	-8.3651
▁might	-8.3590
▁2002	-8.9572
▁2004	-8.9538
▁أثناء	-8.3525
▁specific	-8.4337
▁required	-8.4214
▁look	-8.3004
▁الجلسة	-8.3475
سبتمبر	-8.3454
▁الفرعية	-8.3507
▁Union	-8.4207
▁جديدة	-8.3444
▁إعادة	-8.3504
في	-8.3484
▁Article	-8.4364
▁الت	-8.5013
نوفمبر	-8.3570
▁الثانية	-8.3664
▁Department	-8.4431
▁call	-8.3398
▁sustainable	-8.4344
▁انه	-8.2492
▁اللازمة	-8.3692
▁weapons	-8.4484
▁levels	-8.4683
▁agencies	-8.4487
▁فترة	-8.3661
.1	-9.0495
▁السياسية	-8.3827
▁يلي	-8.3829
▁الإجراءات	-8.3895
▁المواد	-8.3955
▁poverty	-8.4581
▁منطقة	-8.3709
▁Mission	-8.4382
▁2003	-8.9812
▁police	-8.4306
▁control	-8.4319
▁question	-8.4097
▁current	-8.4474
▁Do	-8.3450
▁الديمقراطية	-8.3860
▁Governments	-8.4879
▁care	-8.3906
▁sector	-8.4475
▁المتعلق	-8.3910
▁الإنمائي	-8.3801
up	-8.4720
▁سن	-8.3129
▁البلد	-8.3789
▁given	-8.4451
ض	-8.4209
▁المستوى	-8.3939
▁حول	-8.3211
▁مسألة	-8.3760
▁requested	-8.4626
▁الإنسانية	-8.4029
▁operations	-8.4635
▁requirements	-8.4670
▁various	-8.4687
▁الشرطة	-8.3793
▁السكان	-8.3831
▁التجارة	-8.3988
▁دورتها	-8.3831
▁find	-8.3487
▁March	-8.4649
تك	-8.3573
▁س	-8.1772
▁مرة	-8.3291
▁علي	-8.2669
▁حفظ	-8.4031
▁authorities	-8.4756
▁project	-8.4689
▁الحالة	-8.4028
▁change	-8.4367
▁second	-8.4401
▁تحت	-8.3684
▁Declaration	-8.4897
▁ومع	-8.4314
▁المكتب	-8.4121
أكتوبر	-8.4220
▁انت	-8.3110
▁2007	-9.0160
▁المناطق	-8.4376
▁Law	-8.4758
▁حد	-8.3791
▁جديد	-8.3818
▁civil	-8.4960
▁تحسين	-8.4309
▁context	-8.4862
▁ق	-8.3836
▁—	-8.6764
▁contained	-8.5015
▁p	-8.5632
▁الفقر	-8.4185
▁put	-8.4036
▁التالية	-8.4271
▁كبير	-8.3773
▁ربما	-8.3062
▁إنها	-8.3368
▁additional	-8.5087
▁why	-8.3774
▁الله	-8.2774
▁Report	-8.5160
▁attention	-8.5039
▁2008	-9.0705
▁addition	-8.5080
o	-8.6828
▁مكافحة	-8.4302
▁الاجتماع	-8.4293
▁يتم	-8.4059
▁2001	-9.0313
▁واحدة	-8.3768
▁آذار	-8.4366
▁المشتركة	-8.4494
▁عقد	-8.4180
▁representatives	-8.5278
▁برامج	-8.4428
▁الطفل	-8.4367
▁agreed	-8.5174
▁Rapporteur	-8.5220
▁الأهداف	-8.4602
▁April	-8.5129
▁تحديد	-8.4378
▁الرسمية	-8.4472
▁South	-8.4861
▁above	-8.5248
▁representative	-8.5243
▁However	-8.5319
▁population	-8.4964
▁التابعة	-8.4597
▁taking	-8.4995
▁السابقة	-8.4495
▁again	-8.4412
▁حق	-8.3967
▁With	-8.4985
▁towards	-8.5183
▁سنة	-8.4317
▁خطة	-8.4661
▁Protocol	-8.5262
▁High	-8.5290
▁mandate	-8.5192
▁مستوى	-8.4626
▁Don	-8.4015
▁concern	-8.5302
▁داخل	-8.4374
▁ـ	-8.3625
▁أيار	-8.4754
هما	-8.4707
▁thing	-8.4003
▁conditions	-8.5480
▁العملية	-8.4850
▁عليك	-8.3363
▁concerning	-8.5490
▁لذلك	-8.4290
▁major	-8.5524
▁request	-8.5371
▁men	-8.5293
▁continued	-8.5624
▁الإرهاب	-8.4653
ث	-8.4560
▁already	-8.5045
▁المقدمة	-8.4957
▁Affairs	-8.5669
▁نيسان	-8.4992
2	-9.0574
▁حقا	-8.3785
▁different	-8.5360
▁called	-8.5148
▁قال	-8.4190
▁حماية	-8.5042
▁approach	-8.5773
▁طلب	-8.4634
▁statement	-8.5628
es	-8.7048
);	-8.5848
▁ألف	-8.4643
CN	-9.2039
▁force	-8.5534
▁شكرا	-8.3665
▁member	-8.5712
▁private	-8.5786
▁establishment	-8.5722
▁consider	-8.5635
▁سأ	-8.3946
▁الوثيقة	-8.5018
▁status	-8.5743
▁projects	-8.5970
▁والاجتماعية	-8.5148
▁January	-8.5817
▁rules	-8.5912
▁impact	-8.5716
▁another	-8.5352
▁person	-8.5342
▁لهذا	-8.4662
▁المشروع	-8.5060
▁organization	-8.5695
▁إجراءات	-8.5355
▁together	-8.5427
▁الأوروبي	-8.5091
▁relating	-8.5885
مايو	-8.5255
ٌ	-8.3989
▁fact	-8.5670
▁يبدو	-8.4183
▁♪	-8.8048
▁سنوات	-8.4867
▁إليه	-8.4908
▁دولة	-8.5237
▁سبيل	-8.5164
▁every	-8.5383
▁done	-8.5255
▁الحكومات	-8.5199
▁مركز	-8.5087
’	-8.5981
▁whether	-8.5976
▁ولم	-8.5029
▁best	-8.5535
▁found	-8.5422
▁وهذا	-8.4699
▁total	-8.6068
▁ألا	-8.4833
▁inter	-8.6061
▁كبيرة	-8.5143
▁okay	-8.4787
▁Now	-8.4796
▁II	-8.6360
▁البرامج	-8.5283
▁great	-8.5412
f	-8.8116
▁Palestinian	-8.6094
▁أعرف	-8.3971
▁أقل	-8.5267
▁took	-8.5751
انظر	-8.5429
▁الصحة	-8.5616
▁لت	-8.6181
▁addressed	-8.6200
▁أنك	-8.5072
see	-8.6255
▁justice	-8.6146
▁والمنظمات	-8.5615
▁الناس	-8.4585
▁love	-8.4864
▁received	-8.6305
▁القيام	-8.5231
ط	-8.5038
▁خاص	-8.5253
أبريل	-8.5713
▁أريد	-8.4318
▁والتي	-8.5527
▁entitled	-8.6409
▁50	-9.1919
▁provision	-8.6164
▁These	-8.6175
▁أكبر	-8.5416
▁comprehensive	-8.6402
▁لما	-8.5840
▁المؤسسات	-8.5652
▁استعراض	-8.5727
▁discrimination	-8.6407
▁نزع	-8.5633
يناير	-8.5803
▁therefore	-8.6550
▁water	-8.5956
▁أمر	-8.5068
▁annex	-8.6380
▁around	-8.5662
▁result	-8.6340
▁expressed	-8.6479
▁المساواة	-8.5929
▁التقارير	-8.5923
▁ه	-8.4787
▁coordination	-8.6464
▁responsibility	-8.6465
▁legislation	-8.6569
▁الاستشارية	-8.5835
▁home	-8.5383
▁الصعيد	-8.5879
▁costs	-8.6638
▁especially	-8.6451
▁personnel	-8.6533
▁monitoring	-8.6687
▁matter	-8.6078
▁الصغيرة	-8.5750
▁الجنائية	-8.6050
▁منع	-8.6468
▁الإقليمي	-8.6052
▁وكان	-8.5766
▁principles	-8.6760
▁العربية	-8.5986
▁لمكافحة	-8.5973
▁بهذا	-8.5168
▁fully	-8.6651
▁أين	-8.4788
▁إزاء	-8.6116
▁small	-8.6577
▁Where	-8.5558
n	-8.7013
▁systems	-8.7085
▁next	-8.6214
▁implement	-8.6764
▁Executive	-8.6643
▁أمام	-8.5897
▁meet	-8.6167
▁existing	-8.6774
▁strengthen	-8.6835
▁الخبراء	-8.6116
▁Arab	-8.6038
▁domestic	-8.6888
▁subject	-8.6835
▁أعتقد	-8.4822
▁القدرات	-8.6342
▁course	-8.6119
▁decided	-8.6716
▁التقدم	-8.6155
▁ليست	-8.5385
▁إعداد	-8.6156
▁القضاء	-8.6308
▁2.	-8.7523
▁reporting	-8.6911
▁believe	-8.5999
▁included	-8.7094
▁1.	-8.8258
▁procedures	-8.7125
▁technology	-8.6864
ذ	-8.6380
▁آب	-8.6322
▁لكي	-8.6068
▁least	-8.6677
▁فضلا	-8.6149
▁criminal	-8.6810
▁armed	-8.7036
▁Act	-8.6942
▁increased	-8.7035
▁المشاركة	-8.6411
▁follow	-8.6742
▁لهذه	-8.6016
▁مختلف	-8.6028
▁حسب	-8.6270
▁اعتماد	-8.6149
▁reported	-8.7100
▁mechanisms	-8.7149
▁obligations	-8.7237
▁المدني	-8.6461
▁Just	-8.5765
▁حاليا	-8.6396
▁نقص	-8.6383
▁terms	-8.7040
▁results	-8.7199
▁problem	-8.6521
▁five	-8.6823
▁يكن	-8.5654
▁عبر	-8.6237
▁environment	-8.7052
▁مكان	-8.5279
▁الأصلية	-8.6659
غ	-8.5856
ص	-8.5919
▁000	-8.7377
▁السنتين	-8.6418
▁الثالثة	-8.6377
▁إذ	-8.5931
▁بغية	-8.6439
▁Representative	-8.7094
▁rule	-8.7019
P	-9.0673
▁amount	-8.6356
▁التنفيذ	-8.6465
▁نفسه	-8.6080
▁practices	-8.7381
▁الصندوق	-8.6610
▁sorry	-8.5853
▁حين	-8.6332
▁Is	-9.2602
)؟	-8.6235
▁مواصلة	-8.6719
▁هيا	-8.5477
▁adoption	-8.7400
▁نتائج	-8.6731
▁regarding	-8.7444
▁والاجتماعي	-8.6628
رة	-8.6715
دة	-8.6966
▁ممثل	-8.6300
▁المشاريع	-8.6714
▁agreement	-8.7332
▁key	-8.7152
▁علما	-8.6782
ش	-8.5577
▁لكل	-8.6658
▁بم	-8.8311
▁دور	-8.6471
▁standards	-8.7516
▁One	-8.6901
▁لدي	-8.5234
▁F	-8.9432
▁America	-8.7090
governmental	-8.7228
▁food	-8.7188
▁الاحتياجات	-8.6952
▁١	-8.5138
▁تقييم	-8.6851
▁الن	-8.7055
▁problems	-8.7501
▁لفترة	-8.6636
▁decisions	-8.7926
▁four	-8.7150
▁كم	-8.6263
من	-8.5930
▁الحياة	-8.6456
▁August	-8.7513
▁البلاغ	-8.7155
▁رجل	-8.5522
▁consultations	-8.7755
▁صحيح	-8.5490
▁بي	-8.6100
on	-8.8541
B	-9.2203
▁الصحية	-8.7061
▁40	-9.3041
▁example	-8.7467
▁contributions	-8.7705
▁الكثير	-8.6037
▁yet	-8.7227
▁funds	-8.7779
▁de	-8.8581
▁ول	-8.6894
▁service	-8.7496
▁بعثة	-8.7081
▁منظومة	-8.7000
▁الجريمة	-8.6953
)؛	-8.7548
▁2009	-9.3757
▁المعقودة	-8.7084
▁Advisory	-8.7778
▁النحو	-8.7028
▁الحقوق	-8.7064
▁away	-8.6794
يات	-8.7615
▁mission	-8.7682
▁بالم	-8.9517
▁الرامية	-8.7154
▁Ministry	-8.7961
▁نفس	-8.6251
▁improve	-8.7827
▁سيكون	-8.6189
▁thought	-8.6572
▁risk	-8.7547
--	-9.1813
▁Iraq	-8.7762
▁response	-8.7780
▁قائمة	-8.7107
▁behalf	-8.7887
▁والأمن	-8.7118
▁sure	-8.6583
▁strengthening	-8.7916
▁اللاجئين	-8.7097
▁providing	-8.7906
▁commitment	-8.7863
▁يوجد	-8.6491
▁cost	-8.7620
▁ون	-8.7913
▁نهاية	-8.6890
▁When	-8.7103
▁Ms	-8.7911
▁victims	-8.7884
▁February	-8.7955
▁environmental	-8.8001
▁Israel	-8.7813
▁ضرورة	-8.7317
▁always	-8.7166
▁لذا	-8.6121
▁السيدة	-8.7112
▁أشكال	-8.7444
▁الداخلية	-8.7393
▁أحكام	-8.7192
▁business	-8.7585
▁things	-8.7018
▁الرجل	-8.6311
▁land	-8.7728
▁Are	-8.6911
▁يجري	-8.7046
▁وتعزيز	-8.7412
▁disarmament	-8.8167
▁recent	-8.8136
▁post	-8.7832
▁اتفاق	-8.7182
▁ويمكن	-8.7486
▁due	-8.8113
▁common	-8.8130
▁anything	-8.6907
▁الا	-8.8552
▁الحالات	-8.7417
▁عشر	-8.7167
▁2010	-9.3848
▁تنظيم	-8.7616
▁several	-8.8112
▁government	-8.7936
▁البيئة	-8.7537
."	-8.7283
r	-8.8361
▁وغيرها	-8.7557
▁challenges	-8.8262
▁Look	-8.6761
.2	-9.3597
▁ضمان	-8.7583
▁re	-8.9438
▁السلطات	-8.7616
▁شباط	-8.7689
▁كلا	-8.7191
▁peacekeeping	-8.8432
▁assessment	-8.8190
▁التدريب	-8.7663
▁مرحبا	-8.6260
▁المسألة	-8.7558
▁يمكنك	-8.6509
▁Not	-8.7441
▁indigenous	-8.8325
▁secretariat	-8.8313
▁الأمريكية	-8.7618
▁name	-8.7279
▁talk	-8.7089
▁جيد	-8.6293
▁بحقوق	-8.7778
▁today	-8.7817
▁صاحب	-8.7749
▁إعلان	-8.7427
▁عنها	-8.8669
▁لهم	-8.7308
▁office	-8.8050
أو	-8.8277
1	-9.1654
▁عدة	-8.7689
▁East	-8.8474
▁أعلم	-8.6422
▁القضايا	-8.7868
▁لتعزيز	-8.7907
▁matters	-8.8615
based	-8.8520
▁needed	-8.8394
فبراير	-8.7893
▁جنوب	-8.7734
▁terrorism	-8.8721
▁لست	-8.6495
▁develop	-8.8498
▁القطاع	-8.7798
▁المبادئ	-8.7881
▁clear	-8.8298
أغسطس	-8.7848
▁provides	-8.8951
▁serious	-8.8355
().	-8.8529
▁المدنية	-8.7949
▁Service	-8.8719
▁اجتماع	-8.7707
building	-8.8597
▁actions	-8.8901
▁3.	-8.9713
3	-9.3175
▁Permanent	-8.8596
▁whole	-8.8104
▁1999	-9.4219
D	-9.2513
▁days	-8.8447
ام	-8.7736
▁past	-8.8378
▁الجنسين	-8.8283
▁Who	-8.7450
▁money	-8.7742
▁leave	-8.7775
▁الإدارية	-8.8006
▁regular	-8.8698
▁school	-8.8116
▁significant	-8.8679
▁بخير	-8.6711
▁ever	-8.7695
▁بأنه	-8.7849
▁ضمن	-8.8018
▁أم	-8.6742
▁space	-8.8688
▁UNDP	-8.8732
▁الأساسي	-8.7939
▁having	-8.8418
▁يقوم	-8.7788
▁عامة	-8.8361
▁reform	-8.8737
▁keep	-8.7679
▁initiatives	-8.8927
▁الاجتماعات	-8.8294
▁girls	-8.8594
▁night	-8.7512
▁الشامل	-8.8188
▁until	-8.8354
▁نوع	-8.7651
▁dialogue	-8.8857
▁crime	-8.8537
▁become	-8.8543
▁حدث	-8.7158
▁سياق	-8.8267
▁تقارير	-8.8169
▁kind	-8.7752
▁prevention	-8.8870
▁open	-8.8325
▁تتعلق	-8.8212
▁أعلاه	-8.8241
▁الأخيرة	-8.8033
▁Thank	-8.7454
▁biennium	-8.8896
▁التقنية	-8.8349
▁able	-8.8635
▁العديد	-8.8028
▁يقدم	-8.8085
▁الشؤون	-8.8199
▁third	-8.8756
▁told	-8.7575
▁مشاريع	-8.8218
▁application	-8.8804
▁establish	-8.8888
▁planning	-8.8889
▁وجه	-8.7821
▁strategy	-8.9068
▁practice	-8.8805
▁محددة	-8.8282
▁documents	-8.9222
un	-9.4789
▁Chairman	-8.9099
4	-9.3563
▁lack	-8.8981
▁His	-8.8709
▁وقال	-8.8092
▁HIV	-8.9215
▁شيئا	-8.7043
▁تشمل	-8.8364
▁دول	-8.8120
▁الثالث	-8.8210
▁تعرف	-8.6979
▁الشعوب	-8.8615
▁أما	-8.8283
▁arms	-8.9126
▁الخامسة	-8.8309
▁عملا	-8.8634
▁حال	-8.7380
▁التنفيذي	-8.8351
▁date	-8.8805
▁para	-8.9252
▁الحد	-8.8415
▁مجالات	-8.8546
▁equality	-8.9282
▁peoples	-8.9659
▁خارج	-8.7726
▁باء	-8.8372
▁dated	-8.9094
▁إمكانية	-8.8574
▁promotion	-8.9229
▁missions	-8.9251
▁light	-8.8768
▁بيانات	-8.8561
▁الوثائق	-8.8177
▁لديك	-8.7162
ُّ	-8.9348
▁requests	-8.9319
▁equipment	-8.9084
▁main	-8.9254
▁المشترك	-8.8487
▁free	-8.8848
▁وإن	-8.8318
▁growth	-8.9171
▁مدى	-8.8370
▁research	-8.9206
▁forces	-8.9411
▁procedure	-8.9143
▁للفترة	-8.8768
term	-8.9255
▁يتصل	-8.8410
▁focus	-8.9230
▁صندوق	-8.8378
▁While	-8.9263
▁العراق	-8.8131
▁ح	-8.7485
▁however	-8.9297
▁الإعلام	-8.8650
▁عنه	-8.9396
▁تمويل	-8.8428
▁acts	-8.9403
▁رسالة	-8.8375
▁list	-8.9072
▁administrative	-8.9403
▁wish	-8.9010
▁تماما	-8.7852
▁المؤقت	-8.8545
▁الاتجار	-8.8833
▁الأراضي	-8.8643
▁لتنفيذ	-8.8665
▁وإلى	-8.8653
▁الفصل	-8.8453
▁involved	-8.9281
▁الجزء	-8.8564
▁وزارة	-8.8721
▁violations	-8.9436
▁Covenant	-8.9282
▁عشرة	-8.8647
▁point	-8.8762
تنا	-8.8558
▁المناعة	-8.8726
▁priority	-8.9355
▁وغير	-8.8513
هن	-8.9217
▁الحالية	-8.8639
▁body	-8.8916
▁القرارات	-8.8814
▁Commissioner	-8.9410
▁التجارية	-8.8783
▁trafficking	-8.9459
▁انها	-8.7863
▁certain	-8.9261
▁prevent	-8.9432
▁far	-8.8977
▁مساعدة	-8.8604
▁real	-8.8693
▁bring	-8.8807
خ	-8.8174
▁Director	-8.9366
▁making	-8.9043
▁Information	-8.9418
▁بك	-8.7672
▁تريد	-8.7532
▁بالفعل	-8.8296
▁living	-8.9297
▁responsible	-8.9574
▁الاجتماعي	-8.8983
▁الأرض	-8.8292
▁M	-9.1714
▁للدول	-8.8850
▁THE	-8.9152
▁جهود	-8.8793
▁المسلحة	-8.8960
▁تعمل	-8.8466
▁انظر	-8.8075
▁ثلاثة	-8.8591
▁الاستعراض	-8.9073
▁treaty	-8.9796
▁cultural	-8.9693
▁أولا	-8.8628
▁مباشرة	-8.8654
▁months	-8.9295
▁تزال	-8.8730
▁علينا	-8.7902
▁التنسيق	-8.9069
▁نسبة	-8.9117
▁العهد	-8.9032
▁recommended	-8.9676
▁line	-8.9278
▁production	-8.9625
*	-9.4404
▁نتيجة	-8.8985
▁agreements	-8.9835
▁وسي	-8.9599
▁الحاجة	-8.8888
▁Minister	-8.9274
l	-9.0306
▁position	-8.9397
▁An	-8.9642
▁تشير	-8.8853
".	-9.1646
▁Treaty	-8.9631
▁early	-8.9553
▁operational	-8.9800
▁left	-8.8753
▁employment	-8.9793
▁treatment	-8.9789
▁Your	-8.8509
▁Can	-8.8551
▁الأموال	-8.9111
▁كثيرا	-8.8391
تان	-8.9739
▁section	-8.9677
▁committed	-8.9881
▁instruments	-8.9873
▁٢	-8.8145
هل	-8.8143
▁discussion	-8.9848
▁تكاليف	-8.9200
▁لتحقيق	-8.9258
▁Centre	-8.9651
▁China	-8.9301
▁لأ	-8.8087
▁المزيد	-8.8870
▁guy	-8.8553
▁statements	-9.0074
▁الوصول	-8.9247
▁بد	-8.8981
▁تطلب	-8.9091
▁Tribunal	-8.9878
▁please	-8.8841
▁Please	-8.8959
▁achieve	-8.9986
▁بهذه	-8.8742
▁few	-8.9414
▁إسرائيل	-8.9209
▁الممثل	-8.9144
▁rate	-8.9881
▁funding	-9.0094
▁war	-8.9619
▁objectives	-9.0164
▁annual	-8.9908
▁اذا	-8.7950
h	-9.1949
▁sexual	-8.9981
▁الوكالات	-8.9381
▁mind	-8.9204
▁*	-9.3352
(.	-9.0429
▁مشاركة	-8.9353
▁الاستراتيجية	-8.9708
▁form	-9.1340
▁إضافية	-8.9492
to	-9.0390
▁السنوات	-8.9292
▁strategies	-9.0198
▁للتنمية	-8.9347
▁•	-9.4236
▁لدينا	-8.8163
▁تفعل	-8.8061
▁purpose	-8.9940
▁الجدول	-8.9429
▁partners	-9.0175
▁play	-8.9400
▁self	-8.9949
▁Democratic	-8.9514
▁laws	-9.0707
▁steps	-9.0230
▁لجميع	-8.9545
▁questions	-9.0183
▁others	-9.1219
▁Agenda	-9.0196
▁التوصيات	-8.9564
▁العسكرية	-8.9500
▁بدون	-8.8880
▁official	-8.9989
ــــ	-8.9017
▁Division	-9.0267
▁reduction	-9.0235
▁Charter	-9.0264
▁2011	-9.6290
▁Good	-8.8838
▁H	-9.1539
▁age	-9.0135
▁promoting	-9.0273
▁interest	-9.0110
▁individual	-9.0131
▁text	-9.0130
▁notes	-9.0460
▁property	-9.0258
▁تطبيق	-8.9424
▁100	-9.5224
▁organized	-9.0222
▁implementing	-9.0344
▁York	-9.0063
▁أليس	-8.8176
▁حل	-8.9138
▁نموا	-8.9825
▁المناخ	-8.9941
▁protect	-9.0087
▁performance	-9.0374
▁هؤلاء	-8.8867
▁Kingdom	-9.0078
▁الأفريقي	-8.9964
▁greater	-9.0475
▁equal	-9.0429
▁six	-9.0084
▁شؤون	-8.9640
▁التمويل	-8.9842
▁المجال	-8.9663
▁دائما	-8.8783
▁large	-9.0323
▁death	-8.9862
▁Other	-9.0240
▁posts	-9.0633
▁plans	-9.0598
▁aimed	-9.0497
▁approved	-9.0399
▁close	-8.9863
▁توصيات	-8.9807
▁Panel	-9.0674
▁previous	-9.0436
.5	-9.6613
▁لشؤون	-8.9782
ير	-9.0625
دي	-8.7841
▁بالتعاون	-8.9787
▁proposals	-9.0721
▁Get	-8.9144
▁الحماية	-8.9918
▁الداخلي	-8.9741
▁forms	-9.0622
▁study	-9.0454
▁التوجيهية	-8.9987
▁المخدرات	-8.9771
▁issued	-9.0587
▁النتائج	-8.9825
▁Central	-9.0351
▁adequate	-9.0582
▁arrangements	-9.0617
.6	-9.7674
▁هم	-8.9116
▁1998	-9.5427
▁facilitate	-9.0428
▁الجنس	-8.9626
▁supported	-9.0718
▁الطاقة	-8.9878
▁joint	-9.0610
▁لضمان	-8.9926
▁understanding	-9.0596
▁essential	-9.0581
▁awareness	-9.0577
▁energy	-9.0325
▁نقل	-8.9791
▁pursuant	-9.0663
▁knowledge	-9.0445
▁الجديد	-8.9601
▁الحدود	-8.9711
▁principle	-9.0398
▁المحلي	-8.9748
▁feel	-8.9335
AC	-9.5863
▁G	-9.2788
▁R	-9.1837
tergovernmental	-9.0931
▁won	-8.9310
▁القضائية	-9.0199
M	-9.5559
”.	-9.4860
▁السنة	-8.9762
level	-9.0634
▁الخارجية	-8.9905
▁التالي	-8.9640
▁4.	-9.1378
▁النمو	-8.9906
▁prepared	-9.0542
▁nothing	-8.9520
▁coming	-8.9658
T	-9.4290
▁old	-8.9646
▁الهدف	-8.9840
▁investment	-9.0544
الم	-9.0981
▁الخدمة	-8.9997
▁البروتوكول	-9.0085
▁assist	-9.0517
▁carried	-9.0767
▁فحسب	-8.9327
▁Millennium	-9.0848
▁building	-9.0383
▁السلطة	-8.9857
▁stated	-9.0898
▁المالي	-9.0012
▁UN	-9.1558
▁enhance	-9.0742
▁حسن	-8.9047
▁الحرب	-8.9600
.3	-9.6198
▁للجمعية	-8.9907
▁الوفود	-9.0127
▁الرابعة	-9.0060
▁vote	-9.0632
▁أوروبا	-9.0108
▁العمليات	-9.0158
▁الان	-9.0759
▁recommendation	-9.0734
▁Bank	-9.0698
▁foreign	-9.0678
▁came	-8.9800
▁Russian	-9.0392
▁guys	-8.9599
▁basic	-9.0798
▁التكاليف	-9.0104
▁evidence	-9.0750
▁أية	-9.0541
▁أفراد	-9.0103
▁الواقع	-8.9462
▁والتعاون	-9.0198
▁Geneva	-9.0880
▁آسيا	-9.0314
يه	-8.9645
k	-9.3854
▁author	-9.0692
▁cannot	-9.0609
▁مسائل	-9.0275
▁communities	-9.0895
▁nature	-9.0862
▁delegations	-9.1347
▁إقامة	-9.0145
▁power	-9.0479
▁hope	-9.0259
▁expected	-9.1013
▁analysis	-9.1005
▁دولية	-9.0167
▁communication	-9.0908
▁undertaken	-9.1040
▁Criminal	-9.0787
▁potential	-9.0985
▁المياه	-9.0248
▁استراتيجية	-9.0374
▁الهيئات	-9.0283
▁offices	-9.1155
▁house	-8.9989
▁مراعاة	-9.0428
▁income	-9.0988
▁Trade	-9.0985
▁1995	-9.3830
▁O	-9.2681
نى	-8.9597
▁٣	-8.9129
▁وبناء	-9.0543
.4	-9.6348
▁market	-9.0802
▁young	-9.0692
▁الفضاء	-9.0263
▁يحدث	-8.9444
▁يتعين	-9.0300
▁proposal	-9.0990
▁See	-9.0441
▁doesn	-8.9747
▁لنا	-9.0029
▁aspects	-9.1150
▁لأغراض	-9.0407
▁موارد	-9.0351
▁أيها	-8.9393
▁المستقبل	-9.0143
▁التابع	-9.0468
▁fundamental	-9.1298
▁once	-9.0718
▁implemented	-9.1140
▁ensuring	-9.1186
▁Federation	-9.0768
▁Some	-9.0984
▁الكامل	-9.0353
▁الحكم	-9.0335
▁الأفريقية	-9.0531
▁الدائم	-9.0380
▁الاتفاق	-9.0313
▁opportunity	-9.1178
▁experts	-9.1206
▁معاهدة	-9.0487
▁وثائق	-9.0344
▁often	-9.1163
6	-9.3899
سي	-9.0772
▁أستطيع	-8.9116
▁تشكل	-9.0397
▁contribute	-9.1150
▁Implementation	-9.1264
the	-9.1503
▁المعايير	-9.0720
▁قام	-9.0109
▁d	-9.1345
▁informed	-9.1313
تهم	-9.1236
▁act	-9.1001
▁seen	-9.0485
▁Summit	-9.1424
▁القمة	-9.0532
▁affected	-9.1273
▁الهيئة	-9.0613
▁pay	-9.0689
▁الرعاية	-9.0837
▁letter	-9.0953
▁evaluation	-9.1248
▁المفوضية	-9.0552
▁Go	-9.0191
▁OF	-9.0980
▁Israeli	-9.1345
▁fifty	-9.1468
▁connection	-9.1167
▁تنسيق	-9.0488
▁natural	-9.1314
▁negotiations	-9.1395
▁البحر	-9.0326
▁everything	-9.0085
▁guidelines	-9.1493
▁موظفي	-9.0604
▁lot	-8.9984
▁الحسابات	-9.0595
▁live	-9.0453
▁بهدف	-9.0789
▁conduct	-9.1304
مة	-9.1086
▁People	-9.0340
▁Asia	-9.1415
▁2012	-9.7212
▁أنني	-8.9953
▁Review	-9.1409
▁وست	-9.1447
▁goals	-9.1523
▁forward	-9.1337
▁exchange	-9.1248
▁understand	-9.0286
▁التنفيذية	-9.0774
▁show	-9.0433
▁During	-9.1443
▁strategic	-9.1405
▁thus	-9.1607
▁manner	-9.1457
تكلم	-9.0638
▁court	-9.1229
▁الاتصال	-9.0742
▁بصفة	-9.0674
▁wanted	-9.0388
▁hear	-9.0361
▁facilities	-9.1499
▁Plan	-9.1378
▁financing	-9.1616
▁limited	-9.1468
st	-9.6072
١	-9.1150
▁60	-9.7017
()	-9.0649
▁سياسات	-9.0814
▁والخمسين	-9.0670
▁الممارسات	-9.0927
5	-9.3728
ers	-9.1773
▁job	-9.0373
▁authority	-9.1464
▁Justice	-9.1424
لي	-8.9698
▁المحرز	-9.1000
▁مؤسسات	-9.0831
▁effect	-9.1478
▁opportunities	-9.1680
▁hours	-9.1114
▁وطنية	-9.1045
بل	-9.1401
ود	-9.1057
▁الرغم	-9.0815
▁القلق	-9.0954
▁وحدة	-9.0833
▁يزال	-9.0689
▁ر	-8.9871
▁الأجل	-9.0897
▁غرفة	-9.0478
▁ولاية	-9.0982
▁refugees	-9.1740
▁L	-9.4243
▁stop	-9.0349
يين	-9.1050
▁قدم	-9.0692
▁experience	-9.1421
▁individuals	-9.1917
▁35	-9.5850
▁Cooperation	-9.1620
▁met	-9.1894
▁الاعتبار	-9.0891
▁للبلدان	-9.0853
▁T	-9.3514
▁سيدي	-8.9959
▁Did	-9.0400
▁independent	-9.1784
▁Meeting	-9.1661
▁Non	-9.1715
▁mechanism	-9.1733
▁less	-9.1528
▁currently	-9.1732
▁freedom	-9.1507
▁un	-9.3966
▁commitments	-9.1873
▁deal	-9.0957
▁جنيف	-9.1042
▁أود	-9.0772
▁القوات	-9.1035
▁face	-9.0892
▁return	-9.1317
▁remain	-9.1597
▁ثلاث	-9.0609
▁قرارات	-9.1113
▁Agreement	-9.1724
▁hand	-9.1006
▁الدائمة	-9.1075
▁رصد	-9.1129
▁النقل	-9.1024
▁الطلب	-9.1106
▁referred	-9.1926
▁الكونغو	-9.1211
▁recognized	-9.1999
▁5.	-9.2925
▁المحددة	-9.1191
▁للغاية	-9.0394
▁Management	-9.1955
▁V	-9.2658
▁Under	-9.1820
▁القوانين	-9.1214
▁مت	-9.1145
▁أمور	-9.1061
▁functions	-9.1988
▁quality	-9.1867
▁submit	-9.1719
رت	-9.0373
▁مشكلة	-9.0559
▁الماضي	-9.0735
▁يشكل	-9.1091
▁المقررة	-9.1268
▁III	-9.1873
نت	-9.1125
▁contribution	-9.1792
▁Code	-9.1833
▁alia	-9.1875
▁السادسة	-9.1324
▁enough	-9.0937
▁فعل	-8.9769
▁happened	-9.0643
▁عرض	-9.0615
▁فرص	-9.1149
▁Then	-9.0784
▁brought	-9.1531
▁girl	-9.0714
▁Global	-9.1898
▁القانوني	-9.1541
▁recommends	-9.2085
▁rural	-9.1978
▁لمدة	-9.1031
▁transfer	-9.1772
▁شكل	-9.1085
▁وإعادة	-9.1310
▁يمكنني	-8.9989
▁processes	-9.2012
▁التقييم	-9.1521
▁climate	-9.2003
▁وتقديم	-9.1384
▁هيئة	-9.1360
▁وأنا	-9.0419
▁الموضوع	-9.0839
▁وتنفيذ	-9.1432
▁مختلفة	-9.1182
بي	-9.0971
▁معظم	-9.1116
▁تقريرا	-9.1634
▁concerns	-9.2327
▁يعني	-9.0469
▁للمرأة	-9.1309
▁تطوير	-9.1226
▁heard	-9.1191
▁increasing	-9.2129
▁later	-9.1495
لت	-9.1020
▁البرنامجية	-9.1240
▁room	-9.1326
▁‫	-9.0156
٢	-9.2421
▁i	-9.1910
▁رسمية	-9.1555
▁محكمة	-9.1381
▁wrong	-9.0825
▁crimes	-9.2206
▁البيئية	-9.1527
▁الجهات	-9.1661
عد	-9.0949
▁سواء	-9.1181
▁لمنع	-9.1479
▁final	-9.2080
▁below	-9.2132
▁articles	-9.2695
▁السياسي	-9.1389
▁المثال	-9.1279
▁labour	-9.2253
▁officials	-9.2225
▁يجوز	-9.1475
▁نيويورك	-9.1305
▁الس	-9.1194
▁العادية	-9.1362
▁start	-9.1161
▁Right	-9.1110
▁asked	-9.1650
اس	-9.1685
▁معالجة	-9.1568
▁بينما	-9.1083
▁المركز	-9.1382
▁drug	-9.2040
▁الأ	-9.2360
▁former	-9.1730
▁exercise	-9.2054
▁الطبيعية	-9.1389
▁Al	-9.2141
▁changes	-9.2436
▁reference	-9.2009
▁state	-9.1814
▁soon	-9.1587
▁مجموع	-9.1434
▁enable	-9.2340
▁باسم	-9.1556
▁اي	-9.0899
▁overall	-9.2269
▁الآراء	-9.1560
▁المتاحة	-9.1677
▁المتعددة	-9.1720
▁كي	-9.1083
▁قطاع	-9.1704
▁الشخص	-9.0985
▁move	-9.1400
▁العدل	-9.1732
▁التقني	-9.1360
▁territory	-9.2289
▁items	-9.2646
▁remains	-9.2369
▁crisis	-9.2157
▁ويجب	-9.1519
▁است	-9.1902
▁بيد	-9.1482
▁workers	-9.2329
▁خ	-9.1498
▁للألفية	-9.1890
▁multilateral	-9.2428
▁القوة	-9.1458
▁]	-9.5762
▁الأفراد	-9.1869
▁اجتماعات	-9.1875
▁benefits	-9.2525
▁presented	-9.2396
▁father	-9.1187
▁conference	-9.2273
▁trying	-9.1239
▁الاستثمار	-9.1770
▁وظيفة	-9.1672
▁شئ	-9.0461
▁المقترحة	-9.1735
وي	-9.1200
▁Europe	-9.2309
▁Sudan	-9.2020
▁detention	-9.2342
▁مؤخرا	-9.1452
▁Annex	-9.2601
▁الع	-9.1758
▁وبعد	-9.1517
▁ممكن	-9.1324
▁team	-9.1891
▁ممارسة	-9.1777
▁communications	-9.2641
▁provisional	-9.2538
▁Forum	-9.2569
▁value	-9.2349
▁تكن	-9.1108
▁Support	-9.2391
▁lead	-9.2168
▁1997	-9.6333
▁نفسها	-9.1733
▁preparation	-9.2491
▁نهج	-9.1751
▁قلت	-9.0416
▁دراسة	-9.1768
▁times	-9.2804
▁car	-9.1214
▁الوارد	-9.1627
▁تاريخ	-9.1658
▁informal	-9.2628
▁قدرة	-9.1970
▁السابق	-9.1554
▁الإطار	-9.2066
▁outside	-9.2260
▁purposes	-9.2770
▁الجنسي	-9.1977
▁media	-9.2468
▁وعدم	-9.1990
▁head	-9.1673
▁الوضع	-9.1680
▁outcome	-9.2471
▁قرارها	-9.2019
▁الفرعي	-9.2135
AIDS	-9.2889
▁Because	-9.1529
▁لدعم	-9.2053
▁UNCTAD	-9.2720
▁participate	-9.2510
▁تشجيع	-9.1904
▁الحالي	-9.1849
ول	-9.1008
▁نشر	-9.1786
▁Of	-9.1955
▁الأسرة	-9.1997
▁sessions	-9.3697
▁integrated	-9.2709
▁فعالة	-9.1916
▁identified	-9.2727
▁substantive	-9.2723
▁تأكيد	-9.1968
▁either	-9.2345
▁ها	-9.1385
▁claims	-9.3036
▁bad	-9.1337
▁المقدم	-9.1976
▁المجالات	-9.2058
بر	-9.2466
▁قامت	-9.1810
▁positive	-9.2656
▁٤	-9.0795
▁قوة	-9.1645
org	-9.8971
▁45	-9.6942
▁officers	-9.2831
وه	-9.1547
en	-9.6711
▁institutional	-9.2752
▁conducted	-9.2823
▁المسؤولية	-9.2090
▁Uh	-9.1298
▁views	-9.3072
▁النووي	-9.1993
ست	-9.2983
▁medical	-9.2613
▁Unit	-9.2728
▁Since	-9.2689
▁uh	-9.1659
▁المال	-9.1188
▁fine	-9.1516
▁مذكرة	-9.1968
▁منهم	-9.3861
▁السودان	-9.2152
▁First	-9.2404
▁الجرائم	-9.2195
▁الجميع	-9.1132
▁share	-9.2502
وس	-9.1843
▁Section	-9.3209
▁entities	-9.2647
▁34	-9.7019
an	-9.5664
▁شبكة	-9.2052
▁ولل	-9.3202
▁توجد	-9.1823
▁القدرة	-9.2263
▁انتشار	-9.2150
▁Crime	-9.2609
▁compliance	-9.2896
▁با	-9.1797
▁وبرنامج	-9.2189
▁talking	-9.1618
▁أنحاء	-9.2147
year	-9.2633
▁لتقديم	-9.2304
▁بطريقة	-9.1946
▁Congo	-9.2364
▁direct	-9.2804
▁big	-9.1585
▁low	-9.2787
▁achieved	-9.2952
▁قضايا	-9.2217
▁1996	-9.6126
▁paragraphs	-9.3578
▁أول	-9.1689
▁وفد	-9.2040
▁1994	-9.4755
▁32	-9.6874
▁أصحاب	-9.2180
▁المناسب	-9.2106
▁الإعلان	-9.2114
▁ask	-9.1691
▁using	-9.2728
▁killed	-9.1969
▁آلية	-9.2316
▁dead	-9.1678
related	-9.2927
▁الفلسطينية	-9.2337
▁mother	-9.1820
▁معينة	-9.2158
▁قيد	-9.1949
▁معا	-9.2598
▁internal	-9.2978
▁مناطق	-9.2213
▁الظروف	-9.2084
▁someone	-9.1663
▁الأقل	-9.1723
▁موجهة	-9.2275
▁48	-9.8132
لم	-9.0952
▁36	-9.7555
▁6.	-9.4097
▁الطريق	-9.1497
▁التعذيب	-9.2468
▁الرئيسي	-9.2391
▁kill	-9.1620
▁33	-9.7346
▁UNICEF	-9.3142
▁went	-9.1895
▁دورة	-9.2376
▁موضوع	-9.1936
▁أوه	-9.2439
▁ومنظمة	-9.2388
▁resource	-9.2835
▁indicated	-9.3169
▁الإنساني	-9.2974
▁circumstances	-9.2995
▁فإنه	-9.2260
ic	-9.6118
ation	-9.6688
able	-9.4669
▁تنظر	-9.2089
▁الباب	-9.1670
اه	-9.5341
▁قضية	-9.2132
▁الروسي	-9.2105
▁ٱل	-9.1648
▁ضوء	-9.2387
.7	-9.9895
▁استمرار	-9.2305
▁woman	-9.2301
▁fight	-9.2581
▁الحوار	-9.2440
▁hold	-9.2326
▁أبدا	-9.1310
▁itself	-9.3080
▁التوصل	-9.2198
▁مزيد	-9.2242
▁المعاهدة	-9.2347
▁معدل	-9.2514
▁يشمل	-9.2400
▁material	-9.2896
▁reduce	-9.3107
▁safety	-9.3175
▁المدنيين	-9.2655
▁الوكالة	-9.2414
▁primary	-9.3081
▁رائع	-9.1019
▁integration	-9.3161
▁المجموعة	-9.2389
▁N	-9.4811
▁ways	-9.3577
▁judicial	-9.3096
▁looking	-9.1989
▁Maybe	-9.1804
▁تؤكد	-9.2239
▁e	-9.3620
▁calls	-9.3226
▁دي	-9.2304
▁37	-9.6891
▁أهداف	-9.2365
▁ongoing	-9.3351
▁Protection	-9.3181
▁جيم	-9.2341
▁آليات	-9.2670
▁Public	-9.3089
▁توافق	-9.2417
▁الش	-9.4316
▁Regional	-9.3010
(،	-9.5108
▁مشاورات	-9.2522
▁idea	-9.2138
دا	-9.1667
▁المملكة	-9.2566
▁()	-9.6143
▁ش	-9.1322
▁وبخاصة	-9.2586
▁بحق	-9.1681
▁الجمهورية	-9.2458
▁يعمل	-9.1925
▁else	-9.1991
▁منح	-9.2813
▁enforcement	-9.3315
▁الحقيقة	-9.1579
▁infrastructure	-9.3209
▁الفنية	-9.2447
▁تنمية	-9.2614
▁فعالية	-9.2612
▁economy	-9.3276
/2	-9.6944
زي	-9.4555
▁whose	-9.3240
▁Agency	-9.3383
▁2013	-9.9329
▁المعنون	-9.2704
▁objective	-9.3317
▁الدفاع	-9.2534
▁effort	-9.3322
▁البحرية	-9.2773
▁effectively	-9.3424
▁allow	-9.3171
▁ذوي	-9.3360
▁Constitution	-9.3373
▁مجرد	-9.1789
u	-9.9605
▁وحماية	-9.2791
▁أننا	-9.3093
▁وليس	-9.2063
▁تعلم	-9.1298
▁المقر	-9.2890
▁وكانت	-9.2551
▁Great	-9.2520
▁Recalling	-9.3460
▁بكل	-9.2070
▁مبادئ	-9.2725
▁قواعد	-9.2657
▁الجنسية	-9.2921
▁ونحن	-9.2174
▁آسف	-9.1220
▁آثار	-9.2493
رف	-9.2905
▁situations	-9.3952
▁By	-9.3156
▁نص	-9.2282
▁نظم	-9.2705
▁Japan	-9.2954
▁الخطة	-9.2643
▁regions	-9.3898
▁Institute	-9.3383
▁ago	-9.2446
▁strong	-9.3125
▁proceedings	-9.3620
▁expert	-9.3303
▁son	-9.2350
▁الرابع	-9.2643
▁فال	-9.2640
▁السياسة	-9.2604
ور	-9.2327
▁الشعب	-9.2420
▁معي	-9.2381
▁revised	-9.3452
▁معك	-9.1725
▁actually	-9.2483
▁الألغام	-9.2516
▁الأهمية	-9.2783
▁administration	-9.3372
▁term	-9.3412
▁بيان	-9.2475
▁Party	-9.3603
▁الأمنية	-9.3033
▁حاجة	-9.2595
▁sir	-9.2157
▁الأحكام	-9.2879
▁العليا	-9.2839
▁توفر	-9.2729
▁families	-9.3564
▁Peace	-9.3589
▁مقابل	-9.2394
▁combat	-9.3722
▁التركيز	-9.3008
G	-9.8929
▁getting	-9.2282
▁effects	-9.3586
▁centres	-9.3539
▁sent	-9.2983
▁المكان	-9.1690
▁كفالة	-9.2787
▁saw	-9.2327
▁themselves	-9.3389
▁والعشرين	-9.2832
▁civilian	-9.3467
H	-9.7715
▁الرجال	-9.2257
▁39	-9.7810
▁Political	-9.3425
▁table	-9.3184
▁Such	-9.3632
▁مؤرخة	-9.2897
▁للسكان	-9.2861
▁governance	-9.3634
▁hell	-9.2343
▁throughout	-9.3726
▁Here	-9.2489
▁العدالة	-9.3257
▁Also	-9.3435
▁المؤتمرات	-9.3089
man	-9.3981
▁جرى	-9.2748
▁نظرا	-9.2915
▁الأولوية	-9.3087
▁إذن	-9.1956
▁لكم	-9.1885
▁فرصة	-9.2617
▁active	-9.3711
30	-9.9235
▁حلقة	-9.3098
أنا	-9.1672
▁الخارجي	-9.2901
▁الوظائف	-9.3051
▁تضطلع	-9.2823
▁العنصري	-9.2850
▁ج	-9.1209
▁النار	-9.1952
يس	-9.2048
▁higher	-9.3818
▁debt	-9.3519
▁stay	-9.2518
▁التحقيق	-9.3075
▁أبي	-9.1962
▁العاملة	-9.3279
▁Foreign	-9.3565
`	-9.7434
▁benefit	-9.3625
▁torture	-9.3566
▁أمريكا	-9.2893
F	-9.7423
▁لديها	-9.2645
▁٥	-9.1845
▁هيئات	-9.3053
▁Children	-9.3829
▁Force	-9.3532
▁Health	-9.3869
▁الاقتصاد	-9.2927
▁Afghanistan	-9.3266
▁لحماية	-9.3185
▁إصلاح	-9.3008
وف	-9.3036
▁الشباب	-9.3204
▁والذي	-9.2826
▁وسوف	-9.2815
▁operation	-9.3638
▁poor	-9.3587
▁إيجاد	-9.2853
▁elements	-9.3969
▁وإذا	-9.2843
▁initiative	-9.3813
▁side	-9.3022
▁reason	-9.3255
▁Canada	-9.3434
▁المؤقتة	-9.3372
▁والت	-9.5559
▁بحلول	-9.3237
▁K	-9.4867
▁منظمات	-9.3164
▁قاعدة	-9.3085
▁prior	-9.4104
▁thank	-9.3208
▁improving	-9.3815
▁1990	-9.6840
▁بينها	-9.4041
▁احترام	-9.3341
▁estimated	-9.3824
▁critical	-9.4000
▁الهادئ	-9.3228
▁travel	-9.3794
▁د	-9.2646
8	-9.5254
▁rather	-9.3785
Rev	-9.9846
▁بوصفها	-9.3209
▁invited	-9.3881
▁متابعة	-9.3423
▁وهذه	-9.2996
▁ستكون	-9.2368
▁الالتزامات	-9.3229
▁welcomed	-9.4098
▁الأوروبية	-9.3337
▁Services	-9.4223
▁الدوليين	-9.3553
7	-9.4551
▁او	-9.2158
رات	-9.4222
▁discussions	-9.4209
▁للقانون	-9.3332
▁وإدارة	-9.3400
▁جميعا	-9.3180
▁sources	-9.4052
▁تكنولوجيا	-9.3449
▁الأمور	-9.2478
▁لديه	-9.2425
.8	-10.1853
▁عاما	-9.3980
▁الطوارئ	-9.3153
responsibilities	-9.4225
▁Caribbean	-9.4082
▁sub	-9.4807
▁مراكز	-9.3563
▁ظل	-9.3106
▁تقرر	-9.3373
▁7.	-9.5132
▁الاقتضاء	-9.3601
▁ووفقا	-9.3541
▁تلاحظ	-9.3492
▁وبال	-9.5345
▁developments	-9.5944
▁القضية	-9.3211
بالإضافة	-9.3608
▁الكوارث	-9.3361
▁كوريا	-9.3450
▁difficult	-9.3918
▁النص	-9.3719
▁debate	-9.4164
▁Environment	-9.4180
▁rates	-9.4470
الإيدز	-9.3302
▁require	-9.3986
▁half	-9.3629
ار	-9.1182
▁المناقشة	-9.3477
▁sectors	-9.4471
▁assets	-9.4503
▁سبل	-9.3664
▁ready	-9.3372
▁priorities	-9.4278
▁بدور	-9.3349
▁المناسبة	-9.3562
▁trust	-9.3452
▁words	-9.4095
▁والاتصالات	-9.3580
▁interests	-9.4481
▁الق	-9.4715
▁appreciation	-9.4322
▁وثيقة	-9.3510
▁Countries	-9.4303
▁قيام	-9.3354
▁وعلاوة	-9.3685
▁hard	-9.3248
▁الالتزام	-9.3583
▁يؤدي	-9.3504
▁abuse	-9.4289
▁guidance	-9.4248
▁يمثل	-9.3546
▁المشاكل	-9.3218
▁تغير	-9.3486
▁أداء	-9.3684
▁effectiveness	-9.4373
▁1993	-9.6960
▁لأي	-9.3683
▁الإ	-9.7995
▁بلد	-9.3338
▁المت	-9.3343
▁اللاتينية	-9.3582
▁لأنه	-9.2899
▁Administrative	-9.4489
-1	-9.9607
▁النهج	-9.3622
()،	-9.4385
▁American	-9.4057
▁الماضية	-9.3268
▁try	-9.3219
▁participants	-9.4344
▁0	-9.6454
▁خطط	-9.3602
▁introduced	-9.4491
▁ط	-9.4370
▁specialized	-9.4356
▁قدمت	-9.3560
▁والثقافية	-9.3789
▁remember	-9.3072
▁safe	-9.3742
▁France	-9.3777
▁peaceful	-9.4374
▁القواعد	-9.3670
▁معايير	-9.3649
▁بت	-9.5611
▁تمثل	-9.3581
▁friend	-9.3155
▁للعمل	-9.3554
▁قوات	-9.3497
▁تستطيع	-9.2679
▁شاملة	-9.3986
▁المعاهدات	-9.3714
▁تتخذ	-9.3672
▁maintenance	-9.4221
▁Requests	-9.4377
▁بأي	-9.3351
▁وظائف	-9.3718
▁كانوا	-9.3099
▁threat	-9.4355
ماذا	-9.2315
▁دورته	-9.3609
▁Korea	-9.3440
▁regulations	-9.4530
▁comments	-9.4586
▁مبلغ	-9.3531
▁أثر	-9.3430
▁54	-9.9846
▁range	-9.4378
▁الصين	-9.3386
▁wait	-9.3230
▁السلم	-9.2983
▁الفئة	-9.3784
▁continuing	-9.4567
▁الكيميائية	-9.4005
▁قدر	-9.3671
▁2005.	-10.1371
▁احتياجات	-9.3776
▁الثامنة	-9.3668
لة	-9.3750
▁لبرنامج	-9.3825
▁فئة	-9.3815
▁المنصوص	-9.3864
▁مناقشة	-9.3729
▁achieving	-9.4583
▁continues	-9.5134
▁elections	-9.4645
▁indicators	-9.4678
اب	-9.3793
▁المرحلة	-9.3601
▁universal	-9.4584
▁yeah	-9.3310
▁activity	-9.4470
▁extent	-9.4576
▁77	-10.0597
▁55	-9.7675
يل	-9.3124
▁الوحيد	-9.2898
▁الأداء	-9.3917
▁1,	-9.8082
▁legislative	-9.4709
▁إدراج	-9.3926
▁38	-9.8322
▁الفقرات	-9.3952
▁مجددا	-9.3369
▁collaboration	-9.4663
▁الرقابة	-9.4080
▁وهناك	-9.3714
▁يمكننا	-9.2928
▁isn	-9.3238
▁فعلت	-9.2597
O	-9.9686
▁emergency	-9.4554
▁التحضيرية	-9.3849
▁2,	-9.6584
▁ولذلك	-9.3821
▁turn	-9.3783
▁wasn	-9.3401
▁شركة	-9.3577
▁twenty	-9.4753
▁Room	-9.5050
“	-9.3850
▁air	-9.4345
▁سيد	-9.2718
معالجة	-9.3969
▁paid	-9.4444
▁alone	-9.3900
▁according	-9.4573
▁co	-9.4556
▁وتم	-9.4501
▁capital	-9.4545
▁يطلب	-9.3814
▁Second	-9.4563
▁لمؤتمر	-9.4002
▁read	-9.3953
▁transition	-9.4732
▁plenary	-9.4810
00	-10.1242
▁Discrimination	-9.4787
▁aid	-9.4672
▁obligation	-9.4735
▁تتضمن	-9.3996
▁scope	-9.4758
▁follows	-9.4994
▁كبيرا	-9.4018
▁Disarmament	-9.4755
▁56	-9.8979
▁According	-9.4586
▁India	-9.4063
▁claim	-9.4798
it	-9.9231
▁المخصصة	-9.4076
▁materials	-9.4836
▁الآثار	-9.4116
▁قليلا	-9.2815
بة	-9.6663
▁الخ	-9.5149
▁true	-9.3951
▁periodic	-9.4874
▁الانتشار	-9.3967
▁create	-9.4587
▁وخاصة	-9.4031
▁42	-9.8603
قت	-9.4081
▁ثانيا	-9.4015
▁طرف	-9.3872
▁run	-9.3777
▁مرفق	-9.4056
▁الإنترنت	-9.4171
▁السبب	-9.3495
▁41	-9.9202
▁مشتركة	-9.4234
20	-10.0263
يت	-9.2051
▁التكنولوجيا	-9.4088
▁relations	-9.4977
▁Civil	-9.4836
▁المعاملة	-9.4322
▁technologies	-9.4844
▁terrorist	-9.4819
▁كامل	-9.3889
▁الوحدة	-9.4033
▁Sustainable	-9.4780
▁complete	-9.4888
▁transport	-9.4925
نة	-9.5112
p	-9.7576
▁مرحلة	-9.4077
دين	-9.4077
▁البحث	-9.3846
▁تنص	-9.4061
▁الريفية	-9.4306
▁apply	-9.4908
▁voluntary	-9.4951
▁Headquarters	-9.4909
▁تقريبا	-9.3598
▁الشركات	-9.4026
▁المقترح	-9.4127
نعم	-9.2796
▁الاختياري	-9.4573
▁makes	-9.4925
▁ووضع	-9.4335
▁Draft	-9.4965
▁49	-9.9268
▁التاسعة	-9.4068
▁حدود	-9.3987
▁نظر	-9.3644
▁التحديات	-9.4393
▁البعثات	-9.4501
▁Child	-9.4932
▁عليهم	-9.3835
▁46	-9.9409
▁جيدة	-9.3398
▁UNEP	-9.6452
▁المدير	-9.4157
▁UNHCR	-9.5062
▁paper	-9.4597
▁الاهتمام	-9.4052
تم	-9.3632
▁addressing	-9.4976
▁للأمين	-9.4312
▁build	-9.4765
▁displaced	-9.4966
▁بتنفيذ	-9.4381
▁associated	-9.5060
▁الشرقية	-9.4347
▁lost	-9.4075
▁يتضمن	-9.4303
▁8.	-9.5992
▁opinion	-9.4936
▁إلي	-9.3324
▁تواصل	-9.4331
▁السياق	-9.4375
▁2005,	-9.5897
▁أفغانستان	-9.4478
▁الاستثنائية	-9.4233
▁جلسة	-9.4346
▁ترى	-9.3691
▁delivery	-9.4835
▁وإ	-9.7285
▁methods	-9.5135
▁44	-9.8940
▁التصويت	-9.4246
▁بدأت	-9.3738
▁بحيث	-9.4165
▁along	-9.4648
▁الوسطى	-9.4436
▁٦	-9.3194
▁كثير	-9.3783
▁goods	-9.5832
▁الشرق	-9.4142
▁أساسية	-9.4320
▁بالإضافة	-9.4291
▁وعن	-9.4283
▁encourage	-9.5088
▁للمساعدة	-9.4094
▁identify	-9.4998
▁السامية	-9.4632
▁الميدان	-9.4133
▁جمع	-9.4009
▁مسؤولية	-9.4364
▁كافة	-9.4323
▁موقع	-9.3970
▁vulnerable	-9.5133
▁step	-9.4666
▁السابعة	-9.4180
▁بالطبع	-9.3000
▁lives	-9.4752
▁includes	-9.5532
قد	-9.3938
▁التوصية	-9.4540
▁stakeholders	-9.5033
▁disabilities	-9.5036
▁بالحقوق	-9.4666
▁بنسبة	-9.4409
▁anti	-9.5108
▁بإ	-9.7651
▁yourself	-9.3910
▁لإدارة	-9.4652
▁قتل	-9.3107
▁stability	-9.5138
▁بحاجة	-9.3444
▁1-	-9.4097
عة	-9.5376
▁late	-9.4387
فت	-9.6178
▁وبالتالي	-9.4303
▁تبادل	-9.4509
▁investigation	-9.4837
▁religious	-9.5103
▁سياسة	-9.4455
▁Re	-9.7232
▁Latin	-9.5182
▁يلزم	-9.4343
▁أساسا	-9.4680
▁saying	-9.4074
▁الشعبية	-9.4506
▁الصادر	-9.4466
▁الب	-9.5111
▁directly	-9.5179
▁adopt	-9.4997
▁gave	-9.4442
▁similar	-9.5201
▁language	-9.5027
▁فكرة	-9.3506
making	-9.5328
▁بتقديم	-9.4640
▁عما	-9.4170
-2	-10.0201
▁establishing	-9.5304
▁العقد	-9.4390
▁consensus	-9.5380
▁relation	-9.5162
▁treaties	-9.5356
▁Joint	-9.5276
▁events	-9.5179
▁W	-9.7831
▁47	-9.9182
لقد	-9.3180
▁والمؤسسات	-9.4607
▁التقليدية	-9.4463
▁Goals	-9.5294
▁للبيئة	-9.4719
▁violation	-9.5309
▁2005،	-9.4910
▁قبيل	-9.4688
▁short	-9.5012
٣	-9.5320
▁إضافة	-9.4612
▁لصالح	-9.4481
▁balance	-9.5129
ity	-9.7634
▁schools	-9.5549
-4	-10.0252
▁القرن	-9.4372
▁`	-10.2657
▁تدريب	-9.4464
▁Mexico	-9.4586
▁57	-9.9788
▁record	-9.5129
▁2006,	-9.6222
▁الإعاقة	-9.5807
▁الأن	-9.4700
يد	-9.3831
▁destruction	-9.5530
▁Islamic	-9.5443
▁51	-10.0354
▁معه	-9.5066
▁morning	-9.4475
▁reached	-9.5223
▁طلبت	-9.4493
▁الأم	-9.4327
▁مر	-9.4184
▁West	-9.5481
▁قالت	-9.4101
▁المجتمعات	-9.4986
▁البيان	-9.4527
▁كافية	-9.4573
▁jurisdiction	-9.5215
▁ضحايا	-9.4797
▁knew	-9.4096
▁cover	-9.4936
▁الغربية	-9.4637
▁2-	-9.4281
▁حظر	-9.4814
▁الشمالية	-9.4809
▁Furthermore	-9.5465
▁والخدمات	-9.4869
هذا	-9.3128
ؤ	-9.6283
▁الصراع	-9.4450
▁المقبلة	-9.4805
▁مقر	-9.4629
▁الدراسة	-9.4662
▁الأونكتاد	-9.4698
▁welcome	-9.5046
▁Those	-9.5143
▁led	-9.5343
▁شأن	-9.4549
▁حدوث	-9.4674
▁الانتخابات	-9.4859
مت	-9.3722
▁المبلغ	-9.4600
▁carry	-9.5284
▁counter	-9.5237
▁settlement	-9.5231
▁parts	-9.5901
▁السنوية	-9.4913
at	-10.0465
▁الكاريبي	-9.4652
▁applied	-9.5522
▁تعيين	-9.4819
▁physical	-9.5429
▁maybe	-9.3999
.9	-10.2946
▁creation	-9.5510
▁البحار	-9.4810
▁شعبة	-9.4941
▁Or	-9.4526
▁Wait	-9.4179
▁43	-9.9469
▁والبلدان	-9.4863
▁Cuba	-9.5066
▁wife	-9.4535
▁ground	-9.5055
▁encouraged	-9.5599
▁mine	-9.4704
▁contract	-9.5615
▁conferences	-9.5841
▁fucking	-9.4137
9	-9.4870
▁distribution	-9.5602
R	-9.9074
▁receive	-9.5369
N	-9.8399
▁بجميع	-9.4972
▁المتخذة	-9.5179
▁أدناه	-9.5045
▁القائم	-9.4975
▁أنهم	-9.5948
▁العضوية	-9.4787
▁لمجلس	-9.4945
▁عناصر	-9.4997
▁فوق	-9.4394
▁permanent	-9.5663
▁المنشأة	-9.4977
▁sex	-9.5260
▁week	-9.4758
▁وجمهورية	-9.5109
▁52	-10.0106
▁رغم	-9.4749
▁الختامية	-9.5116
▁الاضطلاع	-9.4987
”,	-9.7707
▁أمي	-9.3825
▁French	-9.5428
▁fund	-9.5529
▁قائلا	-9.4912
▁فعلا	-9.4240
كل	-9.4131
▁الليلة	-9.3744
▁سوى	-9.4569
▁مقدمة	-9.4969
▁partnership	-9.5544
▁2002,	-9.6711
ئ	-9.4816
▁طريقة	-9.4522
▁After	-9.5227
▁مستويات	-9.5108
▁وأضاف	-9.4914
▁قررت	-9.4590
▁relationship	-9.5383
▁وتحسين	-9.5004
▁single	-9.5429
▁2004,	-9.6748
▁supporting	-9.5843
قة	-9.6606
▁Iran	-9.5054
▁حرية	-9.5209
▁وزيادة	-9.5238
▁serve	-9.5535
▁across	-9.5286
▁كال	-9.4633
▁improved	-9.5697
اد	-9.3217
▁القطرية	-9.5282
▁الآخرين	-9.4841
▁Education	-9.5844
50	-10.2059
▁Hello	-9.4420
▁لتحسين	-9.5163
▁longer	-9.5398
▁تقول	-9.3763
▁sixty	-9.5573
▁جزءا	-9.4857
▁حصلت	-9.3908
▁Thanks	-9.4738
▁تغيير	-9.4836
▁وأعرب	-9.5108
▁Our	-9.5010
▁عضو	-9.4760
▁2006.	-10.2751
▁التصدي	-9.5232
▁المصلحة	-9.5453
▁جملة	-9.5154
▁points	-9.6043
▁consultation	-9.5619
▁هكذا	-9.3806
▁central	-9.5716
first	-9.5726
▁النطاق	-9.5199
▁ظروف	-9.5059
▁conflicts	-9.6264
الفقرة	-9.5854
▁تضع	-9.4655
▁?	-9.7348
▁للتعاون	-9.4988
▁المذكورة	-9.5217
▁courts	-9.6081
اح	-9.7685
▁أعلى	-9.4879
▁صنع	-9.4867
▁الدستور	-9.5171
▁known	-9.5459
▁بالت	-9.7108
▁practical	-9.5836
▁citizens	-9.5739
▁المفاوضات	-9.5194
وم	-9.4861
▁53	-10.0425
▁2003,	-9.6671
ar	-10.0205
le	-9.8029
▁حساب	-9.4758
▁signed	-9.5819
▁Prevention	-9.5764
▁compensation	-9.5979
▁للت	-9.6444
▁seek	-9.5635
▁مبدأ	-9.5331
▁applicable	-9.5947
ريد	-9.4812
▁عديدة	-9.4954
▁طويلة	-9.4693
▁بالمرأة	-9.4945
▁regime	-9.5871
▁أعرب	-9.5204
▁Dr	-9.5444
The	-9.5599
▁reasons	-9.5942
▁ففي	-9.4914
▁dollars	-9.5543
▁pre	-9.6487
▁9.	-9.6901
▁سبب	-9.4379
▁Middle	-9.5851
▁baby	-9.4549
▁Chief	-9.6382
▁باستخدام	-9.5109
▁الامتثال	-9.5192
▁الاستقرار	-9.5253
أجل	-9.3868
▁المشار	-9.5253
▁الجنوب	-9.5166
▁بذل	-9.5185
▁قدرات	-9.5288
ization	-9.6223
▁الر	-9.5592
▁إلهي	-9.3843
▁بوجه	-9.5100
▁raised	-9.5956
▁presence	-9.5917
▁بأ	-9.7957
▁economies	-9.5944
▁positions	-9.6199
ment	-9.9907
▁البالغ	-9.5206
▁الأجانب	-9.5251
▁إحدى	-9.5119
▁جيدا	-9.4552
▁المحاكم	-9.5428
▁والستين	-9.5562
▁Persons	-9.5982
▁2007,	-9.6893
▁تدعو	-9.5186
-3	-10.2189
▁concluded	-9.6057
▁created	-9.5835
and	-9.6837
▁loss	-9.6002
▁توجيه	-9.5219
▁almost	-9.5455
▁Vienna	-9.6057
▁كوسوفو	-9.5212
▁(1)	-10.1168
▁تكفل	-9.5396
▁2004.	-10.3223
▁implications	-9.6135
▁Germany	-9.5369
▁states	-9.6317
▁Optional	-9.6080
▁أصبحت	-9.4799
▁استنادا	-9.5364
▁١٩٩٤	-9.4302
▁structure	-9.5899
▁تيسير	-9.5428
▁parents	-9.5438
▁أشهر	-9.5159
▁والاقتصادية	-9.5501
▁beyond	-9.5924
▁Syrian	-9.5401
▁nice	-9.4797
▁الدراسية	-9.5512
▁products	-9.5969
▁clearly	-9.6092
▁Table	-9.6143
▁وزير	-9.4973
▁2006،	-9.5881
▁Although	-9.6026
▁#	-10.0953
▁Elimination	-9.6139
▁الأوسط	-9.5308
▁أصبح	-9.4770
▁initial	-9.6052
▁؛	-9.5191
▁العلاقات	-9.5243
▁ترحب	-9.5361
▁العاملين	-9.5781
▁جزء	-9.4828
▁respective	-9.6131
▁متى	-9.4479
▁تحليل	-9.5522
▁Coordination	-9.6237
▁اعتمدت	-9.5323
حسنا	-9.4128
▁وتوفير	-9.5602
▁reflected	-9.6201
▁Ireland	-9.4959
▁بروتوكول	-9.5539
▁واسع	-9.5256
▁الذاتي	-9.5407
▁يقول	-9.4527
▁2008.	-10.3814
▁covered	-9.5976
▁judges	-9.6404
▁consistent	-9.6238
▁الطريقة	-9.4721
▁يشير	-9.5618
▁والأ	-9.8650
▁التخطيط	-9.5608
▁الضروري	-9.5359
▁استعمال	-9.5380
مان	-9.5691
▁الفلسطيني	-9.5208
▁shit	-9.4991
عي	-9.5866
▁الميدانية	-9.5560
▁task	-9.6023
▁factors	-9.6219
▁achievement	-9.6198
▁تؤدي	-9.5398
▁أظن	-9.4086
▁leaders	-9.6176
▁bilateral	-9.6318
أن	-9.4770
▁personal	-9.5958
▁majority	-9.6240
▁الموقع	-9.5638
يف	-9.6315
▁2008,	-9.6799
▁Lebanon	-9.5819
▁صلة	-9.5630
▁المسؤولين	-9.5614
▁اللجوء	-9.5725
▁Pacific	-9.6223
▁بوضع	-9.5673
▁word	-9.5228
▁فهم	-9.5225
▁هامة	-9.5575
▁قيمة	-9.5207
▁2007.	-10.3799
▁تعتبر	-9.5304
▁actors	-9.6352
▁المخاطر	-9.5809
▁توسيع	-9.5407
▁الغرض	-9.5437
▁advice	-9.6200
▁successful	-9.6369
▁السنوي	-9.5624
▁منك	-10.0049
10	-10.0139
is	-10.1430
SR	-10.2789
▁٧	-9.4293
▁المنزل	-9.4234
▁maintain	-9.6188
▁2000,	-9.7485
▁السلع	-9.5764
▁انتهاكات	-9.5862
▁القطري	-9.5499
▁standard	-9.6232
▁كنا	-9.4596
▁الإشارة	-9.5545
▁takes	-9.7073
▁وقف	-9.5396
▁المدارس	-9.5834
▁illegal	-9.6513
▁والأطفال	-9.5718
▁sound	-9.5694
وق	-9.5863
▁illicit	-9.6509
▁بالتأكيد	-9.4364
▁completed	-9.6526
▁2001,	-9.7558
▁IV	-9.6386
▁ميدان	-9.5236
▁recently	-9.6439
▁consequences	-9.6478
▁المشورة	-9.6024
▁للمجلس	-9.5750
40	-10.2444
▁requires	-9.6584
▁though	-9.5676
▁عملها	-9.6347
▁أدلى	-9.5666
▁موعد	-9.5401
▁2003.	-10.3387
▁طوال	-9.4737
▁تحتاج	-9.4965
▁solution	-9.6204
▁تعديل	-9.5778
▁efficiency	-9.6289
▁إنتاج	-9.5683
▁مهمة	-9.5640
▁everyone	-9.5588
▁المهم	-9.5674
▁المتوقع	-9.5671
▁Territory	-9.6332
▁الفرع	-9.5519
▁واست	-9.8495
▁submission	-9.6381
▁أيام	-9.5489
▁visit	-9.6217
▁Administration	-9.6584
▁wanna	-9.5202
▁2004،	-9.6326
▁قسم	-9.5730
▁علم	-9.4977
▁بن	-9.5822
ري	-9.3061
▁الرسالة	-9.5467
بو	-9.6208
▁وأشار	-9.5961
▁suggested	-9.6614
▁heart	-9.5604
▁وق	-9.7419
▁goal	-9.6313
Governing	-9.6788
K	-9.9753
▁58	-10.1880
▁الشيء	-9.4685
▁١٩	-9.6825
▁عددا	-9.6188
▁الدخل	-9.5963
▁detailed	-9.6669
▁الاتحادية	-9.5889
▁Item	-9.6533
▁external	-9.6341
▁وحقوق	-9.5943
▁النفقات	-9.5871
▁Federal	-9.6404
▁الأغذية	-9.6038
▁housing	-9.6615
▁gotta	-9.5217
▁challenge	-9.6343
▁mentioned	-9.6435
▁دفع	-9.5267
▁boy	-9.5209
وب	-9.6258
▁rest	-9.5768
▁المحيط	-9.5503
▁although	-9.6682
▁قانونية	-9.6028
▁Add	-10.0483
▁صياغة	-9.6015
▁الوزراء	-9.5831
▁200	-10.0529
▁stage	-9.6392
▁event	-9.6630
▁فيينا	-9.6156
▁المتخصصة	-9.5929
▁للمادة	-9.5989
▁والمجتمع	-9.6048
▁الرصد	-9.6144
▁youth	-9.6780
▁2002،	-9.6139
▁الحال	-9.5239
▁10.	-9.8205
▁wouldn	-9.5205
▁core	-9.6610
▁sanctions	-9.6795
▁حياة	-9.5428
▁هدف	-9.5617
▁Inter	-9.6779
▁المساهمة	-9.6094
▁النظم	-9.6156
▁anyone	-9.5438
▁Nuclear	-9.6635
▁اليونيسيف	-9.6060
us	-9.9996
▁ethnic	-9.6630
▁حكومية	-9.5981
▁مشاكل	-9.5540
▁started	-9.5960
▁procurement	-9.6804
▁supply	-9.6627
▁2003،	-9.6364
▁الصكوك	-9.6155
▁educational	-9.6715
▁بوصفه	-9.5399
▁وكما	-9.6004
▁70	-10.1639
▁ممثلي	-9.6018
▁المبادرات	-9.6088
▁duty	-9.6567
▁Guinea	-9.5178
▁مراجعة	-9.6180
▁مدير	-9.5724
▁2002.	-10.3891
▁Have	-9.5657
▁إصدار	-9.6065
▁expenditure	-9.6541
▁قدره	-9.6077
▁يعد	-9.5936
▁prison	-9.6313
▁guess	-9.5319
▁الهجرة	-9.6024
▁2007،	-9.6611
▁وسائل	-9.6035
▁الولاية	-9.6180
▁cause	-9.6457
▁تعد	-9.5752
▁المهاجرين	-9.6383
اق	-9.6261
▁لإ	-10.0348
▁الإسلامية	-9.5975
em	-9.7883
▁approaches	-9.6832
▁discussed	-9.6760
▁instrument	-9.6841
▁توقف	-9.4837
▁remained	-9.6915
▁اهتمام	-9.5850
▁بالانكليزية	-9.5807
▁designed	-9.6931
▁friends	-9.5779
▁جزر	-9.5888
▁beginning	-9.6638
▁Australia	-9.6095
▁leadership	-9.6985
▁شامل	-9.6086
▁مصادر	-9.6163
▁ينص	-9.6140
▁female	-9.6670
▁المحتلة	-9.6178
▁sufficient	-9.6880
▁Take	-9.5597
▁خمس	-9.5536
▁الممكن	-9.5665
▁المشكلة	-9.5620
▁يوما	-9.5895
إ	-9.5560
إن	-9.6608
▁وأنه	-9.6291
▁temporary	-9.6877
▁بدء	-9.6022
▁الصادرة	-9.6407
▁١٢	-9.5968
▁says	-9.6406
▁إيران	-9.6370
▁بواسطة	-9.5863
▁بدلا	-9.6005
▁gone	-9.5871
▁studies	-9.6919
▁أوجه	-9.6248
▁2008،	-9.7100
▁الحادية	-9.6085
▁يعرف	-9.5208
▁والسياسية	-9.6533
▁بدأ	-9.5660
▁resulting	-9.6934
▁الدين	-9.6283
▁التزام	-9.5949
▁English	-9.6653
▁contact	-9.6574
▁الح	-9.6248
▁انك	-9.5444
▁exploitation	-9.7093
▁بلغ	-9.6113
▁دال	-9.6235
▁يزيد	-9.6308
▁العناصر	-9.6086
▁phase	-9.6760
▁للأطفال	-9.6373
▁تستخدم	-9.6031
▁المكاتب	-9.6386
▁accountability	-9.7042
▁3-	-9.5992
▁العلمية	-9.6384
▁brother	-9.5691
▁الفساد	-9.6463
▁خط	-9.5697
▁الذهاب	-9.5104
▁prepare	-9.7005
المادة	-9.6273
وع	-9.7400
▁زال	-9.5865
▁لمنظمة	-9.6345
▁demand	-9.6903
▁والمساعدة	-9.6313
▁honour	-9.7009
out	-9.6939
▁observations	-9.7122
▁أقول	-9.5097
▁اليابان	-9.6028
▁source	-9.6835
▁أمانة	-9.6277
▁الاتصالات	-9.6276
▁Note	-9.6965
ii	-9.7042
▁تصبح	-9.5748
▁تت	-9.5369
▁ورد	-9.6202
▁مواد	-9.6537
▁رئيسية	-9.6338
▁subregional	-9.6838
تابع	-9.6508
▁monitor	-9.6971
▁زالت	-9.6227
▁Legal	-9.7015
▁العودة	-9.5865
▁وخلال	-9.6328
▁جي	-9.4815
▁أخذ	-9.5511
▁بسرعة	-9.5539
▁والتدريب	-9.6377
▁فيروس	-9.6503
▁الفرص	-9.6155
▁ميثاق	-9.6276
▁AND	-9.6863
▁civilians	-9.7201
▁٨	-9.5026
▁capacities	-9.7062
▁خمسة	-9.6108
▁pretty	-9.5608
▁80	-10.2100
▁border	-9.6951
▁reach	-9.6852
▁Brazil	-9.6125
لو	-9.4815
▁الثقة	-9.6208
▁والهرسك	-9.6203
15	-10.0910
▁1992	-10.0930
▁Members	-9.7724
▁inside	-9.6120
▁القاعدة	-9.6299
▁Kosovo	-9.7437
▁fair	-9.6837
▁Letter	-9.7046
▁لوضع	-9.6339
▁تعتقد	-9.5297
▁بهم	-9.6630
▁partnerships	-9.7351
▁حركة	-9.6295
▁trial	-9.6942
▁Sorry	-9.5845
▁كثيرة	-9.6051
▁Community	-9.7188
▁units	-9.7171
▁independence	-9.7246
▁conclusion	-9.7196
▁أطفال	-9.6075
▁host	-9.7257
▁average	-9.7151
▁ذكر	-9.5841
0	-9.7623
▁criteria	-9.7441
▁دولارا	-9.6811
▁أربعة	-9.6231
▁2014	-10.3177
▁التجاري	-9.6476
▁involving	-9.7303
▁بقدر	-9.6119
60	-10.3436
▁ثانية	-9.5629
▁scientific	-9.7311
▁تسوية	-9.6489
▁يت	-9.5963
▁تبدو	-9.5397
▁success	-9.7132
▁أعني	-9.5063
▁١١	-9.6812
▁90	-10.2917
▁مناسبة	-9.6501
٥	-9.6930
▁المتقدمة	-9.6558
▁لكفالة	-9.6659
در	-9.6358
▁minutes	-9.6166
سن	-9.7028
▁Moreover	-9.7339
▁وتشمل	-9.6648
▁معدلات	-9.6640
▁Bosnia	-9.6666
▁اتفاقات	-9.6729
▁El	-9.6510
as	-10.0322
▁Pakistan	-9.6577
▁city	-9.6661
▁urgent	-9.7181
▁mandates	-9.7619
am	-9.8401
▁Police	-9.7116
▁entire	-9.6879
▁cross	-9.7047
▁إدماج	-9.6488
▁2000.	-10.4788
14	-10.2156
▁يبلغ	-9.6475
▁اللغات	-9.6833
آ	-9.5271
▁culture	-9.7202
▁recovery	-9.7228
▁الهند	-9.6342
▁welcomes	-9.7590
▁Like	-9.6054
▁للدولة	-9.6947
▁entry	-9.7287
▁حكم	-9.6339
يتها	-9.7254
▁تواجه	-9.6413
19	-10.3558
▁ثمة	-9.6661
▁أسلحة	-9.6551
▁thinking	-9.6341
United	-9.7274
▁appeal	-9.7254
عت	-9.6992
▁(2)	-10.3856
▁جريمة	-9.6537
▁2001.	-10.4612
▁الخصوص	-9.6783
▁سكان	-9.6579
▁المدرجة	-9.6862
▁billion	-9.6990
▁mass	-9.7453
▁disaster	-9.7107
▁ولقد	-9.6283
▁traditional	-9.7359
▁Ad	-9.7832
▁١٩٩٥	-9.5636
▁focused	-9.7330
▁وكالات	-9.6840
▁نصف	-9.6169
▁urban	-9.7415
▁والتكنولوجيا	-9.6745
▁أحب	-9.5290
"،	-10.0630
▁growing	-9.7459
▁الأحداث	-9.6656
▁cooperate	-9.7482
▁From	-9.7085
▁للطاقة	-9.6742
▁movement	-9.7288
▁ص	-9.5736
▁والميزانية	-9.6644
▁آراء	-9.6782
▁stressed	-9.7441
▁الشراكة	-9.6575
▁التطورات	-9.6660
▁negative	-9.7271
▁إطلاق	-9.6443
▁والبرامج	-9.6686
▁2001،	-9.6987
▁بالغ	-9.6652
▁أردت	-9.5281
▁ودعم	-9.6953
▁languages	-9.7861
V	-10.0726
▁عبارة	-9.6468
▁دليل	-9.6390
▁أنواع	-9.6734
▁الصراعات	-9.6459
▁الضحايا	-9.6987
▁die	-9.6109
▁J	-9.8750
▁Authority	-9.7463
▁المباشر	-9.6858
▁intended	-9.7619
▁aim	-9.7447
▁Kuwait	-9.6904
▁dealing	-9.7490
▁2000،	-9.7043
▁مراقبة	-9.6780
ـ)	-9.9181
▁لبنان	-9.6930
▁Palestine	-9.7655
٨	-9.6908
▁يعتبر	-9.6502
▁توصي	-9.6826
ظ	-9.5069
▁myself	-9.6258
▁المشاورات	-9.6811
▁تقريرها	-9.7392
▁للحصول	-9.6745
▁اللجان	-9.6961
٤	-9.7184
▁donors	-9.7684
▁Sierra	-9.7148
▁Operations	-9.7832
▁المانحة	-9.6833
▁نائب	-9.6495
▁Somalia	-9.7462
▁سيادة	-9.7030
[	-9.8715
اتها	-9.9292
▁network	-9.7494
▁500	-10.0126
▁61	-10.3431
▁أكون	-9.5623
▁الأصليين	-9.6695
▁Rwanda	-9.7222
▁رأيت	-9.5644
▁بأس	-9.6025
▁timely	-9.7722
▁الشأن	-9.6851
▁المعهد	-9.6983
▁واللجنة	-9.6958
▁Ambassador	-9.7661
▁construction	-9.7565
▁تأخذ	-9.6167
▁استراتيجيات	-9.7018
▁UNFPA	-9.7690
▁Fifth	-9.7617
▁موجز	-9.7048
▁طفل	-9.5926
▁U	-9.8744
▁island	-9.7378
سون	-9.7041
▁Third	-9.7663
▁الحكومي	-9.6752
▁conclusions	-9.7776
25	-10.2309
▁statistics	-9.7735
▁truth	-9.6663
12	-10.0481
▁سمعت	-9.5606
جر	-9.6691
▁ثالثا	-9.7039
▁كندا	-9.6956
▁useful	-9.7949
▁transparency	-9.7725
▁الزراعية	-9.6999
▁الآخر	-9.6211
▁الدوري	-9.7136
▁الأخير	-9.6772
▁الدور	-9.6761
▁occupied	-9.7814
▁التشريعات	-9.7219
▁freedoms	-9.8015
▁أفعل	-9.5437
▁phone	-9.6346
▁summary	-9.7788
▁11.	-9.8663
▁Weapons	-9.7770
▁approval	-9.7692
▁alternative	-9.7492
▁University	-9.7535
▁audit	-9.7572
▁Hi	-9.6695
▁1991	-10.1343
▁Further	-9.7799
ائي	-9.9368
▁اقتراح	-9.6827
▁ذاته	-9.7274
▁Two	-9.7157
▁شهر	-9.6683
▁الانتهاكات	-9.7192
▁الطبية	-9.7170
▁أمن	-9.6657
▁١٥	-9.6541
▁المشمولة	-9.7335
▁formal	-9.7756
▁المشروعة	-9.7347
▁involvement	-9.7803
▁مالية	-9.7054
▁الجماعة	-9.6864
▁wants	-9.7458
▁avoid	-9.7652
▁الانتقالية	-9.7138
▁الجنسانية	-9.7584
▁الرسمي	-9.7105
▁لتلك	-9.6980
45	-10.5415
▁road	-9.7039
▁والعدالة	-9.7175
▁التصديق	-9.7261
▁توزيع	-9.6970
▁اللازم	-9.6788
▁sense	-9.7036
▁٩	-9.5833
▁North	-9.7697
▁Rules	-9.7980
▁الإجمالي	-9.7113
▁الخامس	-9.6887
▁التنظيمية	-9.7293
x	-10.0611
▁مدة	-9.7157
▁النزاع	-9.7415
▁بالنيابة	-9.7016
▁الجارية	-9.6977
▁دولي	-9.6817
▁seven	-9.7552
▁reflect	-9.7697
▁قوانين	-9.7092
▁Leone	-9.7428
▁وأنت	-9.6134
▁كوبا	-9.7114
▁broad	-9.7881
▁elected	-9.7774
▁بأنها	-9.7436
▁تحيط	-9.7100
▁sea	-9.7460
▁النهائي	-9.6966
▁commercial	-9.7785
▁أت	-9.5162
▁deployment	-9.7831
▁١٠	-9.6851
▁فإنها	-9.7521
▁رجال	-9.6028
▁الفرصة	-9.7046
▁democratic	-9.7894
▁المتمثل	-9.7117
▁تقع	-9.7031
مسألة	-9.7248
▁hands	-9.6997
▁إي	-9.6876
▁month	-9.7176
▁forty	-9.7629
▁US	-9.7379
▁العمال	-9.7153
▁caused	-9.7962
▁يريد	-9.5898
▁المستويات	-9.7293
▁respond	-9.7810
▁الف	-9.7262
▁بخصوص	-9.6748
el	-10.1241
▁النهوض	-9.7004
▁confidence	-9.7888
▁Association	-9.7659
▁haven	-9.6702
▁Financial	-9.7993
▁closely	-9.7937
مثل	-9.7021
▁Herzegovina	-9.7307
ch	-10.2858
▁تبلغ	-9.7441
▁Labour	-9.7951
▁export	-9.7929
▁followed	-9.7865
كما	-9.7291
▁إقليمية	-9.7257
▁مبادرة	-9.7406
▁حدة	-9.7207
▁2009.	-10.5670
▁الصناعية	-9.7409
▁متعددة	-9.7304
▁offer	-9.7725
▁دقيقة	-9.6425
▁١٩٩٦	-9.6767
▁b	-9.9092
▁possibility	-9.8008
▁speak	-9.7116
z	-10.0889
▁الموضوعية	-9.7516
▁الواضح	-9.6545
weapon	-9.7728
▁كيفية	-9.7159
▁improvement	-9.7817
▁absence	-9.8063
دم	-9.7207
▁حوالي	-9.7063
▁شرق	-9.7367
▁جرائم	-9.7466
▁bit	-9.6674
▁تعرض	-9.7164
▁operating	-9.8069
▁company	-9.7550
▁fire	-9.6938
ائل	-9.8467
▁فلا	-9.6735
جي	-9.6951
▁الإضافية	-9.7337
▁behind	-9.7093
▁Egypt	-9.7246
▁رأي	-9.6721
▁12.	-9.9450
▁ودون	-9.7305
80	-10.4077
▁معها	-9.8540
▁للموظفين	-9.7348
▁skills	-9.7936
▁racial	-9.7833
▁مفهوم	-9.7034
▁والسيد	-9.6982
▁يخص	-9.7374
▁يكفي	-9.6581
▁المختلفة	-9.7356
▁دوليا	-9.7597
▁للقضاء	-9.7403
▁السفر	-9.7410
▁الإبلاغ	-9.7618
▁دائرة	-9.7413
▁العدد	-9.7400
▁بالمخدرات	-9.7579
▁كاملة	-9.7153
▁الموجودة	-9.7416
▁تشجع	-9.7506
▁وبين	-9.7269
▁رد	-9.7230
▁attacks	-9.8130
▁جهودها	-9.7659
▁الخطوات	-9.7576
▁relief	-9.8298
▁target	-9.7877
▁الموافقة	-9.7355
17	-10.1995
▁عادة	-9.7050
▁electronic	-9.8267
▁refugee	-9.7945
كر	-9.6267
▁lower	-9.8078
▁ستة	-9.7714
▁3,	-10.1439
يني	-9.6841
▁65	-10.3346
▁ability	-9.8082
▁جاء	-9.6726
▁assessments	-9.8519
▁عالم	-9.6822
▁الأقليات	-9.7630
▁ومنطقة	-9.7518
ist	-10.0502
▁تقريره	-9.8048
▁damage	-9.7948
▁Any	-9.7672
▁المبذولة	-9.7621
▁جعل	-9.6593
▁multi	-9.8080
▁net	-9.7803
▁ميزانية	-9.7660
▁difficulties	-9.8226
▁الأولية	-9.7742
▁باب	-9.7292
▁الصحي	-9.7703
▁لحفظ	-9.7514
13	-10.1269
▁concrete	-9.8393
▁الزواج	-9.7224
▁مقدم	-9.7213
▁membership	-9.8287
▁إقرار	-9.7641
▁probably	-9.7155
▁enhancing	-9.8137
▁معرفة	-9.6998
▁دولارات	-9.7639
▁Assistance	-9.8106
▁الصومال	-9.7679
بت	-9.6550
▁تناول	-9.7050
▁دورات	-9.7702
▁المؤرخة	-9.7664
▁والإقليمية	-9.7750
▁Officer	-9.7757
▁occupation	-9.8377
▁measure	-9.8119
▁والأربعين	-9.7398
▁planned	-9.7944
▁الجوانب	-9.7539
▁بلدا	-9.7580
▁أماكن	-9.7599
▁اعتمد	-9.7494
▁forest	-9.8424
▁_	-10.3645
▁professional	-9.8124
▁مفوضية	-9.7765
▁علاقة	-9.6964
▁happy	-9.7203
▁التزامات	-9.7673
ـ(	-9.6494
▁الملكية	-9.7353
▁door	-9.7020
▁expertise	-9.8339
▁وحتى	-9.7337
▁كلمة	-9.6964
▁happen	-9.7088
▁الملحق	-9.7481
▁الوعي	-9.7690
▁ملايين	-9.7435
▁جوانب	-9.7400
▁نظرت	-9.7491
▁والتعليم	-9.7773
▁rehabilitation	-9.8301
▁تعميم	-9.7787
▁إنفاذ	-9.7784
دار	-10.0718
▁بلا	-9.7364
▁Turkey	-9.7657
▁الناشئة	-9.7671
▁جامعة	-9.7476
▁conventions	-9.8408
▁immediate	-9.8405
▁62	-10.3391
▁Technical	-9.8197
▁الأساس	-9.7414
▁العنصرية	-9.7546
▁تحمل	-9.7240
▁cash	-9.8109
▁وجدت	-9.6447
▁السلمية	-9.7560
أنت	-9.6177
resolution	-9.7995
▁والعمل	-9.7587
▁tools	-9.8294
القرار	-9.7392
▁المناقشات	-9.7727
▁written	-9.8311
▁أربع	-9.7598
فر	-9.6880
▁ببيان	-9.7613
▁documentation	-9.8439
▁System	-9.8269
▁الجماعية	-9.7959
▁NGOs	-9.8715
٧	-9.8624
▁undertake	-9.8368
▁المستقلة	-9.8063
▁holding	-9.8123
▁c	-9.9984
▁التشريعية	-9.7682
▁حجم	-9.7570
وية	-10.0154
▁express	-9.8577
▁fuck	-9.7094
٩	-9.8271
▁فرنسا	-9.7562
▁likely	-9.8314
▁الاتفاقات	-9.7979
▁committee	-9.8363
▁actively	-9.8670
▁الل	-9.8356
▁described	-9.8592
▁definition	-9.8289
▁الوفاء	-9.7664
▁Islands	-9.7533
▁marriage	-9.8257
▁الأكثر	-9.7466
▁الترتيبات	-9.7567
▁تساعد	-9.7301
▁Territories	-9.8592
رار	-10.0335
de	-10.0529
▁encourages	-9.8593
▁leading	-9.8480
▁الأقاليم	-9.7765
▁شخصا	-9.7528
▁النوع	-9.7325
▁concept	-9.8357
▁ديفوار	-9.8048
▁توصية	-9.7760
▁punishment	-9.8415
▁الإسرائيلية	-9.8026
▁الكبرى	-9.7702
▁extended	-9.8586
▁الأشياء	-9.6515
▁markets	-9.8867
▁خطر	-9.7437
▁victim	-9.7957
▁درجة	-9.7703
▁Stop	-9.7273
▁Her	-9.8086
▁مؤسسة	-9.7886
▁Bureau	-9.8584
▁الشاملة	-9.8100
11	-10.1024
▁Yugoslavia	-9.8202
▁للجميع	-9.7847
▁طلبات	-9.8009
▁المجموعات	-9.7956
▁ترك	-9.6675
▁Vice	-9.8529
▁blood	-9.7653
▁سلطة	-9.7703
▁Western	-9.8534
ness	-9.8445
▁weeks	-9.8050
▁الاحتجاز	-9.8273
▁المدينة	-9.7066
▁v	-9.9571
▁تجري	-9.7727
▁Policy	-9.8546
▁despite	-9.8581
▁اختيار	-9.7702
▁Cultural	-9.8539
▁البوسنة	-9.7560
third	-9.8680
▁سبق	-9.7448
▁democracy	-9.8606
▁للأسلحة	-9.7822
▁الديون	-9.7996
▁للمحكمة	-9.7704
35	-10.5248
▁model	-9.8331
لين	-9.6884
▁تسجيل	-9.7733
▁عضوا	-9.8079
▁Financing	-9.8857
▁agricultural	-9.8584
▁شروط	-9.7844
▁Chair	-9.8535
▁minimum	-9.8667
▁forced	-9.8599
▁عمله	-9.8259
▁مثلا	-9.8333
▁origin	-9.8590
▁payment	-9.8736
▁وقالت	-9.7777
▁Netherlands	-9.7762
▁giving	-9.8247
_	-10.3556
▁بالنظر	-9.7878
▁ساعة	-9.7208
▁للمؤتمر	-9.7870
▁advance	-9.8439
▁يدعو	-9.7929
▁الأصول	-9.7978
27	-10.3183
▁Experts	-9.8805
▁بالكامل	-9.7662
▁design	-9.8381
▁generally	-9.8756
co	-10.0615
▁داخليا	-9.8079
▁Space	-9.8852
nd	-9.8614
▁الجنساني	-9.8240
▁مدينة	-9.7584
▁تعاون	-9.7692
▁صغيرة	-9.7246
▁محل	-9.7507
▁وضعت	-9.7752
▁الشركاء	-9.8243
▁الأسواق	-9.7852
▁الرفيع	-9.8129
▁worked	-9.8033
▁بإنشاء	-9.7990
▁Tell	-9.7472
▁launched	-9.8885
▁إيلاء	-9.8048
▁workshops	-9.8868
▁Italy	-9.7797
▁Strategy	-9.8697
▁بمبلغ	-9.7923
▁collection	-9.8831
▁59	-10.2707
▁efficient	-9.8689
▁offences	-9.8906
▁بقرار	-9.7955
v	-10.0044
▁يتطلب	-9.7909
▁واضحة	-9.7929
▁خبراء	-9.8150
▁انخفاض	-9.8220
▁بيئة	-9.8098
▁placed	-9.8836
▁companies	-9.8565
-5	-10.3933
▁خفض	-9.8072
▁الاعتراف	-9.8119
▁Zealand	-9.8004
٦	-9.8366
▁فهي	-9.7663
▁donor	-9.8681
▁انتهاء	-9.8237
▁البعض	-9.7343
▁combating	-9.8992
18	-10.3608
▁الأسر	-9.8033
▁compared	-9.8759
▁knows	-10.0237
▁recruitment	-9.8809
ir	-10.2022
▁اسم	-9.7691
شي	-9.9090
▁finance	-9.8621
مي	-9.6320
▁الجوية	-9.8139
▁tried	-9.7853
▁territories	-9.8794
▁enhanced	-9.8919
▁قمت	-9.6850
▁رؤساء	-9.8305
▁يسمح	-9.7905
▁ات	-9.7868
▁المكسيك	-9.8023
▁shared	-9.8667
▁oil	-9.8603
▁shown	-9.8817
▁fourth	-9.8878
▁defined	-9.8952
▁Lord	-9.7740
▁المطلوبة	-9.8119
▁فعال	-9.8081
▁64	-10.4324
▁estimates	-9.8905
▁الإداري	-9.8059
▁وكل	-9.7674
▁غرب	-9.8078
▁لتحديد	-9.8121
▁الجماعات	-9.8275
▁١٣	-9.8090
▁بالعمل	-9.7980
▁whom	-9.8803
▁Training	-9.8756
▁{\\	-9.7656
▁determine	-9.8662
▁immediately	-9.8774
▁الفلسطينيين	-9.8255
▁Indonesia	-9.7896
وك	-9.7632
70	-10.4939
▁تأثير	-9.8003
▁looks	-9.8390
▁causes	-9.8913
▁Decides	-9.8935
▁الفئات	-9.8374
▁2009,	-9.9271
%	-10.1466
▁urges	-9.8996
▁المعدات	-9.8015
▁recognition	-9.8991
j	-10.0151
▁تمر	-9.8593
▁٢١	-9.7684
وني	-9.7493
انت	-9.9835
▁Be	-9.8028
▁قانوني	-9.8503
▁والتنسيق	-9.8241
▁الإلكتروني	-9.8724
▁discuss	-9.8681
▁والتمييز	-9.8155
▁allowed	-9.8571
▁election	-9.8704
▁Many	-9.8742
▁Peacekeeping	-9.9377
▁الواجب	-9.8123
▁Sea	-9.8763
▁رعاية	-9.8339
▁accounts	-9.9615
▁السجن	-9.7524
▁المتفق	-9.8199
▁الممتلكات	-9.8404
▁Spain	-9.8068
▁التفتيش	-9.8226
▁representation	-9.8988
▁أدى	-9.8100
▁تحقق	-9.7990
▁coordinated	-9.9208
art	-9.9671
▁urged	-9.8937
il	-10.3563
▁medium	-9.8875
بال	-9.9616
▁غينيا	-9.8195
▁unless	-9.8624
▁تعريف	-9.8106
16	-10.2501
▁internationally	-9.9177
مر	-9.7758
▁senior	-9.9019
▁nor	-9.8798
▁separate	-9.8924
▁القطاعات	-9.8360
▁inform	-9.8917
▁Liberia	-9.8498
▁يؤكد	-9.8157
▁الإعدام	-9.8491
▁تيمور	-9.8363
▁migration	-9.8897
ائها	-10.0045
▁;	-9.8506
▁UNIDO	-9.9240
▁engaged	-9.8920
▁الهياكل	-9.8307
▁السن	-9.8544
▁المبادرة	-9.8314
▁أسباب	-9.8305
▁مهلا	-9.7097
▁تجاه	-9.8069
▁interested	-9.8697
▁aircraft	-9.9083
▁الكاملة	-9.8391
▁واسعة	-9.8390
▁الخارج	-9.7527
توقيع	-9.8319
▁Cyprus	-9.8101
▁drugs	-9.8882
▁تعتمد	-9.8288
▁reviewed	-9.9034
دت	-9.6845
▁strengthened	-9.9108
▁stuff	-9.7619
▁participated	-9.9226
كن	-9.8556
of	-9.9034
▁ذي	-9.8353
▁imposed	-9.9089
▁والمحيط	-9.8660
▁المنتدى	-9.8412
▁Northern	-9.8347
▁والاتحاد	-9.8346
▁religion	-9.8696
▁ألمانيا	-9.8228
▁couldn	-9.7726
سام	-9.9300
W	-10.3340
▁اللعنة	-9.6883
▁dad	-9.7711
▁headquarters	-9.9010
▁الأزمة	-9.8650
▁مقرر	-9.8109
▁constitute	-9.9096
▁المبدأ	-9.8188
▁لعدم	-9.8329
▁بعمل	-9.7845
▁الهامة	-9.8323
ion	-10.0295
▁determined	-9.9046
▁husband	-9.8190
▁تقدير	-9.8291
▁declaration	-9.9122
▁grounds	-9.9069
اط	-10.0374
▁تؤثر	-9.8350
▁خدمة	-9.8098
▁tonight	-9.7819
▁actual	-9.9174
▁students	-9.8920
دو	-9.8339
J	-10.0966
▁type	-9.8832
▁ورغم	-9.8331
جد	-9.9158
▁تحدث	-9.7812
▁تتصل	-9.8145
▁ex	-10.0939
▁floor	-9.8824
▁supposed	-9.7765
▁الإصلاح	-9.8315
@	-10.5608
▁workshop	-9.9102
▁الجنائي	-9.8533
▁التبرعات	-9.8504
▁reduced	-9.8989
▁بنا	-9.7610
▁favour	-9.8879
▁raise	-9.8815
▁options	-9.9116
▁records	-9.9099
▁انتهاك	-9.8488
▁ز	-9.9660
▁الاستفادة	-9.8597
▁function	-9.8949
▁غضون	-9.8421
48	-10.5792
▁inclusion	-9.9303
▁comes	-9.8890
▁الجزرية	-9.8343
▁لاحقا	-9.7808
كي	-9.7395
▁stand	-9.8245
▁تشعر	-9.7766
▁الثلاثة	-9.8461
second	-9.9066
▁emphasized	-9.9337
▁شك	-9.8046
▁نفسك	-9.7245
▁جد	-9.7576
▁وغيره	-9.8519
▁أشعر	-9.7207
▁الأجنبي	-9.8429
▁والقانون	-9.8659
▁الفتيات	-9.8156
▁ينظر	-9.8249
▁بداية	-9.8066
▁listen	-9.7858
▁المعتمدة	-9.8493
▁wide	-9.9116
حت	-10.0399
▁مقارنة	-9.8769
▁١٤	-9.8517
▁4-	-9.7952
▁وضمان	-9.8840
▁accepted	-9.9074
▁types	-9.9308
▁complex	-9.9337
▁والدول	-9.8581
▁Dad	-9.7998
▁organs	-9.9258
▁owing	-9.9198
▁ad	-10.2645
▁Sir	-9.8475
▁لبناء	-9.8678
▁chance	-9.8135
▁site	-9.9282
▁للنظر	-9.8588
▁أرى	-9.7355
▁ترتيبات	-9.8579
▁boys	-9.8807
▁الصعيدين	-9.8820
▁history	-9.8815
▁لأحكام	-9.8445
▁١٩٩٨	-9.8526
▁13.	-10.0368
▁kid	-9.7945
▁الفاعلة	-9.8910
▁الاستراتيجي	-9.8995
▁المهام	-9.8676
▁near	-9.8868
▁remaining	-9.9381
ائ	-9.9336
▁Timor	-9.9014
▁agree	-9.8874
▁المختصة	-9.8710
▁crucial	-9.9312
▁عقدت	-9.8600
▁Really	-9.7974
▁المشاركين	-9.8713
راء	-10.0933
▁الأثر	-9.8608
▁science	-9.8934
▁الأدنى	-9.8771
▁الاستجابة	-9.8667
▁المراقبة	-9.8459
▁الأسماك	-9.8853
▁القادمة	-9.8066
▁رفع	-9.8338
▁Norway	-9.8606
▁والحريات	-9.8562
▁learned	-9.9168
ليس	-9.7690
▁السامي	-9.8461
▁Me	-9.9077
▁gross	-9.9046
بين	-9.8499
▁–	-9.9402
▁الشخصية	-9.8557
▁الوفد	-9.8602
▁Research	-9.9254
▁cut	-9.8344
(:	-9.8509
▁Framework	-9.9389
▁وأشارت	-9.9013
▁بتعزيز	-9.8719
▁news	-9.9570
▁المسلح	-9.8678
▁scale	-9.9078
▁شمال	-9.8431
▁solutions	-9.9308
▁الدورات	-9.8834
▁Jesus	-9.8864
▁earlier	-9.9037
for	-10.0358
▁باعتبارها	-9.8836
▁المطالبات	-9.8510
▁التأكيد	-9.8355
▁Staff	-9.9346
proliferation	-9.9535
▁town	-9.8212
▁لاتفاقية	-9.8948
33	-10.3985
▁authorized	-9.9448
▁represented	-9.9370
▁industry	-9.9491
▁threats	-9.9590
▁Ministers	-9.9651
▁الرأي	-9.8589
▁namely	-9.9547
▁ايضا	-9.7711
▁perspective	-9.9482
w	-10.2725
▁press	-9.9064
▁مستقلة	-9.8831
راد	-10.1548
▁component	-9.9509
▁تخفيض	-9.8612
▁Gender	-9.9453
▁الص	-9.9212
▁integrity	-9.9531
▁فمن	-9.8371
▁kids	-9.8134
▁Trust	-9.9158
وت	-9.7491
▁مصر	-9.8684
▁أجهزة	-9.8560
▁موظف	-9.8568
▁سيراليون	-9.8484
▁highest	-9.9386
age	-10.1217
▁series	-9.9260
▁moment	-9.8326
▁اعتقد	-9.7385
▁وتحديد	-9.8892
▁الغ	-9.9265
▁التنوع	-9.9042
▁specifically	-9.9539
▁فرض	-9.8267
▁subsequent	-9.9380
▁observers	-9.9302
▁العلم	-9.8401
▁بعثات	-9.8908
▁بدعم	-9.8760
ninth	-9.9377
ive	-10.2148
انا	-9.9309
ذا	-9.7851
▁ونظرا	-9.9006
▁al	-10.0843
▁أقرب	-9.8487
▁الثقافية	-9.9008
▁١٩٩٧	-9.8305
▁وتقييم	-9.8772
▁بمن	-9.9131
▁السورية	-9.9054
▁participating	-9.9669
▁لديهم	-9.8202
▁يساعد	-9.8718
▁assess	-9.9252
▁recognize	-9.9211
▁attack	-9.8932
▁اجل	-9.7313
▁المدرسة	-9.8113
▁العظمى	-9.8809
▁300	-10.3168
▁resulted	-9.9622
▁سا	-9.9148
▁١٩٩٣	-9.7675
▁تبذلها	-9.8941
▁رأس	-9.8441
▁eight	-9.9153
▁لزيادة	-9.8856
▁حلقات	-9.8981
▁2010.	-10.7454
▁figure	-9.8590
▁ترد	-9.8603
▁المترتبة	-9.8846
هي	-10.2284
▁base	-9.9198
▁Internet	-9.9347
▁eliminate	-9.9536
▁للفقرة	-9.8868
▁الكبيرة	-9.8522
▁risks	-9.9720
▁yes	-9.8219
▁المتوسط	-9.8760
ul	-10.3778
▁competition	-9.9594
▁التام	-9.8806
▁الإيرادات	-9.8940
▁round	-9.9086
▁الميثاق	-9.8770
▁emphasis	-9.9461
▁تنفيذها	-9.9534
no	-10.0286
كان	-9.8390
▁خطوات	-9.8917
▁mom	-9.8375
▁الأفضل	-9.7978
▁التقدير	-9.8905
▁reducing	-9.9825
▁الاعتماد	-9.8728
▁عموما	-9.8837
▁Even	-9.8864
▁الصفحة	-9.8685
▁14.	-10.0871
▁الإسرائيلي	-9.8803
▁شعب	-9.8444
▁Corr	-10.4549
بول	-9.9541
▁المن	-10.0858
▁ويجري	-9.9064
▁targets	-9.9509
▁إزالة	-9.8799
▁Asian	-9.9655
▁Burundi	-9.9068
صف	-9.9633
▁الموجهة	-9.8923
na	-10.1553
▁المتعدد	-9.8811
▁الإلكترونية	-9.9210
▁tomorrow	-9.8439
▁affairs	-9.9658
▁الساحلية	-9.9038
▁Chamber	-9.9769
▁سياسية	-9.8929
▁الفعال	-9.8888
▁break	-9.8575
▁appointed	-9.9722
▁spirit	-9.9351
▁centre	-9.9639
▁ارتفاع	-9.9069
▁2009،	-10.0532
أي	-9.9184
▁ratification	-9.9679
ارات	-10.1702
▁خارجية	-9.8722
▁easy	-9.8703
▁أسعار	-9.8955
▁أشار	-9.8766
▁وبرامج	-9.8933
غي	-9.9110
▁75	-10.4235
▁فرقة	-9.8780
▁الطرق	-9.8845
▁السوق	-9.8688
▁hit	-9.8281
▁Switzerland	-9.9230
▁سلطات	-9.9125
▁chapter	-9.9584
▁الآلية	-9.9278
28	-10.3876
▁فضلك	-9.7708
ارة	-9.9255
▁Mrs	-10.0427
▁unit	-9.9638
رب	-9.8347
▁secure	-9.9806
▁شيئ	-9.7546
▁فهو	-9.8404
.1)	-10.5502
▁ولن	-9.8478
▁(1	-10.5667
▁deep	-9.9374
▁للدورة	-9.9118
▁تشكيل	-9.8862
▁بعدم	-9.9036
▁eyes	-9.8840
▁insurance	-9.9819
eighth	-9.9593
سو	-9.8893
▁مشترك	-9.8945
▁وتحقيق	-9.9103
▁الثلاث	-9.8783
▁الجحيم	-9.7586
▁والإ	-10.2584
▁كاف	-9.8838
▁consent	-9.9849
▁بالتقرير	-9.9476
▁places	-10.0282
▁extend	-9.9694
▁مد	-9.9523
▁الألفية	-9.8841
▁تعرب	-9.9241
▁الآليات	-9.9302
▁٢٠	-9.8482
▁guarantee	-9.9681
▁تصميم	-9.9187
▁الاست	-10.3013
▁mutual	-9.9901
▁والآن	-9.7755
▁مرافق	-9.9150
▁لإجراء	-9.9194
▁شأنه	-9.9017
▁امرأة	-9.8669
▁story	-9.8624
▁البيولوجي	-9.9254
▁وقعت	-9.8982
▁Chairperson	-10.0009
▁البنك	-9.8900
▁الغابات	-9.9256
▁يصبح	-9.8644
▁died	-9.8715
▁Humanitarian	-9.9805
▁يضطلع	-9.9221
▁Argentina	-9.8892
دان	-10.0712
▁ــ	-9.8151
▁الممارسة	-9.9302
▁Technology	-9.9947
▁الشبكة	-9.9049
ro	-10.3403
▁وخدمات	-9.9494
▁1999,	-10.0802
▁الجانب	-9.8541
▁Gaza	-9.9744
▁تهدف	-9.9512
▁ذاتها	-9.9642
▁applications	-10.0182
▁عالمية	-9.9304
pos	-10.0762
36	-10.4819
رد	-9.9511
▁check	-9.8597
▁النهائية	-9.9452
▁لكنه	-9.8762
37	-10.4362
▁يستطيع	-9.8414
▁Decade	-9.9865
▁worry	-9.8775
▁شرطة	-9.8901
▁بلدي	-9.8684
▁الكبير	-9.8588
▁organizational	-10.0047
▁credit	-9.9626
47	-10.5417
وز	-10.0159
▁السلوك	-9.9172
▁اتخذت	-9.8845
▁fields	-10.0308
▁Population	-9.9739
▁المؤسسية	-9.9487
▁aware	-9.9620
43	-10.4748
▁الناجمة	-9.9264
▁غ	-9.8166
▁أرجوك	-9.7932
▁واضح	-9.8668
▁الإجراء	-9.9180
▁Sub	-10.0484
▁هايتي	-9.9416
▁طويل	-9.8488
▁تخطيط	-9.9201
Y	-10.2365
▁جهاز	-9.8852
▁تدخل	-9.8912
▁والإجراءات	-9.9344
▁وسط	-9.9010
▁للتو	-9.8032
▁الأسبوع	-9.8582
▁Listen	-9.8656
▁السلامة	-9.9963
را	-9.6504
▁collective	-9.9920
رس	-9.9458
▁أشخاص	-9.8884
دام	-10.3798
▁إل	-9.9150
▁التاريخ	-9.9073
▁الي	-10.0093
96	-10.7057
▁paras	-10.0543
▁قلق	-9.8739
▁الكتاب	-9.8678
CP	-10.2502
▁مقترحات	-9.9385
90	-10.7113
▁approximately	-10.0092
▁ورقة	-9.9179
▁Questions	-10.0288
▁وقوع	-9.9301
تا	-9.9972
▁Prosecutor	-10.0195
▁الشكوى	-9.9809
▁المرتبطة	-9.9523
▁قلقها	-9.9719
▁يواصل	-9.9294
▁hurt	-9.8557
▁15.	-10.2481
44	-10.4621
UN	-10.3600
▁العوامل	-9.9269
▁مبادرات	-9.9486
▁وسائط	-9.9539
▁مجتمع	-9.9179
▁المواطنين	-9.9553
▁Allah	-9.8741
▁advisory	-10.0218
▁كوت	-9.9706
▁المدعي	-9.9358
▁Another	-9.9901
▁استجابة	-9.9230
▁Deputy	-9.9975
▁تمكين	-9.9400
▁ليلة	-9.8234
▁corruption	-9.9925
▁صورة	-9.8680
▁المخصص	-9.9376
حل	-10.0002
▁category	-10.0169
▁waste	-9.9561
▁Status	-10.0167
/1	-10.0439
▁exactly	-9.8839
39	-10.5710
29	-10.4264
▁Man	-9.9842
▁لمساعدة	-9.9346
▁increasingly	-10.0079
▁More	-9.9800
▁تود	-9.9044
46	-10.6839
22	-10.3626
▁appointment	-10.0015
▁الاستشاري	-9.9460
▁عل	-9.9226
▁works	-10.1846
ary	-10.2726
▁outcomes	-10.0365
▁الإقليم	-9.9324
اك	-9.8620
على	-9.8320
iv	-10.1429
▁المنظور	-9.9503
seventh	-10.0114
▁بند	-9.9220
▁جو	-9.9146
▁والإدارة	-9.9457
▁دخول	-9.9246
فة	-10.0467
ian	-10.1743
▁الزيادة	-9.9641
يها	-10.2231
▁الأرجنتين	-9.9405
▁ترغب	-9.9153
ate	-10.5025
▁Introduction	-10.0369
▁registration	-10.0109
▁Haiti	-9.9102
▁Ukraine	-9.9359
▁norms	-10.0020
▁sign	-9.9352
▁contributed	-10.0301
▁التحقق	-9.9461
▁contains	-10.0263
▁لابد	-9.8387
▁ومكتب	-9.9683
▁convention	-10.0101
▁expression	-9.9786
▁publication	-10.0077
▁speaking	-10.0045
▁صعيد	-9.9719
▁emerging	-10.0125
▁ديسمبر	-9.9381
▁choice	-9.9558
▁Provision	-10.0128
▁(19	-10.7492
▁المعقود	-9.9482
77	-10.6477
▁جهة	-9.9258
▁للأ	-10.2270
▁consumption	-10.0069
▁تذهب	-9.8163
South	-10.0132
▁enjoyment	-10.0372
▁للبعثة	-9.9573
/4	-10.2990
▁fall	-9.9633
▁الطابع	-9.9458
▁الكلمة	-9.9446
▁مهما	-9.9107
▁إنهم	-9.8559
▁وذكر	-9.9681
▁territorial	-10.0423
▁رفض	-9.9280
▁Give	-9.9098
▁5-	-9.8894
▁published	-10.0214
CONF	-10.6816
ia	-10.3123
▁ض	-10.0216
▁whatever	-9.9333
▁TO	-9.9954
▁offence	-10.0224
▁mainly	-10.0277
▁(212)	-10.6863
▁crazy	-9.8967
▁الأحيان	-9.9364
te	-10.1986
▁وراء	-9.9295
▁تحدد	-9.9552
▁تعال	-9.8160
▁fulfil	-10.0360
▁huh	-9.9001
55	-10.6437
▁4,	-10.3245
▁وأخيرا	-9.9473
▁charge	-9.9769
▁63	-10.4157
▁elimination	-10.0297
▁وتلاحظ	-9.9925
▁المنافسة	-9.9379
قل	-9.8968
▁إنهاء	-9.9663
▁بمقتضى	-9.9605
▁expenditures	-10.0569
fourth	-10.0347
▁Co	-10.1034
▁failure	-10.0216
▁وك	-10.3722
▁هام	-9.9724
▁أساسي	-9.9975
يك	-9.9171
▁القضائي	-9.9782
▁felt	-9.9797
▁fun	-9.9104
▁الذرية	-9.9735
▁بالأ	-10.2031
▁Nothing	-9.9222
▁بشأنها	-10.1139
▁Internal	-10.0390
▁ahead	-9.9557
▁تحويل	-9.9487
▁وفده	-9.9622
▁البحوث	-9.9712
▁Colombia	-9.9245
▁المؤسسة	-9.9803
▁وصول	-9.9551
▁العقاب	-9.9679
▁موقف	-9.9336
▁والجريمة	-10.0119
▁أذهب	-9.8388
مو	-9.9665
▁العقوبة	-9.9864
▁shot	-9.9371
▁minute	-9.8977
▁الطرفين	-9.9728
▁test	-9.9724
▁أهم	-9.9933
▁Adoption	-10.0552
▁المطلوب	-9.9531
$	-10.1073
▁reintegration	-10.0396
▁answer	-9.9356
▁arrest	-9.9837
▁goes	-9.9283
▁findings	-10.0627
▁كاملا	-9.9787
ty	-10.2485
▁التمتع	-9.9926
ta	-10.2852
▁تتسم	-9.9741
▁سجل	-9.9368
دون	-10.0039
▁engage	-10.0111
▁front	-9.9370
▁الأسباب	-9.9605
▁Noting	-10.0714
▁rise	-10.0369
▁Sweden	-9.9606
▁sovereignty	-10.0598
▁أصل	-9.9459
▁لتوفير	-9.9933
از	-10.1716
▁recorded	-10.0455
▁contracts	-10.0718
▁تسمح	-9.9458
▁العسكري	-9.9506
▁competent	-10.0545
26	-10.3884
▁تشغيل	-9.9522
▁minorities	-10.0436
▁الإنتاج	-9.9771
▁campaign	-10.0247
▁X	-10.1302
▁بالأشخاص	-10.0200
▁Food	-10.0423
ter	-10.4056
▁Their	-10.0429
▁send	-9.9635
▁لمكتب	-9.9668
23	-10.4544
ـــــ	-9.9485
▁بوضوح	-9.9520
▁البرازيل	-9.9712
49	-10.6256
▁والموارد	-9.9874
▁Mom	-9.9334
▁هنالك	-9.8790
▁reservations	-10.0722
▁ولجنة	-9.9938
قر	-9.9874
▁انتظر	-9.8509
▁الهاتف	-9.9161
la	-10.2429
مل	-9.8192
▁married	-9.9636
▁مواجهة	-9.9797
▁الدعوة	-9.9859
▁reforms	-10.1096
▁الكربون	-9.9944
▁أمرا	-9.9371
▁candidates	-10.0545
▁لإعادة	-9.9618
بار	-10.1843
▁تذكر	-9.8979
▁٣٠	-9.9134
▁الأدلة	-9.9820
▁دعما	-10.0267
▁eat	-9.9468
▁يد	-9.9350
راف	-10.1864
▁decide	-10.0191
▁Rule	-10.0533
▁وهم	-10.1386
▁16.	-10.1880
▁بتقرير	-9.9807
▁reconciliation	-10.0776
▁المهمة	-9.9773
▁direction	-10.0362
▁مس	-10.0844
▁respectively	-10.0659
▁الدخول	-9.9509
▁حصول	-10.0164
▁zone	-10.0512
▁Will	-9.9420
▁quite	-9.9781
▁affect	-10.0547
▁endorsed	-10.0585
Signed	-10.0696
▁إقليم	-9.9843
▁القيمة	-9.9824
▁leaving	-9.9886
▁رب	-9.8717
▁Parliament	-10.0604
▁وأود	-9.9723
▁functioning	-10.0662
▁يعيشون	-10.0014
21	-10.4270
▁ولكنها	-10.0099
▁seems	-9.9789
رى	-9.8531
▁alleged	-10.0682
sixth	-10.0577
▁تجعل	-9.9151
▁صحة	-9.9925
▁defence	-10.0845
▁Day	-10.0173
▁tasks	-10.0792
vi	-10.3213
▁sentence	-10.0640
▁فت	-9.9115
fifth	-10.0784
▁1373	-10.6624
▁قرر	-9.9786
▁٣١	-9.9508
▁except	-10.0447
38	-10.5309
▁substantial	-10.0690
▁OK	-9.9293
▁الوحيدة	-9.9377
▁categories	-10.0957
جل	-10.0856
▁top	-10.0327
▁تريدين	-9.8759
ويل	-10.0926
▁قبرص	-9.9758
▁Nigeria	-9.9517
▁values	-10.0861
▁متوسط	-9.9846
▁calling	-9.9974
▁highlighted	-10.0579
▁والمالية	-10.0095
▁شي	-9.9795
▁existence	-10.0585
▁أمين	-10.0291
▁structures	-10.0958
▁السادس	-9.9826
time	-10.0760
▁الجوي	-9.9814
▁subsidiary	-10.0780
▁66	-10.4118
▁daughter	-9.9260
▁indicate	-10.0649
▁قبول	-9.9871
▁التفاوض	-9.9826
▁investigations	-10.0771
▁تصل	-9.9506
▁observed	-10.0713
▁والزراعة	-10.0094
▁Official	-10.0846
▁سوء	-10.0044
▁Darfur	-10.0821
▁باعتماد	-10.0011
ie	-10.0661
▁granted	-10.0809
▁Jerusalem	-10.0674
▁ones	-10.3404
"؟	-9.9630
▁نقطة	-9.9522
▁wishes	-10.0668
▁listed	-10.0864
▁بفيروس	-10.0204
▁بلغت	-10.0378
▁sought	-10.0796
▁عامل	-10.0167
▁responses	-10.1151
▁marine	-10.0667
▁بأنك	-9.8923
▁مش	-10.0626
▁Jehovah	-10.1394
▁ترمي	-9.9922
▁requirement	-10.0875
▁الاستخدام	-10.0120
78	-10.8207
تر	-9.8311
▁لعملية	-10.0289
▁هاء	-10.0018
▁دارفور	-10.0188
▁البرلمان	-10.0185
▁vital	-10.0714
▁Control	-10.0784
▁تبين	-10.0124
سير	-10.0999
▁save	-9.9754
▁Indigenous	-10.0880
▁بحماية	-10.0215
▁غزة	-10.0390
58	-10.7000
▁forum	-10.0787
▁الإرهابية	-9.9989
▁message	-10.0192
▁القضاة	-10.0224
▁لتمويل	-10.0176
▁played	-10.0455
▁book	-9.9880
2-	-10.1416
▁2010,	-10.1140
▁أكن	-9.8869
▁Croatia	-9.9660
▁تتناول	-10.0048
▁جلسات	-9.9976
▁الشركة	-9.9855
▁Prime	-10.0538
—	-10.1291
▁مهام	-10.0233
▁لقانون	-10.0034
▁constitutional	-10.0738
▁Open	-10.0531
65	-10.6942
▁بغرض	-10.0283
▁بيت	-10.0139
طر	-10.1037
▁sharing	-10.0826
▁باكستان	-10.0076
▁تتطلب	-9.9978
▁creating	-10.0950
سر	-10.0238
▁considering	-10.0801
▁Fifty	-10.1286
▁أقصى	-10.0135
75	-10.7498
▁إنجاز	-9.9918
▁l	-10.2569
▁التكلفة	-10.0054
البند	-10.0420
▁تأتي	-9.9247
صح	-10.3571
اني	-9.9866
▁والنساء	-10.0575
▁delay	-10.0921
▁تبدأ	-9.9827
ce	-10.1038
▁Morocco	-9.9888
▁العلاقة	-10.0093
▁تصويت	-9.9856
▁مصدر	-9.9826
▁migrants	-10.1010
▁يكفل	-10.0362
▁(2001)	-10.6316
▁القبض	-10.0045
▁أدنى	-10.0050
اع	-9.9251
▁الحادي	-10.0236
▁وقانون	-10.0188
▁trends	-10.0995
▁executive	-10.0970
▁القيود	-10.0304
05	-10.6189
▁begin	-10.0416
ent	-10.5202
ol	-10.6710
▁forth	-10.1486
▁outstanding	-10.0999
▁سعيد	-9.8979
▁فتاة	-9.9251
é	-10.4190
▁الوزاري	-10.0193
continued	-10.1286
▁١٦	-9.9673
▁آسفة	-9.8813
▁ومنذ	-10.0166
▁الضرورية	-10.0212
▁industrial	-10.0853
▁release	-10.0609
▁العمر	-9.9998
▁Refugees	-10.0955
▁الط	-10.1005
WG	-10.7685
▁nationality	-10.1130
رق	-10.0865
ينا	-10.2679
▁formulation	-10.1012
▁يتيح	-10.0321
▁الجيش	-10.0052
▁سلسلة	-10.0045
▁الناتج	-10.0138
▁منتصف	-9.9828
▁supplies	-10.0897
▁بشدة	-10.0011
▁للاتحاد	-10.0384
▁preventing	-10.1165
▁De	-10.2423
▁otherwise	-10.0985
▁بعيدا	-9.9168
▁realization	-10.1045
▁إدخال	-10.0145
▁exist	-10.0611
▁Most	-10.0796
▁VI	-10.1077
▁يرى	-10.0015
▁networks	-10.1093
▁Côt	-9.9851
▁العرض	-10.0029
▁رواندا	-10.0303
▁الغذاء	-10.0221
▁أولوية	-10.0149
▁سنويا	-10.0468
▁18.	-10.2874
▁عم	-9.9311
▁فعله	-9.9356
▁himself	-10.0212
▁للنساء	-10.0459
▁17.	-10.2332
▁Thus	-10.0955
▁تحصل	-9.9643
▁completion	-10.1226
▁رؤية	-9.9499
rs	-10.0461
▁draw	-10.0645
▁entered	-10.1085
▁subprogramme	-10.1108
▁الأولويات	-10.0490
لب	-10.0521
▁أحتاج	-9.9212
▁OHCHR	-10.1133
95	-10.7474
▁thanks	-10.0521
▁allegations	-10.1049
▁الزراعة	-10.0555
المملكة	-10.0238
▁الراهنة	-10.0343
▁إحراز	-10.0658
▁انتخاب	-10.0404
▁populations	-10.1512
▁considers	-10.1583
دور	-10.3086
03	-10.7056
▁البشر	-9.9999
▁globalization	-10.1483
▁الجزاءات	-10.0560
▁وترد	-10.0713
▁وحدات	-10.0425
56	-10.6708
▁67	-10.5510
▁الد	-10.1670
▁changed	-10.0451
▁المتكاملة	-10.0730
▁الدراسات	-10.0457
▁ليبريا	-10.0433
▁Chile	-9.9771
▁equitable	-10.1095
▁price	-10.0522
▁اعرف	-9.9127
▁amended	-10.1230
▁المطالبة	-10.0278
▁internally	-10.1212
66	-10.6841
▁dissemination	-10.1099
▁added	-10.0988
▁produced	-10.1012
ry	-10.2060
▁ألم	-9.9324
▁اريد	-9.9090
▁الانضمام	-10.0589
▁Spanish	-10.1232
▁والا	-10.2613
▁الطلبات	-10.0852
▁thirty	-10.1100
جمهورية	-9.9138
▁للاتفاقية	-10.0578
▁تلقي	-10.0342
▁68	-10.4700
عقد	-10.1070
▁البنود	-10.0432
▁اتخذتها	-10.0542
▁والصين	-10.0337
▁تضمن	-10.0482
▁بوروندي	-10.0495
▁المقبل	-10.0244
▁statistical	-10.1235
▁Following	-10.1218
▁Field	-10.1078
▁وسيلة	-10.0163
▁الحظر	-10.0673
▁تركز	-10.0436
مع	-10.0309
▁delivered	-10.1190
▁بالقرار	-10.0495
▁accept	-10.0782
▁ولهذا	-10.0129
▁watch	-9.9830
wide	-10.1056
▁حصل	-9.9407
▁partner	-10.0754
▁إليك	-9.9334
ائية	-10.2093
57	-10.7881
▁والدي	-9.9815
▁Ethiopia	-10.0098
كيف	-9.9989
يته	-10.1734
▁تتيح	-10.0544
▁offered	-10.1093
▁lessons	-10.1342
▁وأعربت	-10.0830
41	-10.5241
▁2010،	-10.2286
▁العمالة	-10.0752
▁نمو	-10.0608
▁دراسية	-10.0532
▁لعمليات	-10.0653
▁السيارة	-9.9298
▁الز	-10.2425
▁محاولة	-9.9883
▁highly	-10.1265
▁سير	-10.0667
▁arising	-10.1414
▁بحث	-10.0295
▁والثلاثين	-10.0213
▁Calls	-10.0984
▁دعوة	-10.0403
▁Session	-10.1208
▁٠٠٠	-9.9718
▁institution	-10.1160
▁العولمة	-10.0343
▁التحقيقات	-10.0585
▁Drugs	-10.1293
▁visits	-10.1384
▁setting	-10.0949
▁للحد	-10.0537
▁وقدمت	-10.0869
▁تن	-10.0209
▁المنازعات	-10.0666
U	-10.5172
▁تخصيص	-10.0598
▁جرت	-10.0408
▁failed	-10.1051
32	-10.4779
▁توافر	-10.0871
▁بأهمية	-10.0654
▁مجموعات	-10.0622
▁racism	-10.1161
▁انعقاد	-10.0580
▁معاملة	-10.0300
▁enjoy	-10.0761
determination	-10.1200
ism	-10.2556
▁حوار	-10.0591
▁حقيقة	-9.9710
▁الشكل	-10.0433
▁باتخاذ	-10.0536
▁المحدد	-10.0846
▁المتكامل	-10.0851
▁Forms	-10.1334
▁أساليب	-10.0532
▁حسابات	-10.0631
▁Britain	-10.0313
▁Finland	-10.0149
▁لجمهورية	-10.0620
▁يجعل	-9.9770
▁faced	-10.1378
▁amendments	-10.1377
▁interpretation	-10.1289
▁الضوء	-10.0476
▁John	-10.0433
▁diplomatic	-10.1390
▁اليونيدو	-10.0870
▁أعربت	-10.0567
ling	-10.1732
rd	-10.1101
▁Over	-10.0779
▁إلغاء	-10.0741
▁eradication	-10.1217
▁مؤشرات	-10.0694
▁identification	-10.1303
▁وثمة	-10.0550
▁nations	-10.1513
▁والصحة	-10.0602
▁تحول	-10.0436
▁والتوصيات	-10.0719
▁دورا	-10.0491
▁النفايات	-10.0777
▁صوت	-10.0060
▁تمت	-10.0593
▁اللذين	-10.0545
▁2004-2005	-10.5662
▁نفسي	-9.9737
▁Developing	-10.1355
▁numbers	-10.2522
▁gun	-10.0396
ended	-10.1445
▁اعتبارها	-10.0472
▁صاحبة	-10.1128
▁بأنشطة	-10.0850
▁للإدارة	-10.0720
▁carrying	-10.1247
▁thematic	-10.1664
▁إننا	-10.0340
▁الحضرية	-10.0780
▁content	-10.1302
▁سوق	-10.0622
▁لاستعراض	-10.0813
▁join	-10.0848
▁الامر	-9.9877
▁game	-10.0092
▁survey	-10.1303
▁يرد	-10.0323
▁الج	-10.1177
▁نوعية	-10.0684
▁مواقع	-10.0616
▁sometimes	-10.0845
▁ولكنه	-10.0788
▁became	-10.1038
▁Ma	-10.2016
▁كبار	-10.0810
▁المحاكمة	-10.0803
▁strongly	-10.1399
حي	-10.3478
▁النزاعات	-10.0907
▁المصدر	-10.0551
by	-10.1208
ur	-10.5333
▁والولايات	-10.0716
ائه	-10.1853
▁الملاحظات	-10.0868
▁race	-10.1236
▁commissions	-10.1763
▁وطلبت	-10.0638
▁حياتي	-9.9490
▁grave	-10.0975
▁Finally	-10.1492
▁خطيرة	-10.0666
▁وتوصي	-10.0794
▁فا	-10.0023
▁مهم	-10.0066
▁heads	-10.1553
▁accounting	-10.1635
▁availability	-10.1550
▁المرافق	-10.0772
▁concluding	-10.1688
▁5,	-10.4855
▁1998,	-10.2415
▁الاستعمار	-10.0506
▁الذى	-9.9392
▁الأحمر	-10.0445
▁أداة	-10.0612
▁beautiful	-9.9990
▁الغذائي	-10.1161
)!	-10.0331
▁البداية	-10.0138
▁الإدماج	-10.0847
▁السفير	-10.0610
▁Iraqi	-10.1484
▁شتى	-10.0773
▁ممثلو	-10.0818
▁١٨	-10.0362
▁sleep	-10.0196
▁seem	-10.0687
▁comply	-10.1476
▁الحفاظ	-10.0703
باب	-10.3756
▁الفعلي	-10.1011
▁2011.	-10.9156
▁يوغوسلافيا	-10.0465
▁١٧	-10.0549
▁tool	-10.1626
▁والخمسون	-10.0593
▁يفعل	-9.9592
تكم	-10.1092
▁bank	-10.1004
▁complaints	-10.1278
▁IAEA	-10.1599
▁ومنع	-10.1116
جو	-9.8988
▁تحث	-10.0644
▁المس	-10.2056
▁pointed	-10.1609
▁clean	-10.0711
▁ratified	-10.1531
▁قاعة	-10.1057
▁نفقات	-10.0697
▁دخل	-10.0284
▁إتاحة	-10.1039
68	-10.8185
▁كون	-10.0860
رام	-10.2196
رك	-9.7811
▁اتباع	-10.0660
98	-10.7842
▁التأمين	-10.0600
▁معهد	-10.1082
▁السجون	-10.1192
▁الملائمة	-10.1170
▁عظيم	-9.9458
بن	-10.1665
▁supports	-10.4303
▁الاستئماني	-10.0733
▁والدعم	-10.1177
▁القسري	-10.1116
مد	-10.1397
▁10-	-10.3316
88	-10.8336
▁المستخدمة	-10.0929
▁original	-10.1488
▁جميل	-9.9464
▁Ah	-10.0442
▁الفضائية	-10.1066
▁accused	-10.1608
▁المعونة	-10.1125
▁الجمهور	-10.0760
▁المذكور	-10.0673
▁Scientific	-10.1415
▁رابعا	-10.0779
CRP	-10.8034
▁اعت	-10.0730
▁Excuse	-10.0128
▁التعبير	-10.0888
▁سلام	-10.0501
▁components	-10.1790
▁names	-10.1462
▁الشفافية	-10.1077
▁6-	-10.0185
▁1999.	-10.9007
▁الإحصائية	-10.1041
▁Fourth	-10.1612
▁الو	-10.2856
▁2008-2009	-10.6769
▁experiences	-10.2181
▁proper	-10.1335
▁تتحدث	-9.9561
76	-10.7813
▁2006-2007	-10.7903
▁تعليم	-10.0657
▁فتح	-10.0406
economic	-10.1630
▁عقوبة	-10.1166
▁عالمي	-10.0837
▁Total	-10.1468
▁لأنها	-10.0809
▁presentation	-10.1505
▁الانتخابية	-10.1039
▁considerable	-10.1793
▁gets	-10.2164
▁Principles	-10.1614
▁الأجهزة	-10.0913
▁واستخدام	-10.0932
ra	-10.4502
▁تركيز	-10.1213
▁assessed	-10.1705
▁للفريق	-10.0998
▁Its	-10.8347
▁engagement	-10.1270
▁agriculture	-10.1496
▁شأنها	-10.0846
▁وعندما	-10.0479
▁couple	-10.0444
▁وكالة	-10.0880
▁قريبا	-10.0275
▁73	-10.5956
▁Summary	-10.1725
▁وتنظيم	-10.1017
85	-10.8663
هو	-9.9776
▁ومنظمات	-10.1020
▁2015	-10.7693
▁تتم	-10.0634
64	-10.7471
▁ارتكاب	-10.0777
free	-10.1656
▁بان	-10.1769
▁restrictions	-10.1560
▁ain	-10.0811
▁تفسير	-10.0818
▁sustained	-10.1643
شير	-10.1677
▁يود	-10.0907
▁murder	-10.0722
▁نذهب	-9.9801
-20	-11.0535
▁emissions	-10.1842
▁courses	-10.2103
▁judge	-10.1338
▁Kenya	-10.0414
▁identity	-10.1427
لات	-10.1511
.”	-10.5307
▁(2004)	-10.6475
▁Subcommittee	-10.1772
منظومة	-10.0890
▁electoral	-10.1598
▁أطراف	-10.1068
▁وافقت	-10.1187
▁reproductive	-10.1852
▁waiting	-10.0603
▁obtain	-10.1615
اج	-10.0822
▁fear	-10.0821
▁الأحوال	-10.0712
راك	-10.1425
▁مماثلة	-10.1092
53	-10.7078
▁Resolution	-10.1758
spoke	-10.1949
▁يحتاج	-10.0413
ستر	-10.1005
▁expansion	-10.1616
لن	-9.9806
▁القيادة	-10.0672
▁socio	-10.1731
▁asylum	-10.1615
▁نجاح	-10.0807
▁الموت	-9.9863
▁يقرر	-10.0975
▁الاقتراح	-10.0846
▁إما	-10.0722
▁satisfaction	-10.1739
▁عزيزتي	-9.9582
▁وتطلب	-10.0993
▁الفعالة	-10.1272
▁السابع	-10.0982
do	-10.2659
مار	-10.1992
▁والتقييم	-10.1203
▁Monitoring	-10.1762
▁تعقد	-10.1043
▁بكثير	-10.0459
▁19.	-10.3365
▁Supreme	-10.1685
▁opening	-10.1610
iii	-10.1782
▁ممارسات	-10.1047
ad	-10.5504
▁began	-10.1776
▁Red	-10.1540
▁البالغة	-10.1305
▁قدرها	-10.1082
▁النشاط	-10.1020
▁Georgia	-10.0835
▁Only	-10.1065
قام	-10.3151
▁encouraging	-10.1901
▁century	-10.1650
▁الماء	-10.0134
▁الفعلية	-10.1235
93	-10.7834
▁المضادة	-10.0864
بط	-10.3891
▁المشردين	-10.1097
▁يرجى	-10.1133
▁significantly	-10.1779
▁hate	-10.0534
▁البشري	-10.0708
سم	-10.0650
▁Tak	-10.1955
▁Hoc	-10.1748
▁acting	-10.1637
سا	-9.9222
▁التعليمية	-10.1182
one	-10.2463
▁COP	-10.2011
▁يعلم	-9.9914
▁تقل	-10.0559
▁وع	-10.0896
99	-10.7550
شر	-10.0021
▁bringing	-10.1539
▁تقدمها	-10.1581
▁بفعالية	-10.1177
▁walk	-10.0360
▁هيكل	-10.1004
▁expenses	-10.2021
34	-10.6367
▁الاستنتاجات	-10.1185
▁٢٢	-10.0894
▁وكيل	-10.1074
▁تولي	-10.0964
حب	-9.9874
▁قدما	-10.1464
▁التعامل	-10.1016
▁2011,	-10.2020
Secretary	-10.1993
▁والدولي	-10.1186
▁troop	-10.1853
▁لمراقب	-10.1871
▁والدولية	-10.1345
▁المحتمل	-10.0652
حة	-10.3377
▁الاستقلال	-10.1034
▁budgetary	-10.1882
▁التوالي	-10.1013
▁الرد	-10.1564
اص	-10.3352
▁مقدمي	-10.1301
▁الدينية	-10.1456
▁تبا	-10.0016
▁Myanmar	-10.1051
▁توجيهية	-10.1390
▁يحصل	-10.0525
▁determination	-10.1953
▁conformity	-10.2035
▁سابقا	-10.1134
▁تشارك	-10.1151
▁والسياسات	-10.1527
▁كن	-10.0252
▁يوفر	-10.1023
▁amounts	-10.2654
▁Chapter	-10.1786
▁tax	-10.1975
▁intention	-10.2037
di	-10.4147
▁تضم	-10.1369
▁gas	-10.1410
▁sister	-10.0516
31	-10.5468
▁sit	-10.0980
▁containing	-10.2065
▁الرب	-10.1696
▁telling	-10.0901
▁موضع	-10.1175
▁Azerbaijan	-10.0829
▁بالأسلحة	-10.1330
HRC	-10.7651
▁penalty	-10.1922
▁والأسلحة	-10.1364
▁سلامة	-10.1336
▁الجلسات	-10.1322
▁العقود	-10.1398
▁birth	-10.1693
يتي	-10.2217
▁المنتجات	-10.1232
▁speakers	-10.2281
▁تنطوي	-10.1398
يم	-10.1112
▁amendment	-10.1806
▁kept	-10.1220
▁الحقيقي	-10.0614
▁وتشجيع	-10.1312
▁Austria	-10.0992
▁Which	-10.0728
▁معاهدات	-10.1360
▁shows	-10.2013
▁limit	-10.1696
▁theme	-10.2315
▁anymore	-10.0797
▁enterprises	-10.2073
▁للسلام	-10.1122
▁oversight	-10.1717
▁Jordan	-10.0750
▁أكد	-10.1132
▁الأسود	-10.1093
▁Uganda	-10.1111
▁أوسع	-10.1334
▁التحكيم	-10.1216
▁تسليم	-10.1256
▁الأمراض	-10.1272
▁facing	-10.1903
▁Several	-10.2193
▁running	-10.0997
▁احد	-9.9981
٩١	-10.2400
▁grateful	-10.1880
▁يتجاوز	-10.1331
▁enter	-10.1781
▁للمنظمة	-10.1537
▁لموظفي	-10.1317
▁المصير	-10.0995
▁حيز	-10.1369
كت	-10.4201
▁القدس	-10.1282
▁وجميع	-10.1416
▁دعا	-10.1110
▁teams	-10.1994
▁المرة	-10.0285
▁lose	-10.0998
▁mainstreaming	-10.2510
-7	-10.5717
▁registered	-10.2185
▁flows	-10.2001
▁الأولي	-10.1812
▁resolve	-10.2113
▁خطوة	-10.1050
▁بتلك	-10.0959
▁أفرقة	-10.1518
حسن	-10.1033
▁الفقرتين	-10.1392
▁مساهمة	-10.1311
بلغ	-10.1158
▁reservation	-10.2060
▁pursue	-10.2062
▁dangerous	-10.1530
-6	-10.7443
▁المنقحة	-10.1440
▁previously	-10.2028
▁تعزز	-10.1361
▁صغير	-10.0462
▁تعرفين	-10.0285
▁الشراكات	-10.1540
▁يصل	-10.0863
يان	-10.0714
espite	-10.2253
لام	-10.1740
مين	-10.2027
ton	-10.2234
▁بإجراء	-10.1375
▁enabling	-10.2244
جاب	-10.1868
WP	-10.8033
▁moving	-10.1517
▁Algeria	-10.0996
▁Budgetary	-10.2456
▁afraid	-10.0632
▁وحسب	-10.0650
▁العقوبات	-10.1574
▁لأجل	-10.0508
▁maintained	-10.2073
▁النفط	-10.1397
▁promise	-10.0982
▁تدرج	-10.1216
▁linked	-10.2076
▁fuel	-10.1770
▁تابعة	-10.1523
/5	-10.5495
▁Promotion	-10.2282
▁لحظة	-10.0289
▁مكاتب	-10.1639
▁تعني	-10.0331
▁بعيد	-10.0695
▁targeted	-10.2034
24	-10.7487
وار	-10.3551
▁والفتيات	-10.1750
▁لبعض	-10.0764
97	-10.7823
▁حقيقي	-10.0443
▁20.	-10.4508
▁المفروضة	-10.1668
▁governing	-10.2293
▁وإنشاء	-10.1520
▁seeking	-10.2233
▁عالية	-10.1372
▁قوية	-10.1243
83	-10.7887
▁للإ	-10.4743
▁المعارف	-10.1765
▁Family	-10.2143
▁learn	-10.1250
▁رابطة	-10.1457
less	-10.1564
▁للأفراد	-10.1505
▁الناحية	-10.1340
▁مالي	-10.1525
▁تدريبية	-10.1812
son	-10.3215
▁حلول	-10.1459
▁Therefore	-10.2232
et	-10.6852
▁publications	-10.2351
▁أموال	-10.1119
▁percentage	-10.2182
▁commission	-10.2018
▁منظور	-10.1401
▁الضرر	-10.1281
▁تحب	-10.0015
▁يقل	-10.1383
▁لكنها	-10.1564
▁الراهن	-10.1388
▁(3)	-10.8786
▁مناقشات	-10.1463
عيد	-10.2316
est	-10.3491
▁الطويل	-10.1423
▁والمعلومات	-10.1567
▁reconstruction	-10.2339
ting	-10.3242
▁للتصدي	-10.1892
▁details	-10.2233
▁صدر	-10.1124
▁drink	-10.0965
▁أعد	-10.0492
▁preliminary	-10.2155
مير	-10.3920
▁hospital	-10.1273
▁Universal	-10.2196
▁واتفاقية	-10.1877
▁قل	-10.0329
▁لتقييم	-10.1680
▁وفضلا	-10.1488
▁الممثلين	-10.1725
قرار	-10.1229
▁closed	-10.2051
▁مالذي	-10.0171
▁انهم	-10.0872
▁payments	-10.2459
▁عنصر	-10.1489
▁Year	-10.2197
▁وردت	-10.1573
بات	-10.2652
▁الاستئناف	-10.1752
▁21.	-10.3871
▁متأكد	-10.0049
▁preparing	-10.2396
▁فئات	-10.1599
▁وطلب	-10.1782
▁disasters	-10.2814
▁يعتمد	-10.1286
.15	-10.7830
▁Preparatory	-10.1957
▁قمة	-10.1482
كلا	-10.0518
▁diversity	-10.2361
▁suffering	-10.2095
▁عامي	-10.3032
▁البقاء	-10.0543
تش	-10.1294
▁indeed	-10.2021
▁preparatory	-10.2496
▁ill	-10.2399
▁التشيكية	-10.1444
/19	-10.8446
▁2010-2011	-10.8882
▁Resources	-10.2420
▁Guatemala	-10.0977
▁قطع	-10.0650
▁coverage	-10.2367
▁ten	-10.1422
69	-10.8877
ادي	-10.3382
▁Assistant	-10.1919
▁فورا	-10.1280
ance	-10.6440
▁الصحراء	-10.1539
▁Saudi	-10.1258
▁vehicles	-10.2306
▁الموحدة	-10.1627
▁الدمار	-10.1611
▁الكلي	-10.1571
▁selected	-10.2378
▁alive	-10.1130
▁factor	-10.2286
▁drafting	-10.2534
ستخدم	-10.2002
▁interim	-10.2318
▁facilitating	-10.2323
▁طابع	-10.1731
▁explain	-10.1463
▁أولئك	-10.0906
▁استخدامها	-10.2052
▁faith	-10.2122
1-	-10.2655
▁بالضبط	-10.0471
▁حسبما	-10.1536
▁الرابطة	-10.1580
▁رجاء	-10.0265
▁المبالغ	-10.1468
هيب	-10.2270
▁الجزائر	-10.1520
▁الصباح	-10.0460
▁الاتفاقيات	-10.1980
▁Peru	-10.0945
▁protecting	-10.2020
▁troops	-10.2417
▁وس	-9.9793
▁المقترحات	-10.1607
▁النقدية	-10.1722
▁examine	-10.2219
▁لقرار	-10.1702
▁أنتم	-10.0884
con	-10.8126
▁نظرها	-10.1963
▁بلده	-10.1835
land	-10.4273
▁قطاعات	-10.1773
داء	-10.3091
▁الكويت	-10.1260
▁الطيران	-10.1649
▁حي	-10.1577
▁ساعات	-10.1078
▁Czech	-10.1581
صل	-9.9729
▁أنظر	-10.0507
▁Um	-10.1283
▁topic	-10.2182
▁القبيل	-10.1298
▁instance	-10.2346
im	-10.6883
▁القادم	-10.0913
▁Small	-10.2418
▁Use	-10.2366
▁secondary	-10.2442
▁بمثابة	-10.1492
▁Initiative	-10.2512
▁confirmed	-10.2339
▁وتشير	-10.1757
▁Coordinator	-10.2512
▁بالفقرة	-10.1823
▁الإطلاق	-10.1025
ized	-10.3630
42	-10.6640
▁Lebanese	-10.2651
▁صديق	-10.0058
▁protected	-10.2258
▁latter	-10.2404
▁obstacles	-10.2835
54	-10.8226
▁transit	-10.2356
▁الأغراض	-10.1536
▁prices	-10.2540
▁تزيد	-10.1751
▁عنك	-10.2786
3-	-10.2629
▁أستراليا	-10.1780
▁تنفذ	-10.1633
▁believes	-10.3059
▁Paragraph	-10.2489
▁nine	-10.2359
▁يتسنى	-10.1707
▁pressure	-10.1827
▁helped	-10.2154
▁69	-10.6091
52	-10.7183
▁الحجم	-10.1478
▁updated	-10.2447
▁بلوغ	-10.1789
▁element	-10.2320
راض	-10.7021
▁maintaining	-10.2355
ma	-10.4011
▁prisoners	-10.2400
▁ذا	-10.0984
▁ذهبت	-10.0487
▁المركزية	-10.1733
▁ناحية	-10.1383
▁sites	-10.2365
▁Would	-10.1141
وها	-10.1462
▁2012.	-11.0303
▁Congress	-10.2412
▁systematic	-10.2637
79	-10.9197
▁ورئيس	-10.1756
▁introduction	-10.2464
▁chap	-10.2485
▁المتوقعة	-10.1891
lo	-10.5371
▁outer	-10.2655
▁المتوسطة	-10.1680
▁منزل	-10.0795
▁تركيا	-10.1773
▁الدنيا	-10.0836
▁initiated	-10.2434
▁دائم	-10.1116
▁chemical	-10.2289
▁unable	-10.2663
▁أرض	-10.1243
▁التحدث	-10.0532
دى	-9.9379
▁helping	-10.2406
▁mortality	-10.2806
“.	-10.2142
▁database	-10.2425
▁prosecution	-10.2317
▁transparent	-10.2693
▁تعود	-10.1151
▁thereby	-10.2614
▁1997,	-10.3706
تى	-9.9585
▁(1999)	-10.7713
▁للتنفيذ	-10.1868
▁المهنية	-10.1947
▁missing	-10.1776
▁2011،	-10.3861
▁تلبية	-10.1792
▁أل	-10.1175
▁فان	-10.2403
▁attend	-10.2314
▁circulated	-10.2452
لكن	-10.0511
▁تستهدف	-10.1888
▁hour	-10.1331
▁1995,	-10.3124
▁Power	-10.2133
وة	-10.2952
▁وقدم	-10.2383
▁losses	-10.2885
▁خطأ	-10.0700
قال	-10.5206
▁fifth	-10.2529
▁arrested	-10.2265
▁اذهب	-10.0449
▁تتجاوز	-10.1809
▁legitimate	-10.2578
▁إعمال	-10.2129
▁سنتين	-10.1882
▁المبكر	-10.1691
go	-10.4476
▁produce	-10.2274
▁وأكد	-10.1793
▁لبريطانيا	-10.1877
▁القول	-10.1293
▁ونتيجة	-10.1794
يون	-10.1602
وض	-10.3037
▁Energy	-10.2599
▁الميداني	-10.2172
▁diseases	-10.2490
▁أشارت	-10.1878
ating	-10.6482
▁هما	-10.2025
▁principal	-10.2781
▁ma	-10.3341
72	-10.8186
▁7-	-10.1309
▁الصغير	-10.0922
▁Sure	-10.1113
ies	-10.5429
▁ملائمة	-10.1854
67	-10.8685
▁minority	-10.2610
agency	-10.2472
عاد	-10.1961
▁التصحر	-10.1846
▁1994,	-10.2618
day	-10.2185
led	-10.3098
▁وعمليات	-10.1964
▁تمييز	-10.1761
▁hoped	-10.2714
▁keeping	-10.2154
▁frameworks	-10.3575
كون	-10.1299
▁geographical	-10.2835
درج	-10.2378
▁الوقود	-10.1714
▁condition	-10.2327
(؛	-10.1591
▁duties	-10.2812
ذي	-10.2147
هج	-10.3894
▁بقوة	-10.1678
▁الصعب	-10.0990
▁الخبرة	-10.1599
دري	-10.4190
63	-10.8251
▁فأ	-10.1590
▁بمرحلة	-10.1934
▁Mo	-10.3136
▁radio	-10.2389
▁older	-10.2677
▁learning	-10.2337
▁اعتبار	-10.1820
▁substances	-10.2932
▁instead	-10.2221
▁غدا	-10.0909
▁الخير	-10.0417
▁website	-10.2461
▁search	-10.2300
/3	-10.7010
▁جميلة	-10.0675
▁المستمر	-10.1954
▁(2005)	-10.7862
▁primarily	-10.2604
▁Philippines	-10.1040
▁النسبة	-10.2061
▁occurred	-10.2763
▁recalled	-10.2760
▁قدمتها	-10.2374
▁powers	-10.2914
▁المست	-10.3442
para	-10.2690
أنشطة	-10.1905
▁لإنشاء	-10.2068
▁normal	-10.2043
▁المدى	-10.2077
▁والاتجار	-10.2208
▁كلها	-10.2795
▁استطيع	-10.0633
▁numerous	-10.2949
▁وتنفيذها	-10.2465
▁دقائق	-10.1000
▁آخرين	-10.2180
▁وزراء	-10.1650
طلب	-10.1290
▁Notes	-10.2915
▁والع	-10.4036
▁Professional	-10.2776
▁أعمالها	-10.2398
mo	-10.5613
▁الشروط	-10.1998
▁كفاءة	-10.2077
▁رائعة	-10.0901
/12	-10.7596
▁يأتي	-10.1119
با	-10.2092
مواصلة	-10.2046
فو	-10.2208
▁معدات	-10.1908
▁سيارة	-10.0733
جون	-10.2038
(1)	-10.4232
-19	-10.9466
▁الخفيفة	-10.2186
▁Regulations	-10.2958
▁pilot	-10.2720
▁موافقة	-10.1895
item	-10.2946
▁Movement	-10.2543
▁verification	-10.2837
▁النفاذ	-10.2146
▁نرى	-10.1294
▁أحيانا	-10.1380
▁1999،	-10.2279
87	-10.8476
mail	-10.2265
▁البيئي	-10.2166
▁اعتبارا	-10.2079
▁بالتنمية	-10.1827
▁تستند	-10.1923
▁allocation	-10.2934
▁Thailand	-10.1364
▁والأنشطة	-10.2013
▁Statute	-10.2664
▁seriously	-10.2596
▁رئيسي	-10.2119
▁مخاطر	-10.2210
se	-10.6336
izing	-10.3591
▁contributing	-10.2834
▁عقب	-10.2055
▁تمكن	-10.2046
▁تكلفة	-10.1919
▁cycle	-10.2330
▁2002-2003	-10.8001
▁الحرية	-10.2129
▁uses	-10.4392
▁settlements	-10.2864
02	-10.8072
▁أدوات	-10.2523
▁ونشر	-10.2153
▁إجمالي	-10.2123
▁الضمانات	-10.2428
▁الوقاية	-10.2423
▁size	-10.2452
▁أعقاب	-10.2152
▁ownership	-10.2985
▁بالتالي	-10.2069
▁1989	-10.8491
▁شفوية	-10.1821
▁التعديلات	-10.1929
▁السؤال	-10.1496
▁المانحين	-10.2182
▁تعليقات	-10.2275
▁complainant	-10.2844
▁funded	-10.2719
▁موظفين	-10.2354
▁مجموعه	-10.2346
▁لأنني	-10.1086
▁worldwide	-10.2969
▁لأفريقيا	-10.2276
▁للخطر	-10.1917
▁للموارد	-10.2280
▁المحتملة	-10.2252
▁doctor	-10.1504
زع	-10.1447
74	-10.8717
▁تجد	-10.1074
}	-10.3037
▁400	-10.5538
▁Supplement	-10.2917
▁واتخاذ	-10.2243
6-	-10.3227
▁العاشرة	-10.2067
▁Bangladesh	-10.1566
▁drawn	-10.2784
▁trouble	-10.1732
▁التعويض	-10.2029
▁refer	-10.2861
▁المتابعة	-10.2407
▁Recognizing	-10.2871
▁َّ	-10.1604
▁hoc	-10.2843
▁واو	-10.1995
www	-10.8976
▁Poland	-10.1738
▁تحديات	-10.2305
06	-10.9354
▁Angola	-10.1783
▁departments	-10.3008
▁الخط	-10.1492
▁والقضاء	-10.2304
59	-10.8290
▁هاما	-10.2321
▁استغلال	-10.2502
▁متعدد	-10.2042
▁regulatory	-10.3279
▁للمعلومات	-10.2230
▁بحالة	-10.2003
▁inclusive	-10.2753
▁طرق	-10.1857
فق	-10.2705
▁1996,	-10.3876
▁disability	-10.2789
▁aims	-10.3324
▁وإنما	-10.2248
▁تمثيل	-10.2207
▁تؤيد	-10.2233
▁72	-10.7076
▁نستطيع	-10.0967
▁تظل	-10.2378
▁غو	-10.4291
▁dignity	-10.2933
▁المعنيين	-10.2762
▁للمجتمع	-10.2241
▁حرب	-10.1684
عرب	-10.2877
▁الأجنبية	-10.2204
▁Partnership	-10.2857
صب	-10.2713
▁مناسب	-10.1866
▁Project	-10.2693
▁allocated	-10.3071
▁الاستغلال	-10.2415
61	-10.8251
▁المراقب	-10.2130
▁attended	-10.3003
▁بصيغته	-10.2242
▁السعودية	-10.2472
▁officer	-10.2573
▁المهني	-10.2645
▁يحدد	-10.2322
▁designated	-10.2872
▁Part	-10.3044
▁&	-10.5191
▁العلاج	-10.2165
▁looked	-10.2388
▁يتمثل	-10.2215
▁safeguards	-10.2863
▁الحركة	-10.2344
))	-10.6484
▁maximum	-10.2936
▁الك	-10.1755
▁daily	-10.3059
▁t	-10.5724
▁fighting	-10.2499
فين	-10.1838
▁represent	-10.2936
▁التكيف	-10.2646
▁2012,	-10.3103
غير	-10.1277
عرف	-10.1630
▁الفتاة	-10.1127
▁governments	-10.3430
▁writing	-10.2917
▁بنفس	-10.1751
▁أجريت	-10.2520
▁القاضي	-10.1880
صاب	-10.3628
▁نفعل	-10.1217
▁identifying	-10.3130
رين	-10.1185
▁وان	-10.4250
▁Paris	-10.2654
▁احتمال	-10.2144
▁التسجيل	-10.2344
▁سان	-10.2814
▁entity	-10.3033
▁فلن	-10.1314
▁1988	-10.8810
▁برتب	-10.3627
▁مات	-10.3776
▁حان	-10.1254
جري	-10.2377
▁الثنائية	-10.2468
قدم	-10.1707
▁أخذت	-10.2012
▁Eastern	-10.2927
▁الخمس	-10.2205
▁الليل	-10.0943
▁منتظمة	-10.2421
▁pro	-10.3554
▁Task	-10.2888
▁أفهم	-10.1014
▁إست	-10.3761
▁العسكريين	-10.2386
▁la	-10.2782
▁degree	-10.2954
▁الاستراتيجيات	-10.2372
▁productive	-10.2745
▁Belarus	-10.1765
▁الانتقال	-10.2191
81	-10.9428
ri	-10.7689
خبر	-10.3162
▁ين	-10.4221
▁buy	-10.1819
▁San	-10.2105
▁الانتصاف	-10.2623
4-	-10.3198
▁تدعم	-10.2452
▁علاقات	-10.2170
▁بليون	-10.2527
▁تقديرات	-10.2408
▁والاستقرار	-10.2383
▁located	-10.3212
ثير	-10.2242
0,000	-10.4852
ant	-10.5637
▁صباح	-10.1368
▁كولومبيا	-10.2312
مرحبا	-10.1051
▁والوكالات	-10.2239
▁القتل	-10.1954
▁اين	-10.1632
91	-10.9702
▁وقع	-10.1763
▁المركزي	-10.2520
▁reasonable	-10.3100
86	-11.0157
.1,	-10.4337
/15	-10.7053
▁meant	-10.2704
▁(2000)	-10.8310
▁ونقل	-10.2369
▁يضع	-10.1783
▁حكومات	-10.2328
تاح	-10.2752
رج	-10.2895
▁Con	-10.6610
▁War	-10.3010
الجمهورية	-10.4761
▁نساء	-10.2413
▁والق	-10.5192
▁واحدا	-10.2125
▁مباشر	-10.1989
▁Follow	-10.3079
▁Records	-10.3418
▁التكامل	-10.2242
▁اتصال	-10.2205
فل	-10.4575
وات	-10.4138
▁مراجعي	-10.2497
يز	-10.3040
▁Peoples	-10.3491
▁etc	-10.3246
▁أوصت	-10.2624
▁الإسلامي	-10.2236
ine	-10.4826
الة	-10.2513
▁الاتجاه	-10.2461
▁واجب	-10.2166
▁liability	-10.3335
▁الغاية	-10.2381
▁يعود	-10.1748
▁الوحدات	-10.2409
01	-10.9051
62	-10.8364
os	-10.6185
▁soldiers	-10.3002
▁examination	-10.3103
▁worth	-10.2308
▁perpetrators	-10.3078
▁الكيانات	-10.2916
▁دائمة	-10.2764
ثق	-10.4601
▁Comprehensive	-10.3249
▁تعاني	-10.2450
▁ملموسة	-10.2618
▁burden	-10.3038
▁نسخة	-10.2408
/10	-10.5553
▁وأدلى	-10.2309
ha	-10.4686
▁رفاق	-10.1227
▁ويرد	-10.2815
▁guide	-10.3091
▁إثيوبيا	-10.2597
▁بحرية	-10.2494
▁regulation	-10.3198
▁بو	-10.1792
▁قط	-10.1426
▁middle	-10.2500
▁الصناديق	-10.2507
▁لاحق	-10.2183
▁charges	-10.3195
▁affecting	-10.3275
▁نظرة	-10.1667
▁forget	-10.2357
▁finally	-10.2289
▁الكفاءة	-10.2615
▁coordinate	-10.2886
▁الدبلوماسية	-10.2363
▁hot	-10.2158
▁reiterated	-10.3423
▁تفهم	-10.1572
▁EU	-10.3525
▁الصرف	-10.2694
▁widely	-10.3580
▁believed	-10.2961
▁agency	-10.3213
▁ومجلس	-10.2783
▁empowerment	-10.3358
▁station	-10.2591
▁للقيام	-10.2091
▁remedies	-10.3396
▁النرويج	-10.2485
▁ويشمل	-10.2787
▁page	-10.2904
▁يرحب	-10.2802
▁محدد	-10.2444
89	-10.9201
▁observer	-10.3150
▁دراسات	-10.2543
▁عيد	-10.1220
▁obtained	-10.3216
▁constructive	-10.3429
▁ورصد	-10.2859
▁والممارسات	-10.2931
▁AIDS	-10.3599
▁grant	-10.3101
▁stations	-10.3413
▁specified	-10.3371
▁code	-10.2990
://	-10.9386
▁binding	-10.3411
▁أراضي	-10.2603
جم	-10.4572
غو	-10.2578
▁8-	-10.2028
▁dispute	-10.2955
▁تحرير	-10.2424
▁incidents	-10.3417
▁البناء	-10.2468
▁أمكن	-10.2965
▁بالرغم	-10.2075
▁تسعى	-10.2511
.10	-10.8086
▁cool	-10.2041
▁sick	-10.2188
▁Forces	-10.3826
▁Having	-10.3378
▁والإقليمي	-10.2769
▁write	-10.2489
▁وصندوق	-10.2608
▁والعنف	-10.2890
use	-10.3658
▁adaptation	-10.3355
▁الدليل	-10.2326
▁Informal	-10.3233
▁decrease	-10.3131
▁٢٥	-10.2105
▁للأشخاص	-10.3104
▁مراحل	-10.2558
▁Excellency	-10.3460
▁differences	-10.3585
▁Accordingly	-10.3438
▁hey	-10.2055
▁Nairobi	-10.3117
▁transactions	-10.3645
▁تعيش	-10.1939
▁Malaysia	-10.1831
▁هولندا	-10.2459
▁البيت	-10.1573
▁earth	-10.2673
عم	-10.2214
▁pending	-10.3323
▁الحب	-10.1512
▁اقتصادية	-10.2521
▁النموذجي	-10.2658
▁x	-10.7657
ING	-10.3669
▁dis	-10.7597
▁الوسائل	-10.2793
▁المغرب	-10.2635
▁guarantees	-10.3569
▁سو	-10.2280
دل	-10.4237
▁somebody	-10.2091
▁وإضافة	-10.2886
▁مصالح	-10.2589
▁دعنا	-10.1585
▁جورجيا	-10.2694
▁judiciary	-10.3381
▁والن	-10.4547
▁Military	-10.3328
▁إندونيسيا	-10.2693
▁مفاوضات	-10.2839
▁consultative	-10.3417
▁letters	-10.3483
▁السريع	-10.2442
▁تعلمين	-10.1410
▁بالإدارة	-10.2735
▁رسميا	-10.2686
▁assisting	-10.3342
▁التغييرات	-10.2775
▁الحمل	-10.2663
▁لكنني	-10.1599
▁والبيئة	-10.2690
.4/	-10.9868
▁humanity	-10.3516
▁St	-10.4471
▁يلاحظ	-10.2610
▁link	-10.3481
إزالة	-10.2574
▁ولاحظت	-10.2795
▁reaffirmed	-10.3470
ence	-10.8758
▁شكر	-10.2078
▁declared	-10.3414
▁المعيشية	-10.3191
▁طول	-10.2490
▁روما	-10.2940
▁علاوة	-10.2832
▁Earth	-10.2730
▁بالحق	-10.2770
▁ملاحظات	-10.2648
▁الاستثمارات	-10.3016
▁سري	-10.2629
▁انتباه	-10.2649
▁character	-10.3280
▁IN	-10.3837
شا	-10.2967
▁committees	-10.3812
▁ولو	-10.2020
▁employees	-10.3811
▁Belgium	-10.2276
▁secret	-10.2316
▁22.	-10.5058
▁Denmark	-10.2250
انية	-10.4113
وال	-10.2837
▁تعيد	-10.2722
▁impunity	-10.3527
73	-10.9727
صار	-10.4254
▁noting	-10.4422
▁آن	-10.2163
▁sustainability	-10.3466
▁المواقع	-10.2825
▁نام	-10.2761
▁ومكافحة	-10.3013
▁النجاح	-10.2597
ne	-10.5375
▁التوعية	-10.3197
▁impacts	-10.4182
▁البلاد	-10.2420
▁Torture	-10.3326
▁الحائزة	-10.2734
71	-10.8782
▁option	-10.3065
قي	-10.2021
▁بدرجة	-10.2777
▁مؤقتة	-10.3202
▁2012،	-10.4972
▁الزمني	-10.2985
▁نحتاج	-10.1791
▁استحداث	-10.3020
▁الإعلامية	-10.3044
▁reviews	-10.4876
▁أذربيجان	-10.2993
▁scheduled	-10.3650
▁سويسرا	-10.2799
▁الشمال	-10.2867
▁rapid	-10.3844
/13	-10.9122
▁نشاط	-10.2464
▁لعمل	-10.2606
ورة	-10.4597
▁preventive	-10.3662
9-	-10.3673
مون	-10.3785
▁um	-10.2209
▁توضيح	-10.2829
▁LDCs	-10.3887
▁resumed	-10.3741
▁Welcomes	-10.3658
▁asking	-10.2370
ضع	-10.3040
▁appear	-10.3264
▁الرتبة	-10.2850
▁sanitation	-10.3441
▁تزويد	-10.2811
▁location	-10.3166
▁بعمليات	-10.2907
▁خذ	-10.1400
per	-10.5954
▁الواقعة	-10.2923
▁product	-10.3412
عا	-10.3253
وث	-10.5328
▁وطني	-10.3307
▁اللغة	-10.2556
▁12-	-10.5059
▁قراره	-10.3565
اخ	-10.4509
▁الحلقة	-10.2438
▁للأنشطة	-10.2945
▁Network	-10.3637
▁لأنك	-10.1519
▁board	-10.2904
▁bed	-10.3956
▁technological	-10.3672
▁بالإ	-10.5629
▁وتشجع	-10.3018
▁imprisonment	-10.3464
▁التكنولوجيات	-10.3228
▁الدستورية	-10.3036
▁اعلم	-10.1658
▁مناهضة	-10.3100
▁yours	-10.6689
▁لأسباب	-10.3127
▁السويد	-10.2668
▁يأخذ	-10.2214
cause	-10.2288
قترح	-10.4788
▁sale	-10.3320
▁عقود	-10.2893
▁receiving	-10.3756
▁أساسيا	-10.3180
▁fast	-10.2664
▁للتجارة	-10.2786
▁CD	-10.6136
بور	-10.5062
▁فرد	-10.2685
▁ideas	-10.3543
▁أدت	-10.2855
▁ظننت	-10.1596
▁فلسطين	-10.3038
▁disputes	-10.3763
▁يتخذ	-10.2739
▁ضعف	-10.2854
▁born	-10.2952
▁أسرع	-10.2368
رون	-10.1472
ated	-10.7784
DP	-10.7952
وح	-10.5200
▁constraints	-10.3868
▁attached	-10.3601
▁عبء	-10.2963
▁permit	-10.3511
▁picture	-10.2653
terrorism	-10.3613
▁drive	-10.2560
▁Romania	-10.2339
▁أوكرانيا	-10.2891
▁subsequently	-10.3756
▁بالمادة	-10.3073
▁مغلقة	-10.2917
▁تحديدا	-10.3362
▁مساعد	-10.2581
▁Friday	-10.3376
▁بإدارة	-10.3217
▁اس	-10.3224
▁harm	-10.3588
▁منتدى	-10.3173
▁papers	-10.3547
▁نعرف	-10.1873
92	-10.9097
بيل	-10.2638
شار	-10.3347
▁achievements	-10.4013
▁لدول	-10.2816
▁الشديد	-10.2851
راج	-10.5319
ous	-10.5314
▁advantage	-10.3476
▁المراجعة	-10.3297
▁المعرفة	-10.2796
▁joined	-10.3586
▁contain	-10.3392
▁600	-10.6770
▁التفكير	-10.2283
▁وتقوم	-10.2960
نظر	-10.2300
رح	-10.2153
▁المباشرة	-10.3286
▁٢٤	-10.2667
▁تنفيذا	-10.4271
▁حيثما	-10.3068
▁improvements	-10.3879
▁القومي	-10.2906
▁focal	-10.3770
▁neither	-10.3388
▁وعليه	-10.3134
▁deliberations	-10.3849
▁الإحصاءات	-10.3317
▁تخفيف	-10.3018
▁جلستها	-10.3219
II	-10.7222
▁incorporated	-10.4036
▁والمواد	-10.3085
▁تسلم	-10.3034
▁يتسم	-10.3008
▁قدمها	-10.3447
▁محمد	-10.2015
▁governmental	-10.3822
▁التوجيه	-10.3271
▁٢٣	-10.2640
▁Ecuador	-10.2396
▁assigned	-10.3729
▁وصف	-10.2447
▁UNESCO	-10.3990
▁إضافي	-10.2950
▁المرتكبة	-10.3181
▁ويتعين	-10.3074
▁23.	-10.5196
▁playing	-10.3007
▁background	-10.3653
▁المتبقية	-10.3111
▁9-	-10.2663
▁covering	-10.3866
▁وافق	-10.2613
▁ببعض	-10.2275
▁تبقى	-10.2430
▁وبما	-10.3393
▁extreme	-10.3436
▁competence	-10.3893
▁بتوفير	-10.3128
▁استعداد	-10.2617
▁investments	-10.4158
▁showed	-10.3547
conflict	-10.4019
▁اكثر	-10.1934
▁بعنوان	-10.2969
▁وتطوير	-10.2861
▁ILO	-10.3775
▁المؤشرات	-10.3371
▁Expert	-10.3673
82	-10.9433
▁ended	-10.3469
▁طائرة	-10.2798
84	-10.9962
▁إيطاليا	-10.2916
▁غريب	-10.1651
صد	-10.6294
▁بمساعدة	-10.3200
▁UNITED	-10.3397
▁الأعلى	-10.2575
▁اتخذ	-10.2717
▁أر	-10.1975
▁المنظومة	-10.2932
▁تأمين	-10.2995
▁71	-10.7342
▁regularly	-10.3985
▁seminars	-10.4081
▁UNODC	-10.3698
▁جون	-10.2599
▁الدم	-10.2141
▁العشرين	-10.3072
▁ميانمار	-10.3097
▁Costa	-10.2294
▁firm	-10.3432
▁الأفعال	-10.2992
▁pick	-10.2376
▁بالقلق	-10.3122
▁بقوات	-10.3166
-8	-10.9862
▁influence	-10.3706
▁lines	-10.4153
▁يتفق	-10.3059
▁76	-10.7855
▁تزايد	-10.3162
▁بالحكم	-10.3010
لل	-10.1661
▁دار	-10.2798
▁للبرنامج	-10.3039
li	-10.6120
▁وسيكون	-10.2955
▁تحاول	-10.2146
▁capabilities	-10.3809
line	-10.4614
▁killing	-10.3394
▁feeling	-10.2769
▁وجرى	-10.3246
▁الرقم	-10.2668
▁Reaffirming	-10.3952
▁starting	-10.3281
▁مست	-10.5892
08	-11.0958
▁معنا	-10.3384
▁everybody	-10.2737
▁Eritrea	-10.2973
▁miss	-10.2603
ge	-10.6800
▁opened	-10.3733
▁طبقا	-10.2936
▁Indeed	-10.3609
▁transmitted	-10.4057
▁controls	-10.4823
▁extension	-10.3651
▁أنشطتها	-10.3225
▁mental	-10.3687
▁notice	-10.3403
▁الأسئلة	-10.2938
▁innovative	-10.3763
▁الخروج	-10.2262
▁bear	-10.3546
▁chemicals	-10.4057
▁extensive	-10.3989
▁vision	-10.3494
اري	-10.3299
▁modalities	-10.3712
▁ذو	-10.2362
▁OIOS	-10.4142
▁اتحاد	-10.3233
▁prostitution	-10.4083
id	-10.7328
▁realize	-10.3471
.1).	-11.0352
▁Rica	-10.2283
▁ولاحظ	-10.3155
▁invitation	-10.3542
▁المدة	-10.3351
توافق	-10.3901
▁الموحد	-10.3069
▁Miss	-10.2743
▁قليل	-10.2352
▁إيجابية	-10.3318
X	-11.0849
▁completely	-10.3433
▁أشد	-10.3259
▁dealt	-10.4315
▁الإقامة	-10.3646
▁جراء	-10.3425
▁advocacy	-10.3967
raising	-10.3916
إنه	-10.2413
▁والحد	-10.3513
▁وسائر	-10.3238
▁الابتدائية	-10.3581
▁تشريعات	-10.3382
▁Given	-10.4118
▁للا	-10.9185
▁doubt	-10.3426
▁Three	-10.3162
▁مستقبل	-10.2904
▁120	-10.9703
▁أولويات	-10.3490
▁aren	-10.2911
▁لمن	-10.3692
▁الجامعة	-10.3117
▁usually	-10.3503
▁المواضيع	-10.3284
▁NATIONS	-10.3562
▁وتقدم	-10.3388
▁anniversary	-10.3597
▁Ministerial	-10.4513
▁بيع	-10.3155
▁computer	-10.3397
ga	-10.5341
▁Each	-10.4264
▁panel	-10.3863
▁الأو	-10.4765
▁المدن	-10.3297
ah	-10.4936
▁الفقيرة	-10.3164
مكافحة	-10.3494
▁خاصا	-10.3467
▁Venezuela	-10.2671
5-	-10.4475
7-	-10.4319
▁web	-10.4603
da	-10.5134
▁كجزء	-10.3419
▁proportion	-10.4100
▁spread	-10.3710
▁stupid	-10.2737
▁النقد	-10.3221
▁روح	-10.2767
▁La	-10.4304
▁jointly	-10.4045
▁Was	-10.2872
▁perform	-10.3709
ذكر	-10.3348
▁المنزلي	-10.3669
▁witnesses	-10.4120
▁أعطي	-10.2607
▁تكوين	-10.3309
▁نقاط	-10.3313
▁black	-10.2978
▁g	-10.6349
▁expanded	-10.4151
▁وصلت	-10.2755
▁announced	-10.4081
▁built	-10.3457
▁Portugal	-10.2749
▁army	-10.3841
▁تتراوح	-10.3319
▁قريب	-10.2353
▁نيوزيلندا	-10.3220
▁بنود	-10.3255
▁بأعمال	-10.3333
▁art	-10.4107
▁الغرفة	-10.2684
▁outlined	-10.4317
▁الموظفون	-10.3593
▁examined	-10.4261
▁وأفراد	-10.3687
▁Beijing	-10.4312
▁الطعام	-10.2326
▁Does	-10.2999
▁كرواتيا	-10.3207
▁سلاح	-10.2794
▁الجنوبية	-10.3616
سة	-10.3687
▁ذ	-10.2735
▁voice	-10.3257
▁gives	-10.4543
COP	-10.7933
▁غيرها	-10.5860
▁rape	-10.3977
▁turned	-10.3237
▁يقع	-10.3548
لشؤون	-10.3116
▁لنظام	-10.3706
▁يعملون	-10.3153
ضاف	-10.6511
▁24.	-10.5650
▁آ	-10.1923
▁المطاف	-10.3159
▁خالية	-10.3470
▁سيتم	-10.2777
)).	-11.2212
▁أعلن	-10.3165
▁gap	-10.4097
▁Greece	-10.2776
أت	-10.2244
▁وأضافت	-10.3365
▁1980	-10.7902
▁الانبعاثات	-10.3763
▁سابق	-10.2778
▁staffing	-10.4301
▁migrant	-10.4047
▁سأكون	-10.2014
▁Sri	-10.2678
▁التقديرات	-10.3671
▁الدائرة	-10.3322
▁convened	-10.4180
▁proliferation	-10.4404
▁released	-10.4066
INF	-11.0479
له	-10.3052
▁المشتريات	-10.3734
▁mandated	-10.4540
▁يبدأ	-10.3039
▁التدريبية	-10.3934
▁class	-10.3384
▁الوثيق	-10.3357
▁attempt	-10.3780
ئي	-10.6064
▁standing	-10.3611
▁منسق	-10.3408
▁85	-10.8412
▁Serbia	-10.3559
▁انتقالية	-10.3638
▁south	-10.4144
Commission	-10.4510
▁difference	-10.3248
▁توقيع	-10.3326
▁Chinese	-10.3941
كو	-10.0796
▁الاثنين	-10.3500
▁بعملية	-10.3616
▁المحتويات	-10.3224
▁Wow	-10.2917
▁انتهاكا	-10.3541
▁Y	-10.5901
▁لانكا	-10.3589
▁vulnerability	-10.4249
94	-11.0244
▁returned	-10.3935
▁introduce	-10.4079
▁انعدام	-10.3915
▁باعتباره	-10.3064
▁lie	-10.3200
▁يمكنها	-10.4245
▁disease	-10.4013
▁يومي	-10.3800
▁أكدت	-10.3525
▁comment	-10.3988
▁ونزع	-10.3335
▁الاحتلال	-10.3527
▁تمديد	-10.3318
▁مقاطعة	-10.3875
▁وجنوب	-10.3559
▁الموظف	-10.3535
ائك	-10.4257
▁طرفا	-10.3866
▁150	-10.9206
▁حقيقية	-10.3087
51	-10.8077
▁ث	-10.3638
▁رو	-10.3957
ولا	-10.2593
▁coordinating	-10.4208
▁الشهر	-10.2986
▁Activities	-10.4174
▁بالتزاماتها	-10.3401
▁mines	-10.4480
▁لرصد	-10.3721
▁unilateral	-10.4437
▁باريس	-10.3656
▁25.	-10.5579
▁والمسائل	-10.3759
▁Strategic	-10.4310
▁الفكرية	-10.3404
▁campaigns	-10.4499
▁كيوتو	-10.3740
▁السيطرة	-10.2740
▁المجموع	-10.3721
جة	-10.5625
▁وحمايتها	-10.3818
▁Lanka	-10.2694
▁حضور	-10.3244
▁المراكز	-10.3762
▁البحري	-10.3734
▁لان	-10.7320
▁للصندوق	-10.3769
▁المقام	-10.3391
▁expand	-10.4312
▁Work	-10.4056
▁وكفالة	-10.3827
▁سؤال	-10.2459
فيل	-10.4649
▁الأب	-10.4488
▁يستخدم	-10.2939
▁traffic	-10.4335
▁north	-10.4069
عمل	-10.2448
▁يستند	-10.3694
▁عوامل	-10.3667
وى	-10.4001
▁Nepal	-10.3059
um	-10.6528
▁طبيعة	-10.3461
▁served	-10.4259
▁Urges	-10.4385
▁لاحظ	-10.3413
▁رسمي	-10.3352
▁لاحظت	-10.3242
▁عبد	-10.3407
فا	-10.1750
▁باستثناء	-10.3532
▁شديد	-10.2962
▁Platform	-10.4349
▁pleased	-10.4126
▁عرفت	-10.2562
▁Hold	-10.3083
▁ICT	-10.4406
▁Fuck	-10.3290
▁نريد	-10.2592
▁fish	-10.3552
▁السليمة	-10.3623
▁74	-10.8191
▁بضرورة	-10.3761
حال	-10.6426
▁بحسب	-10.3709
▁VII	-10.4294
▁foster	-10.4341
▁Budget	-10.4300
▁deliver	-10.4012
▁اتخاذها	-10.4210
▁الجغرافية	-10.3964
▁السماح	-10.3522
▁Strengthening	-10.4559
وزارة	-10.3765
▁Arabia	-10.3097
▁exports	-10.4496
▁belief	-10.4238
ka	-10.5146
▁jobs	-10.4517
▁strength	-10.3979
▁أقصد	-10.2329
▁المشاركون	-10.4115
▁الإنتاجية	-10.3784
▁المعروضة	-10.3998
▁البديلة	-10.3795
طلق	-10.2707
▁الجمعة	-10.3591
▁simple	-10.3681
▁الشعبة	-10.3877
▁valuable	-10.4676
▁processing	-10.4405
▁Cambodia	-10.3257
8-	-10.4830
▁becoming	-10.4280
لاند	-10.4357
▁contrary	-10.4543
▁متاحة	-10.3788
▁تفيد	-10.3906
▁invite	-10.3977
▁solidarity	-10.4417
▁دعني	-10.2282
▁simply	-10.4080
▁كتاب	-10.2955
▁changing	-10.4321
راي	-10.3759
▁ابن	-10.2428
▁modern	-10.4229
▁object	-10.4149
▁recognizes	-10.4607
▁أبلغ	-10.3454
▁Tanzania	-10.3117
▁البت	-10.3695
▁nationals	-10.7921
ED	-10.5156
/14	-11.1239
اف	-10.2826
▁الدفع	-10.3455
▁Palestinians	-10.5319
▁مواطن	-10.3745
▁باستمرار	-10.3711
▁Monday	-10.4040
▁acquisition	-10.4595
▁ببيانات	-10.3763
▁حالك	-10.2835
▁latest	-10.4319
▁examples	-10.4916
▁أحاول	-10.2453
▁(2003)	-10.9683
▁unique	-10.4644
``	-10.3902
▁نيروبي	-10.3800
▁إحاطة	-10.3867
▁arbitrary	-10.4592
▁briefing	-10.4643
▁copy	-10.4312
▁happens	-10.3397
▁unemployment	-10.4356
عتبر	-10.3645
▁المعاملات	-10.3649
▁serving	-10.4432
▁sort	-10.3152
▁أدلة	-10.3930
▁تخضع	-10.3773
▁والقطاع	-10.3928
▁spent	-10.3833
▁الثقافي	-10.4018
▁بالأطفال	-10.3839
▁تتمكن	-10.3325
▁جهد	-10.3314
▁التوقيع	-10.3612
▁acceptance	-10.4602
▁الجيدة	-10.3714
▁والأمم	-10.4030
▁وتبادل	-10.4111
▁Independent	-10.4335
▁Model	-10.4377
▁cold	-10.3508
▁teachers	-10.4363
▁involve	-10.4650
▁للأطراف	-10.3948
▁subjected	-10.4440
عامل	-10.5424
▁تعالج	-10.3805
ak	-10.6480
▁حدثت	-10.3984
▁suffered	-10.4681
▁أخرج	-10.2672
▁الحل	-10.4746
▁seminar	-10.4427
▁سعيدة	-10.2584
▁عضوية	-10.3706
▁passed	-10.4002
▁الطائرات	-10.3816
▁كله	-10.5028
▁العابر	-10.3819
▁transferred	-10.4197
EC	-10.7863
▁الإيجابية	-10.3833
▁Change	-10.4376
▁الحديث	-10.2831
▁ذهب	-10.2765
▁violated	-10.4578
▁1993,	-10.4553
▁mobilization	-10.4846
ci	-10.9772
▁نكون	-10.2791
بري	-10.4816
▁وقبل	-10.3882
▁الانتباه	-10.3637
▁وذكرت	-10.4064
▁Every	-10.3648
▁wished	-10.4764
▁القسم	-10.3592
▁Southern	-10.4534
▁Ben	-10.4596
▁recommend	-10.4325
▁أنغولا	-10.3578
يرة	-10.2953
▁المجاورة	-10.4078
▁hearing	-10.4228
▁residence	-10.4311
▁المساعدات	-10.3811
▁التهديد	-10.3716
▁والتدابير	-10.3850
▁الأمل	-10.3406
all	-10.5189
شكرا	-10.2543
▁Sam	-10.3550
▁قول	-10.2714
▁investigate	-10.4482
▁manage	-10.4171
▁Planning	-10.4766
bo	-10.6018
▁وانت	-10.4139
▁95	-10.9570
▁سلوك	-10.3750
▁الغذائية	-10.4210
▁regards	-10.5920
▁يهم	-10.3380
▁Sixth	-10.4484
▁withdrawal	-10.4662
▁Mm	-10.3331
▁تسهم	-10.3862
▁associations	-10.4755
▁المسؤولة	-10.3979
▁والشعوب	-10.3761
▁التعليقات	-10.3814
▁غي	-10.4369
▁trend	-10.4465
▁سياسي	-10.3811
▁متنوعة	-10.3871
▁كفاية	-10.3634
▁تشدد	-10.3999
▁Oversight	-10.4653
▁Additional	-10.4603
▁تدرك	-10.3238
▁Observer	-10.4478
▁مرات	-10.3527
▁الجغرافي	-10.3775
▁NPT	-10.4781
/53/	-11.0688
يح	-10.5610
▁جزئيا	-10.3996
▁المصالح	-10.3747
▁فصل	-10.3791
▁يرام	-10.2405
our	-10.9979
▁تقنية	-10.4000
▁Rome	-10.4220
▁القاسية	-10.4075
▁قيادة	-10.3838
▁الجهاز	-10.3806
▁الرئيسة	-10.4337
▁mention	-10.4394
▁قانونا	-10.4825
▁danger	-10.3951
▁التشغيلية	-10.4278
▁bitch	-10.3518
▁يمكنه	-10.4429
▁Counter	-10.4818
▁عسكرية	-10.4296
▁2013.	-11.1915
▁الإنجاز	-10.3923
▁Armenia	-10.3273
▁envisaged	-10.5036
▁societies	-10.4600
▁links	-10.4802
▁العيش	-10.3501
▁صور	-10.2924
▁زيارة	-10.3840
▁nation	-10.4212
▁والمشاركة	-10.3936
▁شيلي	-10.4072
▁facts	-10.5452
علم	-10.2877
▁الصحيح	-10.3278
▁الكافي	-10.3786
▁يؤيد	-10.3712
▁counsel	-10.4838
▁welfare	-10.4470
-10	-10.8859
▁الاشتراكات	-10.3987
▁المفترض	-10.2831
▁بوجود	-10.3246
off	-10.4384
نس	-10.2737
▁قادرة	-10.3561
▁أنفسهم	-10.3342
▁represents	-10.4983
▁Salvador	-10.3012
▁figures	-10.5194
▁users	-10.4637
▁ship	-10.4394
كار	-10.7121
▁للتدريب	-10.4000
▁ويقدم	-10.4186
▁واحترام	-10.4124
▁تفاصيل	-10.3969
▁trained	-10.4849
/18	-11.1159
▁شبكات	-10.3945
▁Keep	-10.3561
داد	-10.6820
رز	-10.3318
جز	-10.5213
▁intolerance	-10.4767
▁orders	-10.6352
▁version	-10.4780
رش	-10.4483
▁عاتق	-10.4002
▁banks	-10.4533
▁النهاية	-10.3240
رض	-10.2928
▁26.	-10.6428
▁تطور	-10.3904
▁وتدعو	-10.4063
▁مارس	-10.3895
▁ام	-10.4134
▁يعيش	-10.3237
▁التأهيل	-10.4180
▁تتمثل	-10.4144
▁train	-10.4280
▁roles	-10.6083
▁methodology	-10.4767
▁تهيئة	-10.3875
▁بإعداد	-10.4127
▁وتيسير	-10.4151
▁النسائية	-10.3995
▁Encourages	-10.4670
▁Combat	-10.4954
▁قياس	-10.4043
04	-10.9758
▁التغيير	-10.4243
me	-10.5846
▁Kyoto	-10.4795
▁moved	-10.4124
▁detained	-10.4777
▁قابلة	-10.4151
▁خلف	-10.2921
▁شراء	-10.3696
▁الخطيرة	-10.4129
▁overcome	-10.4824
▁perfect	-10.3623
▁الأزمات	-10.4202
جين	-10.4018
▁command	-10.4649
▁المساءلة	-10.4305
اته	-10.9170
▁(2006)	-10.9571
ex	-11.0142
▁الخيارات	-10.4075
▁55/2	-11.1777
▁structural	-10.4769
09	-10.9893
▁الفا	-10.5234
▁بيجين	-10.4148
▁Transition	-10.5156
▁المئوية	-10.4317
▁شرط	-10.3694
▁متزايد	-10.3880
عين	-10.3745
▁تصدر	-10.3755
▁التحليل	-10.4213
▁touch	-10.3451
▁يؤثر	-10.4180
▁البريد	-10.4024
▁لمواجهة	-10.4196
▁وثيق	-10.3780
دير	-10.5429
▁Racial	-10.5006
▁إشراك	-10.4487
▁١٩٩٩	-10.3966
ونغ	-10.5276
▁raising	-10.4661
Habitat	-10.4911
▁والمرأة	-10.4294
طب	-10.4300
▁نيجيريا	-10.4208
▁٠٠	-10.5027
ائر	-10.7521
▁رأيك	-10.3077
▁سفر	-10.4008
▁الأفرقة	-10.4189
▁محدودة	-10.4123
▁combined	-10.4843
▁lasting	-10.4971
▁السواء	-10.4055
▁Island	-10.4718
▁والمعدات	-10.4214
جن	-10.4750
▁الحرة	-10.4300
بان	-10.3850
▁relevance	-10.5023
▁الضمان	-10.4225
▁explained	-10.4931
▁segment	-10.4786
▁camps	-10.4915
▁file	-10.4364
You	-10.3450
▁Turkish	-10.5108
زم	-10.3094
.1.	-11.3786
▁الشواغل	-10.4308
▁limits	-10.5041
حق	-10.3167
▁Statistics	-10.4874
.12	-11.0586
برا	-10.4387
▁directed	-10.5007
▁إبلاغ	-10.4154
ial	-10.8132
▁فهمت	-10.2965
▁التدخل	-10.3970
▁dinner	-10.3337
▁City	-10.4484
op	-11.0544
▁Before	-10.4281
▁التشغيل	-10.3890
▁finding	-10.4597
▁extremely	-10.4915
▁none	-10.4083
▁إنني	-10.3337
▁بيرو	-10.4413
▁التشريع	-10.4137
▁دم	-10.3096
▁constitutes	-10.5215
▁الكافية	-10.3999
▁وترى	-10.4375
▁والهيئات	-10.4073
▁1998.	-11.1060
ize	-10.5167
▁demonstrated	-10.5140
▁تعبئة	-10.3915
ادة	-10.4161
▁Today	-10.4424
▁دين	-10.4613
▁hair	-10.3770
▁والثقافة	-10.4232
old	-10.4762
▁وح	-10.3700
▁وفدي	-10.4309
▁Jack	-10.3677
▁2013,	-10.5076
specific	-10.4775
▁choose	-10.4376
▁reality	-10.4537
▁فعلى	-10.4296
pa	-10.6536
▁أخيرا	-10.3571
▁تعديلات	-10.4246
▁المصادر	-10.4116
نغ	-10.2953
▁مياه	-10.4022
▁Uruguay	-10.3507
▁voting	-10.5119
▁substance	-10.4920
▁شركات	-10.4144
▁association	-10.4781
▁يظل	-10.4208
▁mid	-10.4647
▁بع	-10.4555
▁appreciate	-10.3974
▁customs	-10.5020
▁لسنة	-10.4545
▁بزيادة	-10.4116
▁الإنفاق	-10.4343
حاول	-10.3454
▁fishing	-10.4784
▁Help	-10.3781
▁broader	-10.5142
▁وفود	-10.4322
▁الفلبين	-10.3910
▁ON	-10.4689
▁Measures	-10.5276
▁المرجع	-10.3859
او	-10.2639
▁محاكمة	-10.4381
▁الخبرات	-10.4261
▁السعي	-10.3917
ضم	-10.5023
▁Am	-10.4430
▁periods	-10.6604
▁selection	-10.4964
▁أب	-10.2587
▁تدفع	-10.3781
▁ينطوي	-10.4149
قبل	-10.2205
▁Safety	-10.5147
▁map	-10.4378
▁الث	-10.4694
▁adjustment	-10.4736
▁ظهر	-10.3143
▁Got	-10.3349
▁التى	-10.3087
▁ليشتي	-10.4432
▁ومؤسسات	-10.4571
▁male	-10.4640
▁الخاضعة	-10.4418
▁لتغطية	-10.4319
▁بتاريخ	-10.4478
تني	-10.2108
▁Nice	-10.3871
▁رئاسة	-10.4467
▁أنشئت	-10.4329
▁عملي	-10.3720
▁لكني	-10.4029
▁Arabic	-10.7746
▁لتيسير	-10.4389
ov	-10.7513
▁التقاعدية	-10.4354
▁بنشاط	-10.4289
▁حينما	-10.3603
▁قوي	-10.3888
07	-11.1371
▁اوه	-10.3238
▁اله	-10.4279
▁Violence	-10.4968
▁وبالنسبة	-10.4420
▁Foundation	-10.5211
▁severe	-10.4948
▁يتناول	-10.4368
▁الشبكي	-10.4859
▁biological	-10.5079
▁update	-10.4777
ورد	-10.4807
▁إسبانيا	-10.4461
▁أعلنت	-10.4078
▁تعويض	-10.4269
he	-10.6407
خط	-10.5760
▁بفضل	-10.4133
▁مرض	-10.4101
▁تظن	-10.3150
▁Page	-10.4816
▁budgets	-10.6197
▁أس	-10.2854
being	-10.5092
▁village	-10.4615
▁custody	-10.4897
▁الشكاوى	-10.4766
▁Peacebuilding	-10.5241
▁زي	-10.4752
▁Number	-10.4715
▁track	-10.4224
▁reflects	-10.5091
عن	-10.3096
▁bearing	-10.5311
▁للطفولة	-10.4418
▁largest	-10.4966
▁تحد	-10.4102
▁legally	-10.5138
▁Climate	-10.5054
▁add	-10.4450
▁sides	-10.5012
▁ضمانات	-10.4663
فع	-10.5783
▁للمنظمات	-10.4294
صور	-10.3775
وان	-10.6174
AL	-10.7014
تون	-10.3529
▁المعوقين	-10.4436
▁British	-10.4767
▁ممن	-10.4266
▁federal	-10.4802
▁محامي	-10.4679
▁=	-10.7590
▁كلما	-10.3681
▁المحليين	-10.4289
جان	-10.5601
▁distributed	-10.5004
▁لمشروع	-10.4060
▁الإغاثة	-10.4178
▁focusing	-10.5094
▁premises	-10.5180
▁انني	-10.3290
scale	-10.5038
▁prohibited	-10.5486
ho	-10.8080
▁إرسال	-10.4319
▁اتجاه	-10.4312
▁والمبادئ	-10.4686
▁explanation	-10.4765
▁Equality	-10.4970
▁مل	-10.6176
▁بالجهود	-10.4540
▁ككل	-10.4388
▁وفق	-10.4560
▁الثامن	-10.4081
▁Both	-10.4789
يرا	-10.4847
▁نفاذ	-10.4376
her	-10.5421
▁أقوم	-10.3174
▁Afghan	-10.5171
▁المر	-10.5349
▁98	-11.0034
▁expect	-10.4298
▁فنلندا	-10.4531
▁demands	-10.5384
▁المفتوح	-10.4354
▁أقر	-10.4360
▁وأنشطة	-10.4654
▁transmit	-10.5239
▁صديقي	-10.2892
▁أتمنى	-10.3331
▁العنصر	-10.4148
▁المساهمات	-10.4703
▁Auditors	-10.5499
▁الإبادة	-10.4795
▁وتحث	-10.4382
▁عدا	-10.3958
▁WHO	-10.5246
▁complaint	-10.4881
▁المبينة	-10.4425
▁Takes	-10.5398
▁التدريجي	-10.4373
▁السفن	-10.4204
▁wall	-10.4443
▁بينهم	-10.5349
▁المهارات	-10.4481
▁الممكنة	-10.4511
▁أيا	-10.6592
▁التمثيل	-10.4422
▁الحاضر	-10.4298
▁dog	-10.4169
▁ثقافة	-10.4522
▁witness	-10.4846
▁Operation	-10.4869
▁appears	-10.4690
▁تر	-10.4185
▁aggression	-10.5244
▁Put	-10.3959
▁damn	-10.3778
▁خامسا	-10.4462
▁موظفا	-10.4726
▁الإيدز	-10.4560
▁تتمتع	-10.4319
لاق	-10.8218
▁أع	-10.4020
▁تركت	-10.3927
▁Agriculture	-10.5345
▁transportation	-10.5406
▁بش	-10.5458
▁نوعا	-10.3586
▁أريدك	-10.2886
فاق	-10.6476
▁Z	-10.6159
▁خلق	-10.3566
▁تظهر	-10.3933
▁Senegal	-10.3508
ترتب	-10.4439
▁27.	-10.6766
▁Hungary	-10.3727
▁تواجهها	-10.4742
▁بالقضاء	-10.4781
▁التعليق	-10.4251
ولة	-10.9393
▁للمشاركة	-10.4461
▁مشروعة	-10.5807
▁Main	-10.5209
▁معرض	-10.4370
▁homes	-10.5808
▁وشك	-10.3475
▁سحب	-10.4090
▁Acting	-10.5603
▁master	-10.4611
▁funny	-10.4078
▁غالبا	-10.4296
▁coherence	-10.5325
▁المق	-10.8465
▁غواتيمالا	-10.4272
qui	-10.8722
▁Representatives	-10.6052
▁lawyer	-10.4495
▁ايها	-10.3420
▁تنطبق	-10.4612
▁والدك	-10.3210
▁السلبية	-10.4685
▁www	-11.1154
▁المستقل	-10.4554
▁المح	-10.4900
▁الهجمات	-10.4312
▁Finance	-10.5162
▁schedule	-10.4783
▁معهم	-10.4783
▁sections	-10.5691
▁street	-10.4269
▁الأردن	-10.4456
قص	-10.4092
▁يشجع	-10.4831
▁المحاسبية	-10.5085
▁bar	-10.4230
▁٢٧	-10.4044
▁liberty	-10.5098
▁Occupied	-10.5278
▁مزيدا	-10.4742
▁تقدما	-10.5017
طل	-10.5320
جاز	-10.6875
زل	-10.4859
▁فإننا	-10.4696
▁Tunisia	-10.3671
▁greatest	-10.5077
▁الفرد	-10.4466
▁expresses	-10.5444
▁وربما	-10.4075
▁اثنين	-10.3925
درس	-10.6717
▁advancement	-10.5553
قول	-10.3406
▁Bible	-10.5654
▁gaps	-10.5600
▁appeals	-10.5625
ful	-10.6161
ترجمة	-10.4220
▁conclude	-10.5199
Z	-10.8125
▁طائفة	-10.4595
▁اهتماما	-10.4473
▁embargo	-10.5184
▁managers	-10.5407
▁signature	-10.5235
▁enterprise	-10.5215
▁programming	-10.5250
▁Un	-10.5689
▁انتخابات	-10.4513
▁certainly	-10.4706
▁posed	-10.5747
▁خيار	-10.4063
▁هذين	-10.4247
نسي	-10.7713
ره	-10.3943
▁والسلام	-10.4808
▁preparations	-10.5751
▁الاتجاهات	-10.4633
ائهم	-10.6248
اقة	-10.5209
▁اللاإنسانية	-10.4710
▁الأجر	-10.4588
▁win	-10.3869
▁يحق	-10.4432
▁صكوك	-10.4533
سل	-10.4603
State	-10.5283
▁جهات	-10.4974
▁تعكس	-10.4594
/17	-11.1163
سان	-10.5163
▁Bulgaria	-10.3974
▁أفكر	-10.3270
▁بات	-10.7233
▁بالتشاور	-10.4678
▁Society	-10.5379
▁أخي	-10.3513
▁pain	-10.4374
▁urge	-10.5323
▁ذكرت	-10.4788
▁بالا	-10.6896
يوم	-10.6199
▁commit	-10.5190
▁path	-10.4718
▁heavy	-10.4878
▁Guide	-10.5777
▁2013،	-10.6765
▁بعضها	-10.5449
▁Team	-10.5299
▁00/10	-10.4813
▁6,	-11.0029
▁المقيمين	-10.4665
▁وغيرهم	-10.4918
ران	-10.5358
▁devoted	-10.5604
▁الفقراء	-10.4586
▁والرعاية	-10.4870
▁undertaking	-10.5276
▁اعتمدتها	-10.5006
▁اختصاص	-10.4503
▁أتعلم	-10.3358
▁هن	-10.4048
▁trading	-10.5381
إتاحة	-10.5027
▁thousands	-10.5301
▁باستعراض	-10.4809
▁تكنولوجيات	-10.4877
▁أشياء	-10.3455
▁وإعداد	-10.4694
▁وجد	-10.4194
▁managed	-10.5003
▁لطيف	-10.3135
▁corporate	-10.5383
▁savings	-10.5311
▁وأكثر	-10.4523
▁بدل	-10.4280
▁indicates	-10.5657
▁Slovenia	-10.3988
▁f	-10.7443
فن	-10.4445
عرض	-10.4303
▁cities	-10.5172
▁وتنسيق	-10.4688
▁الملك	-10.3883
▁topics	-10.5500
▁78	-10.9228
▁11-	-10.4233
سوف	-10.4645
قا	-10.5636
▁شر	-10.6220
▁للمواد	-10.4654
▁والمساواة	-10.4878
▁white	-10.4264
▁طبيب	-10.3654
هب	-10.6782
mentioned	-10.5864
توقف	-10.4068
▁تفعله	-10.3377
▁لله	-10.6761
▁منهما	-10.6288
▁decline	-10.5352
فعل	-10.4121
▁Consideration	-10.5781
▁Integrated	-10.5379
▁المتمتع	-10.4707
▁عد	-10.3882
▁تنقيح	-10.4778
▁أمل	-10.4524
-9	-11.0875
▁YOU	-10.4371
ke	-10.7787
▁الهوية	-10.4692
▁Macedonia	-10.4235
▁87	-11.0300
▁closer	-10.5010
▁دستور	-10.4686
يب	-10.5545
No	-10.4482
▁ولايتها	-10.5122
▁Libyan	-10.4381
▁الضرائب	-10.4784
انغ	-10.5826
▁الأوضاع	-10.4685
▁الحقيقية	-10.4494
▁السرعة	-10.4358
▁هى	-10.3626
/16	-11.1236
▁وأوصت	-10.5340
▁Issues	-10.5641
▁FAO	-10.5586
▁teaching	-10.5349
ner	-10.6648
تل	-10.3431
▁وإجراء	-10.4973
▁٢٦	-10.4338
الا	-10.7303
▁أسماء	-10.4818
▁١٩٩٢	-10.3813
فاء	-10.8669
▁7,	-11.0077
▁الأرضية	-10.4978
▁التطبيق	-10.4889
▁المادية	-10.4921
▁launch	-10.5257
▁يوصي	-10.4748
دع	-10.5516
▁Heads	-10.5745
بما	-10.4949
▁سيئة	-10.3568
جار	-10.4240
▁allowance	-10.5474
ac	-10.8300
صة	-10.5398
لى	-10.3777
▁اسمع	-10.3602
ونا	-10.6932
▁deployed	-10.5402
▁التحديد	-10.4772
▁الصادرات	-10.4855
▁أجزاء	-10.4632
▁الشراء	-10.5020
▁وهكذا	-10.4486
▁Ha	-10.4147
▁شراكة	-10.4873
▁occasion	-10.5462
دد	-10.4657
▁شبه	-10.4948
▁وتنص	-10.4942
▁وج	-10.4517
▁وإجراءات	-10.5012
وط	-10.6967
▁fell	-10.4911
▁pass	-10.4875
▁بالأمر	-10.3931
▁محلية	-10.5105
▁charged	-10.5729
/61/	-11.7031
نف	-10.5790
▁جماعة	-10.4430
▁Mali	-10.3886
ES	-10.8372
▁الوطن	-10.4409
▁غياب	-10.4639
ريك	-10.4496
▁Paul	-10.5016
▁اليس	-10.4035
▁شهرا	-10.4966
▁أوغندا	-10.4796
▁حيال	-10.4250
▁قابل	-10.4011
▁بالبشر	-10.5401
▁largely	-10.5596
▁الانسان	-10.3887
▁المنشأ	-10.4637
لال	-10.5569
▁multiple	-10.5663
▁٢٨	-10.4368
▁هوية	-10.5287
▁nearly	-10.5319
▁Ivoire	-10.4434
▁integrate	-10.5583
▁experienced	-10.5646
▁warning	-10.5275
▁الخطر	-10.4813
▁استئناف	-10.5119
▁المسؤول	-10.4541
▁Could	-10.4650
▁لفريق	-10.5153
▁لتمكين	-10.4719
▁belonging	-10.5623
▁شارك	-10.4861
ted	-10.5792
▁كينيا	-10.4793
▁ومما	-10.4862
"?	-10.4594
▁asset	-10.5493
▁أبلغت	-10.5240
▁southern	-10.5916
▁Recommendation	-10.5652
/11	-10.8276
▁interventions	-10.5867
لون	-10.4239
▁rose	-10.5651
دن	-10.3572
▁Once	-10.4888
▁وخطة	-10.5123
▁إليهم	-10.4775
▁تاما	-10.4787
▁eye	-10.4689
▁إشارة	-10.4681
لان	-10.4180
▁البر	-10.6152
▁مجالي	-10.6373
be	-10.6837
▁المفوض	-10.4816
▁يحيل	-10.4834
بيت	-10.5979
▁بيلاروس	-10.5091
▁التحفظات	-10.5118
▁ينطبق	-10.4891
▁stable	-10.5579
▁نموذج	-10.4906
▁مفيدة	-10.4868
راق	-10.6334
▁الولادة	-10.5086
▁fixed	-10.5456
▁السي	-10.4774
▁تملك	-10.4341
including	-10.5614
▁Head	-10.5492
▁(4)	-11.0870
▁نسبيا	-10.4871
▁King	-10.4975
بجميع	-10.5292
▁لجان	-10.5211
▁بالغة	-10.4967
▁Science	-10.5471
▁seat	-10.4659
▁المبين	-10.4985
▁وتؤكد	-10.5052
مه	-10.6665
▁حاولت	-10.3665
▁وأنها	-10.6229
▁بص	-10.5466
ba	-10.6826
▁28.	-10.7435
▁حياتك	-10.3908
▁النمسا	-10.4708
▁أى	-10.3811
بع	-10.5157
▁لخدمات	-10.5300
ursuant	-10.5962
▁والتقنية	-10.5306
▁Everything	-10.4527
▁handle	-10.4694
▁تجميع	-10.4987
▁يعكس	-10.4960
.11	-11.0560
▁اللبنانية	-10.5435
▁ومنها	-10.6068
▁الخيار	-10.4434
▁تقاسم	-10.5082
.9/	-11.2194
▁إساءة	-10.4962
▁proceed	-10.5753
▁increases	-10.6777
▁التوازن	-10.5284
▁الدروس	-10.5204
▁Land	-10.5685
(2)	-10.7067
▁neighbour	-10.5543
?"	-10.4586
▁توجه	-10.4876
▁anyway	-10.4508
ستطيع	-10.3863
▁slow	-10.5189
▁حملة	-10.5025
▁y	-10.6342
▁وتقرير	-10.4921
▁David	-10.5035
زر	-10.5541
▁اقترح	-10.4705
▁widespread	-10.5912
▁ملاحظة	-10.4956
▁قصيرة	-10.4933
▁معين	-10.7181
you	-10.4601
▁decides	-10.5973
▁requesting	-10.5860
▁drop	-10.5060
▁مسؤولة	-10.4932
▁sponsors	-10.5889
▁انتقال	-10.4921
▁ملزمة	-10.5083
▁المستمرة	-10.5046
▁الصيد	-10.5800
▁81	-10.9973
▁استنتاجات	-10.5133
▁inventory	-10.5847
▁decade	-10.5567
▁المظالم	-10.5493
▁والمجلس	-10.5271
▁fault	-10.4600
يق	-10.2786
▁أسمع	-10.4009
▁الأماكن	-10.4626
▁airspace	-10.6007
يء	-10.7017
▁prove	-10.4956
▁تقييد	-10.5285
رسل	-10.4328
▁advanced	-10.5812
كين	-10.6367
▁الرؤساء	-10.5187
▁glad	-10.4896
▁insufficient	-10.6116
اش	-10.4173
▁pregnant	-10.5174
▁borders	-10.6144
▁protocol	-10.5645
▁كيانات	-10.5322
▁destroyed	-10.5386
▁الوظيفة	-10.5186
▁الهام	-10.4654
▁quickly	-10.5154
▁للشعب	-10.5053
وري	-10.5336
▁التشاور	-10.5555
▁دعونا	-10.3949
▁disposal	-10.5971
▁m	-10.7679
▁Nam	-10.4467
▁accession	-10.5985
▁والمادة	-10.5484
▁التسليم	-10.4955
▁variety	-10.5858
▁الطويلة	-10.5179
▁UNOPS	-10.5821
▁المرور	-10.5043
▁controlled	-10.5625
خو	-10.6599
▁reply	-10.6104
يع	-10.6019
▁العالي	-10.5227
▁Reduction	-10.6039
▁وأيرلندا	-10.5341
▁seeing	-10.5040
▁ميت	-10.4763
ولي	-10.5366
▁عنصرا	-10.5661
▁heading	-10.5401
▁وتحليل	-10.5185
▁وخصوصا	-10.5373
▁utilization	-10.6056
▁Invites	-10.5877
▁تقد	-10.5625
▁Armed	-10.6040
عود	-10.5448
▁سبعة	-10.4638
رغب	-10.7075
▁ري	-10.4711
غا	-10.4167
▁الخطرة	-10.5523
▁treated	-10.6029
▁جيش	-10.4792
▁adopting	-10.5959
▁Communications	-10.5856
▁الإدارات	-10.5222
▁والحق	-10.5299
▁يعتقد	-10.4706
/2000/	-10.9751
▁التماس	-10.5327
جمع	-10.4881
ors	-10.7053
▁29.	-10.7530
▁resident	-10.5781
▁الخسائر	-10.4894
▁consolidated	-10.6087
ow	-10.9077
▁افريقيا	-10.4278
▁representing	-10.5918
▁آل	-10.4022
▁المهينة	-10.5228
لاء	-10.5864
▁لإعداد	-10.5307
▁مضى	-10.4470
▁الأيام	-10.4440
▁locations	-10.6036
▁مستمرة	-10.5171
▁Conventions	-10.9695
▁30.	-11.0718
▁قضائية	-10.5274
الشؤون	-10.5703
▁sixth	-10.5665
▁الاستعراضي	-10.5232
▁League	-10.5944
▁وقام	-10.5187
discrimination	-10.5989
▁replace	-10.5794
▁أد	-10.5854
▁مرتبات	-10.5069
▁لمناقشة	-10.5224
▁800	-10.7979
▁تأييد	-10.4803
ائد	-10.8728
▁WTO	-10.6264
▁لتشجيع	-10.5173
▁وتوصيات	-10.5543
▁Adviser	-10.5777
▁catch	-10.4856
▁transnational	-10.5946
▁يتمتع	-10.4937
▁relatively	-10.6004
▁demobilization	-10.6001
▁1986	-11.1937
▁تغطية	-10.5346
▁فحص	-10.5187
▁FOR	-10.5755
▁considerations	-10.7316
▁Thursday	-10.5860
▁Defence	-10.5988
▁لتلبية	-10.5267
▁Mechanism	-10.5789
▁مسار	-10.5079
وج	-10.5089
▁اخرى	-10.4116
▁اجتماعية	-10.5171
▁بالمسائل	-10.5283
▁الهواء	-10.4768
Leste	-10.5145
كا	-10.4756
▁(2009)	-11.2502
▁تتولى	-10.5128
▁$1	-10.6108
▁وعي	-10.5186
Q	-11.1392
▁التوزيع	-10.5361
▁الشمالي	-10.5793
▁Montenegro	-10.5073
▁بحكم	-10.5034
▁careful	-10.5099
▁يحب	-10.4253
▁happening	-10.4833
▁٥١	-10.5215
▁Say	-10.4790
▁Mar	-10.5747
▁إعطاء	-10.5042
▁conservation	-10.6073
▁الثابتة	-10.5515
▁مساهمات	-10.5214
▁forums	-10.6359
▁Procedure	-10.5873
▁وصل	-10.4521
▁video	-10.5086
▁composition	-10.6088
يتش	-10.7968
▁للنظام	-10.5377
▁تعترف	-10.4904
/2006/	-10.9465
▁الزمن	-10.4790
▁لى	-10.4542
صال	-10.8626
▁بالتنسيق	-10.5343
ونه	-10.6806
▁tenth	-10.6050
▁Kazakhstan	-10.4478
▁رئيسا	-10.6015
▁pension	-10.5888
▁تقر	-10.5505
CO	-11.1078
فض	-10.5107
▁أسابيع	-10.4788
▁وتنمية	-10.5511
▁meaning	-10.6026
▁الإنجابية	-10.5205
يكا	-10.7802
▁الصورة	-10.4815
▁سيدة	-10.4333
▁Process	-10.6080
▁ويتضمن	-10.5476
صبح	-10.4340
▁الحكوميين	-10.5415
▁convinced	-10.6021
▁البرية	-10.5423
▁المنسق	-10.5226
▁السجناء	-10.5536
▁كمبوديا	-10.5228
▁للحكومة	-10.5642
▁شعوب	-10.5401
ti	-10.7774
/57/	-11.3274
▁مفتوحة	-10.4985
▁UNRWA	-10.5940
▁تصنيف	-10.5513
In	-10.8621
اذ	-10.6108
▁impossible	-10.5395
▁satellite	-10.5914
▁الإيكولوجية	-10.5776
كول	-10.8652
▁غسل	-10.5208
▁Cross	-10.6016
▁totally	-10.4920
000	-10.9420
▁Ghana	-10.4100
▁execution	-10.6169
قب	-10.5594
▁الحقائق	-10.5147
▁المش	-10.5325
▁أشير	-10.5030
لك	-10.2258
▁مي	-10.6570
▁Fine	-10.4981
▁ني	-10.5253
▁التغذية	-10.5405
وبة	-10.8003
Sub	-11.2526
بعد	-10.4731
هر	-10.5443
▁قدمه	-10.5402
▁worse	-10.4848
▁integral	-10.6310
▁تمتع	-10.5593
▁المقدس	-10.4917
▁الوطنيين	-10.5700
▁intellectual	-10.5942
▁Pre	-10.7337
▁تغطي	-10.5168
▁أحضر	-10.3688
▁الأدوات	-10.5751
▁سأذهب	-10.3994
▁القديمة	-10.4753
▁authors	-10.6757
▁camp	-10.5245
▁flow	-10.5797
.18	-11.1900
▁stress	-10.6083
▁perhaps	-10.5643
▁بني	-10.5156
▁اتخذته	-10.5249
▁weird	-10.4872
مات	-10.6206
▁prohibition	-10.5907
we	-10.6094
▁بأنني	-10.4311
▁terrorists	-10.6499
▁الزراعي	-10.5429
▁Very	-10.4906
▁حب	-10.4237
▁vehicle	-10.5858
▁الأحزاب	-10.5316
الت	-10.6747
▁CEDAW	-10.8749
▁استكمال	-10.5465
▁الجماعي	-10.5235
▁سانت	-10.5272
▁يهوه	-10.5111
▁وعد	-10.4975
دعى	-10.5772
▁conducting	-10.6549
▁المستوطنات	-10.5471
▁extradition	-10.6067
▁المؤسسي	-10.5757
واء	-10.7221
▁functional	-10.6348
▁مقدونيا	-10.5343
▁shouldn	-10.4912
▁أخ	-10.4001
▁يذكر	-10.5147
نج	-10.4173
نو	-10.4694
▁Nevertheless	-10.6124
قيم	-10.5967
رع	-10.5210
▁exception	-10.6118
كس	-10.3027
▁82	-11.0264
▁التعديل	-10.5743
دخل	-10.4087
▁Peter	-10.5250
▁المتكلمين	-10.5459
▁جديدا	-10.5628
pe	-10.7540
▁79	-10.9934
▁sets	-10.7659
▁شىء	-10.4263
▁employed	-10.6210
▁ولايته	-10.5663
ish	-10.7445
▁أخبرني	-10.4137
رن	-10.3661
شو	-10.4544
▁83	-11.0221
▁يعرب	-10.5679
▁شديدة	-10.5270
▁agents	-10.6115
▁رئيسة	-10.6450
▁Chad	-10.5581
▁degradation	-10.6241
اتهم	-10.6185
ناه	-10.7191
▁وإقامة	-10.5563
▁الخارجة	-10.5592
▁Bolivia	-10.4229
▁tourism	-10.6056
▁اقتصاد	-10.5215
▁السبل	-10.5547
▁منصب	-10.5755
▁understood	-10.6039
▁shoot	-10.4740
▁التخفيف	-10.5968
▁الفرنسية	-10.5367
▁صدور	-10.5861
▁نيابة	-10.5377
▁rich	-10.5817
▁الجيد	-10.4643
care	-10.6318
▁scared	-10.5044
/51/	-11.2710
▁وترحب	-10.5698
▁الكر	-10.6979
▁الخطط	-10.5458
▁facility	-10.6118
▁Statement	-10.6225
▁لمواصلة	-10.5673
▁دو	-10.4979
▁المتضررة	-10.5812
▁تطبق	-10.5392
به	-10.5416
▁transmitting	-10.6298
▁الإصلاحات	-10.5630
▁بوسائل	-10.5973
▁detail	-10.6080
▁wider	-10.6294
▁drew	-10.6278
ni	-10.6817
▁التحتية	-10.6011
▁reiterates	-10.6431
▁zones	-10.6376
wa	-10.7848
▁القتال	-10.5112
▁weapon	-10.5338
▁بإعادة	-10.5495
▁الليبية	-10.5526
▁inadequate	-10.6379
▁salary	-10.6313
▁الاختفاء	-10.5891
توقع	-10.6570
▁adverse	-10.6407
▁سأفعل	-10.4335
▁الدانمرك	-10.5455
▁المذكرة	-10.5527
▁النصف	-10.5390
▁ودعا	-10.5533
▁00/15	-10.6235
▁يعزز	-10.5635
▁أنشأت	-10.5572
▁المتبعة	-10.5855
▁Qatar	-10.4826
▁Water	-10.5978
▁أفعال	-10.5341
▁acknowledged	-10.6332
▁الموقف	-10.5456
▁افعل	-10.4481
الأ	-10.6246
▁والمتوسطة	-10.5895
▁ظلت	-10.5439
▁formed	-10.6339
▁reading	-10.6031
▁يدعم	-10.5699
▁peacebuilding	-10.6233
▁رهنا	-10.5571
زو	-10.4550
Proliferation	-10.6168
/49/	-11.0626
سب	-10.4925
▁maternal	-10.6431
▁الصعوبات	-10.5631
▁اقتصاداتها	-10.5811
▁99	-11.1308
▁1982	-11.2619
▁للقطاع	-10.6308
▁وقررت	-10.5675
▁Yemen	-10.4576
▁ولد	-10.4655
▁تمارس	-10.5625
▁أحدهم	-10.4515
فير	-10.6593
▁Document	-10.6168
▁يدفع	-10.5098
▁إعلامية	-10.5802
▁امتثال	-10.5580
▁double	-10.5854
▁وتطبيق	-10.5802
▁ban	-10.6232
▁finds	-10.7525
▁الاستقصائية	-10.5817
مكن	-10.4456
الي	-10.4919
▁سيدتي	-10.4452
ذهب	-10.3842
,"	-10.7374
▁الأخذ	-10.5948
▁fill	-10.6177
▁NGO	-10.6328
شكل	-10.5382
▁صفوف	-10.5814
▁أطلق	-10.4789
▁تابع	-10.5480
▁سام	-10.5291
lu	-10.7931
▁signing	-10.6460
▁Yugoslav	-10.4910
▁crises	-10.6407
▁الرسائل	-10.5431
▁صوب	-10.5977
▁الجهة	-10.5525
▁97	-11.1398
▁تحظى	-10.5506
▁willing	-10.6740
▁والح	-10.6545
▁spend	-10.5449
▁وبينما	-10.5763
عب	-10.4757
خص	-10.8568
ميل	-10.5345
▁Tuesday	-10.6204
▁البطالة	-10.5763
▁نجد	-10.4641
▁remote	-10.6090
▁بقضايا	-10.5604
▁Guidelines	-10.6560
▁المستفادة	-10.5864
▁قرارا	-10.6421
▁administering	-10.6472
▁افتتاح	-10.5894
▁balanced	-10.6621
▁المعدل	-10.5859
▁detainees	-10.6512
▁cell	-10.5454
▁Decision	-10.6414
▁وسن	-10.5601
▁88	-11.0690
▁شاهد	-10.4526
▁(2002)	-11.1218
▁بأحكام	-10.5786
▁التنفيذيين	-10.5965
ER	-11.0499
▁promoted	-10.6630
▁ويقوم	-10.5754
▁84	-11.0508
▁organize	-10.6313
نك	-10.5276
▁منهجية	-10.5823
▁explore	-10.6458
▁laid	-10.6131
▁الخميس	-10.6007
شع	-10.8516
▁للح	-10.6411
إذا	-10.4589
▁lady	-10.5181
▁con	-10.8771
▁distinction	-10.6434
▁عودة	-10.5037
▁Bill	-10.6084
▁quick	-10.5945
حكومة	-10.5900
▁decades	-10.6546
▁remedy	-10.6389
▁operate	-10.6202
▁الهيكل	-10.5694
▁cluster	-10.5945
▁ممثلة	-10.6132
▁shut	-10.5392
▁المتبادلة	-10.5848
▁الصور	-10.4895
▁visited	-10.6525
▁بانتظام	-10.6163
ut	-11.0598
▁المائية	-10.5729
▁وعند	-10.5954
▁نقوم	-10.4541
زيل	-10.6257
▁التفاهم	-10.5791
▁التاسع	-10.5672
▁للحدود	-10.5909
▁talks	-10.7113
▁بصدد	-10.5540
▁أقدم	-10.5454
▁يتمكن	-10.5442
▁الجسيمة	-10.5958
.17	-11.2123
▁بيساو	-10.6012
▁إليكم	-10.5431
▁أتحدث	-10.4437
/6	-10.9342
▁bill	-10.6339
▁discriminatory	-10.6747
▁لنذهب	-10.4544
▁duration	-10.6114
▁piece	-10.5180
▁إبرام	-10.5781
▁والحكومات	-10.6039
▁fisheries	-10.6436
▁et	-10.8588
▁مستقل	-10.5563
/2005/	-11.0488
▁بتنظيم	-10.5997
▁accessible	-10.6459
▁innocent	-10.5860
▁اللاحقة	-10.5778
▁تقلق	-10.4619
▁guaranteed	-10.6515
▁وتمكين	-10.6443
ظهر	-10.4829
▁تقبل	-10.5154
▁recognizing	-10.6345
▁rejected	-10.6176
▁acceptable	-10.6275
▁Developed	-10.6590
يو	-10.5202
▁32.	-10.7213
▁بنغلاديش	-10.5859
▁رسائل	-10.5587
▁اه	-10.5180
▁والقواعد	-10.5898
مور	-10.5604
▁ثاني	-10.5258
▁Time	-10.5916
▁تبذل	-10.5688
▁والعلم	-10.5801
▁يتوقع	-10.5675
▁god	-10.5523
▁intervention	-10.6341
▁تي	-10.6777
▁مرور	-10.5514
▁Faso	-10.4510
هذه	-10.4260
▁أسوأ	-10.5099
بقي	-10.6015
▁التشريعي	-10.5996
▁stock	-10.6035
▁موجودة	-10.5430
▁Treatment	-10.6286
▁المادتين	-10.5858
▁تقديرها	-10.5962
▁المقاطعات	-10.5838
▁red	-10.6041
زين	-10.7495
▁disabled	-10.6642
لوك	-10.7389
▁اليومية	-10.6284
ناك	-10.6857
باس	-10.8591
▁جماعات	-10.5985
▁يذهب	-10.4651
▁اخت	-10.8253
end	-11.0049
▁يست	-10.5548
▁2012-2013	-11.3325
غر	-10.6476
▁properly	-10.6614
▁تغييرات	-10.6006
▁عليكم	-10.5290
▁31.	-10.9865
▁ضروب	-10.6039
▁وعمل	-10.5545
▁وأكدت	-10.6073
▁الموجودات	-10.6144
▁generation	-10.6384
ou	-11.0023
قتل	-10.4871
▁Through	-10.6704
ختلف	-10.5362
▁ذاك	-10.4852
ities	-10.8716
▁السكانية	-10.6080
▁anybody	-10.5500
▁district	-10.6580
▁Wednesday	-10.6462
▁بمشاركة	-10.5964
▁بمنع	-10.6032
▁أك	-10.6856
▁putting	-10.5701
▁ministerial	-10.6863
▁xenophobia	-10.6431
▁خيارات	-10.5814
▁المحيطات	-10.5887
▁9,	-11.0809
▁البضائع	-10.5546
▁يقترح	-10.5999
RE	-10.9408
▁بالمعلومات	-10.5896
▁المضي	-10.6197
▁box	-10.5474
حد	-10.5167
▁سر	-10.5745
▁barriers	-10.6723
اوي	-10.7274
▁رئيسيا	-10.6479
دني	-10.7341
▁وبموجب	-10.5941
▁تايلند	-10.5896
▁للاجئين	-10.5931
▁أح	-10.5682
▁الاطلاع	-10.6468
▁التجارب	-10.5745
▁البنية	-10.6054
▁سابقة	-10.5955
/55/	-11.5810
▁المصالحة	-10.5898
▁performed	-10.6639
مك	-10.5070
▁1996.	-11.1902
/2007/	-11.1014
▁14,	-11.0924
▁لجمع	-10.5378
▁تجمع	-10.6075
▁أرمينيا	-10.6142
▁Something	-10.5303
▁reaching	-10.6747
if	-10.8000
عالج	-10.7139
صدق	-10.5200
▁Local	-10.6766
▁1997.	-11.2188
▁بول	-10.5847
/9	-11.0271
▁Anti	-10.6788
/56/	-11.6921
▁تأخير	-10.6136
▁ويرى	-10.5984
▁الآ	-10.7317
▁المركبات	-10.5962
▁خير	-10.4839
/2004/	-10.9263
IC	-11.2424
دفع	-10.6098
▁لكنك	-10.4939
ترك	-10.6084
تري	-10.7916
▁قائلة	-10.5835
خذ	-10.5079
▁procedural	-10.6644
▁شا	-10.5235
▁Michael	-10.5511
سار	-10.7823
▁96	-11.1679
▁بولندا	-10.5892
حقا	-10.5630
▁86	-11.0827
▁عزيزي	-10.4773
▁assume	-10.6160
▁luck	-10.5533
▁Indian	-10.6671
Part	-11.2036
ten	-10.8836
▁59/2	-11.2494
▁secured	-10.7020
▁تدمير	-10.5766
سور	-10.8129
▁تتبع	-10.5526
▁claimed	-10.6779
▁Cameroon	-10.5321
▁negotiation	-10.6809
▁contingent	-10.6781
▁الثانوية	-10.5298
فك	-10.4902
▁13-	-10.5470
contributing	-10.6609
فى	-10.5287
▁تجاوز	-10.5480
▁ريو	-10.6126
▁About	-10.5801
▁حصة	-10.5938
▁المرشحين	-10.6172
▁التصرف	-10.6024
▁شاركت	-10.6387
▁relate	-10.6562
▁تجارية	-10.6118
▁طراز	-10.6175
▁قطر	-10.5657
▁أحبك	-10.4961
▁أخبرك	-10.4591
▁ذاهب	-10.4645
▁1540	-11.2967
▁وفيات	-10.7784
▁Make	-10.5743
فتح	-10.6022
ذلك	-10.4432
▁المكتسب	-10.5860
▁Christ	-10.6287
▁Call	-10.5689
▁Outer	-10.6960
▁مركبات	-10.6137
أس	-10.6977
▁33.	-10.7298
▁والتجارة	-10.5871
▁بالألغام	-10.6279
▁ترتيب	-10.5735
▁مفوض	-10.5746
▁import	-10.6912
▁online	-10.6639
▁700	-10.8500
▁ministries	-10.6921
▁Trafficking	-10.6787
▁الإصابة	-10.6174
▁ودور	-10.6471
تشي	-10.8294
▁ولذا	-10.5912
▁dedicated	-10.6692
▁lawyers	-10.6850
▁رسم	-10.5310
▁الصك	-10.6281
▁drinking	-10.6057
▁equally	-10.6972
▁صك	-10.6448
وص	-10.8650
▁المجرمين	-10.6045
▁الجو	-10.5657
▁جمعية	-10.6349
▁%	-11.1785
▁Mauritius	-10.5255
▁القابلة	-10.6142
▁واعتماد	-10.6267
▁sect	-10.6558
▁larger	-10.6970
▁displacement	-10.6970
▁دعت	-10.6041
▁وقتا	-10.6058
▁repatriation	-10.7108
▁بس	-10.7806
هيئة	-10.6455
هود	-10.8346
▁إنك	-10.5339
▁وجهة	-10.5991
▁نشوب	-10.6338
▁جاك	-10.6243
▁وقامت	-10.6158
▁outputs	-10.7133
▁تراعي	-10.6138
oc	-11.4354
▁وبعض	-10.5865
ja	-10.8710
▁وف	-10.5303
▁الجاري	-10.6271
▁لحق	-10.6650
▁وضعها	-10.7077
▁مخ	-10.6266
▁مقترح	-10.6056
حصل	-10.5777
▁الطبي	-10.6306
باسم	-10.5902
▁93	-11.1446
▁adequately	-10.6826
▁الإضافي	-10.6202
▁الشهود	-10.6092
▁financed	-10.6889
▁ردود	-10.6321
▁وتوسيع	-10.6372
▁قدمته	-10.6311
▁الاقتصادات	-10.6740
▁العربي	-10.6140
▁movements	-10.6831
▁الأصلي	-10.5950
▁عنوان	-10.5942
▁الوقائية	-10.6180
▁العقلية	-10.6442
▁تنزانيا	-10.6144
داع	-11.1767
▁الثلاثاء	-10.6318
▁determining	-10.6750
▁٥٠	-10.5710
▁تنظم	-10.6284
▁UNCITRAL	-10.6649
▁Statements	-10.7048
▁enemy	-10.6197
▁covers	-10.7068
▁تدهور	-10.5999
▁تلقى	-10.6105
▁Drug	-10.6634
رو	-10.2709
▁بالأعمال	-10.6064
▁drawing	-10.6821
▁الشفوية	-10.6217
ya	-10.7401
▁German	-10.6307
▁صد	-10.6424
▁أعداد	-10.6023
لغ	-11.0169
▁إنسانية	-10.6075
▁Reports	-10.8246
▁تنشأ	-10.6173
▁مؤتمرات	-10.6551
▁reviewing	-10.7260
IN	-11.2748
▁92	-11.1646
ايا	-10.8571
حص	-10.6836
▁يهدف	-10.6349
▁Constitutional	-10.6893
Terrorism	-10.6916
▁deaths	-10.7251
▁ثمانية	-10.5924
▁شعور	-10.5310
▁Assessment	-10.7033
▁Le	-10.6931
نز	-10.4299
▁House	-10.6140
▁فترات	-10.6197
▁تكوني	-10.5591
▁مال	-10.7255
▁أتذكر	-10.5099
▁لاستخدام	-10.6216
ثبت	-10.5830
▁opposition	-10.6817
بون	-10.6537
▁الانحياز	-10.6204
▁وهما	-10.6833
▁أصدقاء	-10.5435
فور	-10.8142
▁المواضيعية	-10.6672
▁مادة	-10.6578
▁Roma	-10.6788
sharing	-10.6862
▁relative	-10.6873
▁واصلت	-10.6250
▁الداخل	-10.5104
بك	-10.5207
▁دكتور	-10.5117
▁يسهم	-10.6389
▁بالاشتراك	-10.6509
▁Should	-10.6379
▁التنبؤ	-10.6030
ee	-10.8793
▁المستحقة	-10.6253
▁وبذلك	-10.6110
▁stages	-10.7201
▁وخ	-10.8478
▁بعدها	-10.7327
▁قليلة	-10.6129
▁monthly	-10.6956
▁denied	-10.6974
▁التنظيم	-10.6118
▁بطرق	-10.6424
▁يواجه	-10.6143
▁package	-10.6528
▁equity	-10.6749
▁Bye	-10.5713
ler	-10.6688
▁14-	-10.5624
▁Standing	-10.6976
زام	-10.9671
▁التعرض	-10.6549
▁adjustments	-10.6828
▁الصف	-10.6177
▁فور	-10.6264
▁dream	-10.5571
▁للشعوب	-10.6279
▁objection	-10.6824
▁بمكان	-10.5925
▁pertaining	-10.7189
▁Among	-10.6998
▁الحظ	-10.5902
▁honey	-10.5254
▁نتحدث	-10.4937
▁94	-11.2261
بالنظر	-10.6583
▁مضمون	-10.6409
▁الأكبر	-10.5979
▁Prohibition	-10.6977
▁إقليمي	-10.6492
▁Shut	-10.5953
▁outreach	-10.7087
▁الأربعة	-10.6183
▁القطاعين	-10.6498
▁البلاغات	-10.6593
▁مجنون	-10.4908
▁المرض	-10.5929
▁Saint	-10.3419
▁التحدي	-10.6287
▁Singapore	-10.5138
▁feet	-10.6127
▁career	-10.6601
▁format	-10.7692
▁demonstrate	-10.6929
▁الأنصبة	-10.6135
▁continuous	-10.7003
▁يرغب	-10.6026
▁Jamahiriya	-10.5596
ca	-10.8288
▁الممثلة	-10.6694
▁Stay	-10.5996
▁مو	-10.4990
▁أعماله	-10.6762
ياء	-10.6629
▁مواضيع	-10.6502
▁تحديث	-10.6604
▁ويجوز	-10.6293
▁تخرج	-10.5236
▁الجزيرة	-10.5914
▁biennial	-10.7015
▁الشخصي	-10.6141
▁extra	-10.7693
قوا	-10.8570
▁العقبات	-10.6207
▁سائر	-10.6329
رئ	-10.8620
▁تسبب	-10.5881
▁التثقيف	-10.6615
جيل	-10.9255
▁والشباب	-10.6691
▁Poverty	-10.7409
▁remind	-10.6443
▁أوصى	-10.6082
▁المتح	-10.5276
▁ourselves	-10.6447
▁أرسل	-10.4900
صول	-11.2111
جا	-10.4794
▁requiring	-10.7345
▁والإبلاغ	-10.6647
▁الضعف	-10.6447
كال	-10.7743
▁القيم	-10.6409
▁النقاش	-10.6523
▁suggestions	-10.6895
سكو	-10.7879
▁sell	-10.6073
▁Rio	-10.6947
▁accident	-10.6172
/50/	-11.2245
▁الديمقراطي	-10.6121
▁مدرسة	-10.5928
▁consolidation	-10.7270
▁الفردية	-10.6326
/7	-11.1535
ley	-10.6813
▁يحيط	-10.6655
▁2015.	-11.3622
Self	-10.7319
▁الحسبان	-10.6350
▁seeks	-10.7492
▁instructions	-10.7071
▁تصرف	-10.5713
▁مطالبة	-10.6396
مسائل	-10.6158
▁البيولوجية	-10.6300
▁ومركز	-10.6173
▁وهل	-10.5991
▁وعدد	-10.6601
▁Least	-10.7097
▁تبحث	-10.5347
▁بلجيكا	-10.6499
▁قوائم	-10.6362
▁تش	-10.5778
▁لاتخاذ	-10.6380
▁وماذا	-10.5300
إنهاء	-10.6615
▁منكم	-10.7479
▁حزب	-10.6348
▁الدوحة	-10.6657
▁Based	-10.7092
▁معروضا	-10.6561
▁Pro	-10.9365
طال	-10.9165
▁النفس	-10.6058
▁والبحث	-10.6301
▁الملائم	-10.6547
▁وموظفي	-10.6788
▁صراحة	-10.6462
▁بإمكاني	-10.6742
جاك	-10.5319
▁السائدة	-10.6454
▁ran	-10.6316
▁grow	-10.6441
▁ونتائج	-10.6508
▁34.	-10.7660
ضة	-10.8453
▁المحتجزين	-10.6751
قطع	-10.5393
▁equivalent	-10.7159
▁ممثلين	-10.6816
▁تستحق	-10.5583
▁المنتهية	-10.6801
▁علاج	-10.6046
Cause	-10.5700
▁Lithuania	-10.5601
▁وينص	-10.6602
▁1995.	-11.1729
▁وأي	-10.6332
▁٢٩	-10.5812
▁دمج	-10.6747
coming	-10.7304
▁Jamaica	-10.5253
▁Settlements	-10.7108
▁التخلص	-10.6267
▁loved	-10.6155
▁أصدق	-10.5973
لية	-11.0191
▁Arms	-10.7527
▁واعتمدت	-10.6450
▁صعوبة	-10.6221
▁مسبقا	-10.6249
▁وبلدان	-10.6672
▁tolerance	-10.7171
keeping	-10.6218
▁الاستمرار	-10.6336
▁بالموارد	-10.6863
▁هلا	-10.7665
▁شركاء	-10.6305
▁ووسائل	-10.6522
▁خلاف	-10.5668
▁subparagraph	-10.7061
ang	-10.9354
‍	-10.6193
▁allowing	-10.6922
IS	-11.1034
▁يثير	-10.6193
▁التحول	-10.6250
▁flight	-10.6264
ئت	-10.9259
▁يستحق	-10.5473
▁مايو	-10.6647
▁formulated	-10.7198
▁91	-11.1667
▁revision	-10.7209
▁والد	-10.5385
▁inspection	-10.7108
▁assisted	-10.7522
▁إنما	-10.6153
▁عاد	-10.5457
▁موت	-10.6498
▁Sixty	-10.7026
▁البن	-10.6968
▁تجديد	-10.6662
سيد	-10.7849
اؤها	-10.9267
What	-10.5606
▁الورقة	-10.6819
▁Election	-10.7042
Bissau	-10.6283
▁الصناعة	-10.6448
▁estimate	-10.6920
فس	-10.8915
▁تعليق	-10.6374
SP	-11.4266
▁أخبرتك	-10.5362
▁مصائد	-10.6770
▁فكرت	-10.5381
▁Burkina	-10.5027
▁أسبوع	-10.6186
▁Never	-10.6108
▁successfully	-10.7353
لاك	-10.7366
▁الأبيض	-10.6263
oriented	-10.7239
▁الإنجازات	-10.6570
income	-10.7416
▁Penal	-10.7413
▁Annual	-10.7061
▁dear	-10.6074
▁mitigation	-10.7519
▁testing	-10.6925
▁والجهات	-10.6929
▁المضيفة	-10.6759
زاع	-10.7051
▁suggest	-10.6785
▁ملك	-10.5179
▁الطبيعة	-10.6325
▁Air	-10.7058
▁http	-11.3556
▁شهادة	-10.6239
▁مبالغ	-10.6734
▁وبأن	-10.6692
▁يركز	-10.6650
▁Environmental	-10.7392
▁قائد	-10.6112
▁Malta	-10.5586
▁للتجارب	-10.6550
▁نووية	-10.6645
▁تنتهي	-10.6043
▁behaviour	-10.7073
▁conjunction	-10.7287
RST	-11.3953
▁الستين	-10.6292
▁تونس	-10.6233
▁newly	-10.7276
روب	-10.7365
▁ضرورية	-10.7126
▁وتمثل	-10.6808
▁desire	-10.6906
▁accountable	-10.7313
▁Slovakia	-10.5662
▁كول	-10.7216
▁sensitive	-10.7040
▁تعطي	-10.6131
▁الإسهام	-10.6544
▁مسؤوليات	-10.6352
/54/	-11.1543
▁Educational	-10.7266
▁واليابان	-10.6625
منح	-10.6817
/2003/	-10.8665
عتقد	-10.5817
▁تجنب	-10.6795
▁transfers	-10.7822
▁نيبال	-10.6761
▁تستمر	-10.6176
▁التحرير	-10.6357
▁الضعيفة	-10.6654
▁أهل	-10.5817
▁15-	-10.6140
▁projected	-10.7131
▁ميل	-10.6018
دية	-10.5774
▁Welcoming	-10.7068
▁scene	-10.6554
▁تفضل	-10.5574
▁الأربعاء	-10.6881
▁بتحقيق	-10.6618
▁الاشتراك	-10.6525
▁قيود	-10.6891
les	-10.8240
▁اخر	-10.5156
▁Whatever	-10.6013
شرك	-10.7881
يش	-10.6568
▁التوظيف	-10.6809
ular	-10.8701
▁والش	-10.9092
▁abroad	-10.7377
▁List	-10.7301
▁١٩٩١	-10.5441
▁Latvia	-10.5705
▁Youth	-10.7596
▁capable	-10.7319
▁prompt	-10.7458
▁مسؤول	-10.5879
▁لأعمال	-10.6819
▁incident	-10.7052
om	-11.1824
▁commended	-10.7595
▁begun	-10.7371
▁فما	-10.6230
▁اليونان	-10.6170
▁qualified	-10.7343
▁realized	-10.7018
حدث	-10.6184
▁وبرامجها	-10.6921
ناقش	-10.8216
▁واضحا	-10.6337
▁Doha	-10.7489
▁كتب	-10.5450
▁35.	-10.7697
▁bound	-10.7155
▁المحافظة	-10.6730
▁المتبادل	-10.6226
▁composed	-10.7504
لزم	-11.0540
PV	-11.3818
▁award	-10.7200
▁وكيف	-10.6306
▁وبعثة	-10.7381
▁occupying	-10.7215
بني	-10.6316
▁الإطارية	-10.7205
▁fiscal	-10.7158
▁وبشأن	-10.6677
▁الأطلسي	-10.6545
▁بالسجن	-10.6555
▁استمر	-10.5924
ot	-11.1018
▁قر	-10.6514
▁بضعة	-10.5977
▁تتألف	-10.6684
▁الحر	-10.6722
روع	-10.6434
▁رفيع	-10.6608
▁Similarly	-10.7439
▁للشرطة	-10.6873
▁أسواق	-10.6613
▁89	-11.1665
▁ماليزيا	-10.6634
▁الأجور	-10.6741
▁يتولى	-10.6672
▁Inspection	-10.7534
▁copies	-10.7168
▁يظهر	-10.6086
▁$3	-10.8364
▁votes	-10.7789
▁للولايات	-10.6563
▁الإشراف	-10.6760
▁العنوان	-10.6553
▁weight	-10.6902
▁مداولات	-10.6910
.1،	-10.7471
▁psychological	-10.7382
▁academic	-10.7456
▁يشعر	-10.5841
▁continent	-10.7214
▁1987	-11.3146
▁sweet	-10.6154
▁التأثير	-10.6668
▁reliable	-10.7477
▁offers	-10.7952
▁قتلت	-10.6154
▁السابقين	-10.6872
▁صف	-10.5987
▁يحاول	-10.5667
▁عملت	-10.6226
خر	-10.6699
▁Albania	-10.6222
▁prejudice	-10.7123
▁brain	-10.6298
▁Protocols	-10.8270
▁coffee	-10.6396
▁strict	-10.7474
▁النوم	-10.5706
▁commodity	-10.7618
▁refers	-10.7632
▁سجن	-10.6369
▁sovereign	-10.7617
▁طلبها	-10.6963
▁الصيغة	-10.6570
▁حاول	-10.5603
بير	-10.6800
▁جر	-10.6570
▁يصدر	-10.6597
▁والخاص	-10.6807
▁deeply	-10.7313
▁Reaffirms	-10.7561
▁انضمت	-10.7013
▁الطبيب	-10.5812
▁المستدام	-10.7158
▁الأخضر	-10.6821
▁coastal	-10.7530
▁الحيوية	-10.6591
▁constituted	-10.7341
▁صربيا	-10.6887
▁والمناطق	-10.6815
▁أخر	-10.5366
▁هياكل	-10.6833
▁مق	-10.9818
▁count	-10.6613
▁violent	-10.7323
▁أصدرت	-10.7036
“،	-10.7492
▁الوزارات	-10.6748
▁الاحترام	-10.6544
▁الأرقام	-10.6618
▁Actually	-10.6020
▁$2	-10.7667
▁exclusion	-10.7929
▁flexibility	-10.7404
▁أبو	-10.6682
UNEP	-11.1443
▁الحساب	-10.6399
▁Damn	-10.6218
▁الابتدائي	-10.6904
▁استقرار	-10.6603
▁إثبات	-10.6390
au	-11.0824
▁فرع	-10.6548
▁الحديثة	-10.7148
▁music	-10.6623
▁stocks	-10.7648
▁مستعد	-10.5549
▁Delegations	-10.7602
▁بهما	-10.7257
▁جعلت	-10.6693
▁الاحتفاظ	-10.6716
▁وجزر	-10.7029
قسم	-10.7070
فال	-10.7632
▁وأعضاء	-10.7039
▁straight	-10.6137
▁عين	-10.6349
▁الإفلات	-10.6795
▁corresponding	-10.7494
▁Organized	-10.7621
▁Zambia	-10.5509
▁المضيف	-10.6799
▁للجهود	-10.6920
▁سار	-10.6892
▁truly	-10.7097
▁مم	-10.6708
▁بفعل	-10.6142
▁لتنمية	-10.6655
▁London	-10.7073
▁العراقية	-10.6654
▁ending	-10.7450
▁الدكتور	-10.5898
▁الكشف	-10.6790
▁مصلحة	-10.6758
▁ويبدو	-10.6446
▁جلسته	-10.7054
▁method	-10.7518
▁vocational	-10.7431
ادات	-11.0994
▁الذكر	-10.6693
▁شو	-10.7475
طاق	-10.9371
▁kidding	-10.6056
▁شغل	-10.6784
▁customary	-10.7516
فات	-11.0078
▁harassment	-10.7377
▁للتعليم	-10.7132
▁ونظام	-10.7235
▁volume	-10.7183
▁اقت	-10.8524
▁اتفاقيات	-10.6882
▁يورو	-10.7115
▁الفور	-10.6358
قوم	-10.7289
▁ساعد	-10.6165
▁يريدون	-10.5779
كنت	-10.5668
ـ"	-10.6863
▁وتعمل	-10.6931
▁lists	-10.8129
▁البو	-11.0498
▁عاملا	-10.7508
▁till	-10.6160
▁Country	-10.7485
▁المنح	-10.7972
وسائط	-10.6974
▁enforced	-10.7656
▁أدري	-10.5728
▁إدارية	-10.6718
▁القليل	-10.5879
▁1985	-11.3250
▁يتعرض	-10.6845
/65/	-11.2331
لق	-10.5760
▁تتخذها	-10.7282
▁(2008)	-11.2130
▁الفعالية	-10.7023
▁convening	-10.7450
min	-11.2268
▁أوضح	-10.6837
▁أصول	-10.6915
▁البرتغال	-10.6748
▁الست	-10.7021
▁قائم	-10.6811
▁أسرهم	-10.7206
▁القمر	-10.6550
▁ولايات	-10.7416
▁الفعل	-10.6469
▁Moldova	-10.6114
غل	-10.9242
▁weak	-10.7155
▁Interim	-10.7835
▁أعمل	-10.5705
▁oral	-10.8029
▁therein	-10.7545
▁ولدى	-10.7123
▁محور	-10.6962
▁اليونسكو	-10.7180
▁اليوغوسلافية	-10.6846
قصد	-10.7202
▁proof	-10.7167
ثر	-10.6071
▁بتغير	-10.7217
▁texts	-10.8072
اشي	-10.8395
▁سعادة	-10.6568
▁خطاب	-10.6358
▁وحدها	-10.6785
▁interaction	-10.7665
▁thereto	-10.7611
▁نسمة	-10.7052
▁Terrorism	-10.7411
▁تجهيز	-10.6959
▁الإلزامية	-10.7020
▁conventional	-10.7481
▁الإست	-10.9224
▁الترجمة	-10.6886
▁الخمسين	-10.6335
فرد	-10.8325
▁والأفراد	-10.6973
▁القوى	-10.6968
▁مقبول	-10.6613
▁genuine	-10.7731
▁مفتوح	-10.6443
▁طرائق	-10.7107
▁evil	-10.6942
▁السياحة	-10.6753
▁seized	-10.7468
▁possession	-10.7769
▁Shit	-10.6141
▁breach	-10.7770
▁الفرق	-10.6773
▁الضحية	-10.6337
▁Increased	-10.7756
▁قدرتها	-10.7117
عل	-10.5259
▁فقال	-10.6663
▁واقع	-10.6607
▁حديثا	-10.6974
ساعد	-10.4852
▁thereon	-10.7500
▁responded	-10.7701
▁موجود	-10.5870
▁بنجاح	-10.6784
▁extrabudgetary	-10.7276
▁فقدت	-10.6041
▁مسجل	-10.6756
ائف	-11.1018
▁phenomenon	-10.7908
▁معنى	-10.6417
▁pull	-10.6644
▁الإن	-10.9684
▁scheme	-10.7469
▁وحده	-10.5924
اللجنة	-10.6636
▁recalls	-10.7587
▁television	-10.7548
▁household	-10.7603
▁Nicaragua	-10.5776
▁Whoa	-10.6512
▁يجد	-10.6057
يجب	-10.5860
▁2000-2001	-11.4053
يار	-10.8292
▁أعيد	-10.6528
▁تجربة	-10.6466
▁Montreal	-10.7680
قدت	-10.6643
▁بالإنكليزية	-10.7568
▁والنقل	-10.7020
▁شفويا	-10.6981
▁والستون	-10.7287
▁لحساب	-10.6664
▁الخبير	-10.6965
▁powerful	-10.7199
▁أراك	-10.5681
▁بتمويل	-10.7064
▁arrangement	-10.7397
▁percent	-10.7205
ضي	-10.7667
▁negotiating	-10.7870
▁caught	-10.6707
▁patterns	-10.7840
so	-10.8934
▁أسس	-10.6941
▁النشر	-10.7220
▁الطبيعي	-10.6438
▁أوضاع	-10.7068
▁suffer	-10.7445
▁lived	-10.7175
▁نعلم	-10.5992
▁professionals	-10.7760
▁overview	-10.7749
▁undermine	-10.8029
▁somewhere	-10.6220
▁Building	-10.7603
▁struggle	-10.7542
▁تتعاون	-10.6863
▁o	-10.7618
▁Emergency	-10.7618
▁يفترض	-10.5941
**	-11.3677
▁لجعل	-10.6621
▁احتجاز	-10.7466
▁propose	-10.7339
owned	-10.7745
▁weren	-10.6380
▁insolvency	-10.8200
▁أيدي	-10.6772
▁الفوائد	-10.7094
جيد	-10.6534
▁الاس	-10.7120
▁collect	-10.7638
▁مرتكبي	-10.7432
▁36.	-10.8169
عر	-10.6703
▁بالغابات	-10.6565
▁hang	-10.6609
▁تمس	-10.6852
.13	-11.2287
▁وأمن	-10.7356
▁إكوادور	-10.7389
▁يعاني	-10.6799
▁القليلة	-10.7068
▁سماع	-10.5852
mounted	-11.4210
▁فر	-10.8755
▁hunger	-10.7706
▁استهلاك	-10.7202
▁Advancement	-10.7901
▁1970	-11.1592
▁en	-11.0810
▁Viet	-10.6027
▁تحسن	-10.6828
▁أزمة	-10.6719
▁آي	-10.6767
▁بمزيد	-10.7167
▁أشكر	-10.6667
▁1998،	-10.7330
▁التحفظ	-10.7016
▁Watch	-10.6847
▁عقدها	-10.7345
▁occur	-10.7446
▁root	-10.7104
روس	-10.6465
treatment	-10.7614
▁عائلة	-10.5950
▁ويتم	-10.6857
▁techniques	-10.7570
فترض	-10.6252
▁بموجبه	-10.8094
/52/	-11.3943
▁ظاهرة	-10.7116
▁renewed	-10.7902
▁Appeals	-10.7827
▁العلمي	-10.7113
▁invites	-10.7637
▁submissions	-10.8533
▁reflecting	-10.8004
عيش	-10.6347
▁biodiversity	-10.7556
▁مستقبلا	-10.7062
▁القومية	-10.7182
▁والنظام	-10.6962
▁machinery	-10.7883
▁mouth	-10.6704
▁juvenile	-10.7956
▁storage	-10.7482
سياسة	-10.7344
▁مثير	-10.5956
▁للمعايير	-10.7141
▁instances	-10.8143
ig	-11.2033
▁والواقع	-10.6693
▁صون	-10.7048
▁لأمريكا	-10.7179
▁السكن	-10.7244
▁1994.	-11.2068
▁الإجمالية	-10.7214
▁بالفرنسية	-10.7046
▁معنية	-10.7287
/1999/	-10.9661
▁المع	-10.7627
▁inputs	-10.7874
▁دورية	-10.7489
)]	-11.3771
▁الأربع	-10.7148
ستان	-11.0191
▁ammunition	-10.7710
▁forests	-10.7920
▁presidential	-10.7860
▁headed	-10.7623
▁Within	-10.8017
▁linkages	-10.7726
▁Employment	-10.8004
com	-11.2557
▁filed	-10.7817
▁mistake	-10.6683
▁وتشكل	-10.7190
▁16-	-10.6768
▁software	-10.7499
▁السماء	-10.5645
▁لنزع	-10.7023
▁وتدابير	-10.7605
أيها	-10.5596
دمج	-10.7107
▁النارية	-10.7191
▁card	-10.6653
▁تام	-10.7311
زا	-10.8070
▁بالبيئة	-10.6767
▁quarter	-10.7478
▁المسؤوليات	-10.7124
▁وانا	-10.6188
▁stresses	-10.7962
▁للأمانة	-10.7374
▁department	-10.7118
▁المقد	-10.7345
▁وبالرغم	-10.6978
▁مثلما	-10.6901
▁evaluate	-10.7929
▁وعملية	-10.7393
جعل	-10.6615
▁بالأنشطة	-10.7478
▁فرق	-10.6702
▁moral	-10.7445
▁للنهوض	-10.7107
▁يكونوا	-10.6777
▁صوتا	-10.7259
▁سعر	-10.7156
▁Greek	-10.7648
▁broke	-10.6549
/63/	-11.6156
▁لبعثة	-10.7207
▁yesterday	-10.7047
▁والس	-10.8102
IV	-11.3441
▁يستمر	-10.6846
▁notification	-10.7876
▁لصندوق	-10.7397
/59/	-11.6087
▁coherent	-10.7835
▁مراقب	-10.6684
▁northern	-10.8100
▁بون	-10.8896
▁title	-10.7707
▁شراكات	-10.7323
▁فلم	-10.6636
إلى	-10.5983
▁Father	-10.7211
▁وتعرب	-10.7368
men	-10.7149
شد	-10.8068
اض	-10.7631
▁Procurement	-10.7942
▁بتحديد	-10.7146
▁Bo	-10.6910
.25	-11.5347
تس	-10.4885
▁(2	-11.4270
▁interesting	-10.7118
▁Decree	-10.8020
▁transitional	-10.7888
▁انتهى	-10.6057
PC	-11.2620
▁الخاصين	-10.7646
▁يضم	-10.7314
▁green	-10.6994
▁brief	-10.7829
/62/	-11.2500
pro	-11.5575
▁incurred	-10.8095
▁مشروعا	-10.9058
ء	-10.3965
▁للأغذية	-10.7388
▁معقولة	-10.7217
▁Post	-10.8034
▁الأمني	-10.9109
▁اتفق	-10.7223
▁invasion	-10.8232
▁أيض	-10.6178
▁Turn	-10.7157
▁التزامها	-10.7387
▁تصدق	-10.6605
▁injured	-10.7919
▁ويشكل	-10.7516
علن	-10.6922
▁لأول	-10.6671
▁Against	-10.8046
▁fulfilment	-10.7979
▁تعصب	-10.7105
▁stopped	-10.6931
▁وكندا	-10.7332
▁يحمل	-10.6864
▁تحل	-10.7334
▁باللغة	-10.7408
▁1967	-11.3509
ev	-11.2911
▁الحوادث	-10.7304
▁لنقل	-10.7038
▁remove	-10.7699
▁greatly	-10.8053
▁program	-10.7203
▁boss	-10.6917
▁الرفيعة	-10.7500
/8	-11.1577
▁قصة	-10.6158
▁يشارك	-10.7436
▁مفاده	-10.7292
▁فن	-10.6413
/20	-11.3004
فار	-10.8558
▁صعوبات	-10.7302
▁والهند	-10.7338
FCCC	-11.0007
▁ويمثل	-10.7385
▁George	-10.6994
▁Regarding	-10.7898
▁1`	-10.8295
▁resolved	-10.8157
▁vol	-10.8575
نحن	-10.5448
▁يوافق	-10.7187
▁declarations	-10.8255
▁الأضرار	-10.7125
▁البدنية	-10.7675
▁لآسيا	-10.7336
ally	-10.8485
▁للحماية	-10.6927
ينغ	-10.9002
▁الطارئة	-10.7220
▁المساعد	-10.6876
▁Strip	-10.7972
▁لعقد	-10.7189
▁$4	-10.8636
▁Contents	-10.8260
▁judgement	-10.7826
▁130	-11.3127
▁Zimbabwe	-10.5942
▁المجلد	-10.6953
▁المفوضة	-10.7676
▁اعتراض	-10.7320
▁Bar	-10.8094
▁المضطلع	-10.7316
▁٣٢	-10.7099
▁replaced	-10.7902
▁التأخير	-10.7347
tro	-11.1464
3).	-11.2318
▁اللاتي	-10.7235
▁الأصل	-10.7139
▁ووكالات	-10.7435
()؛	-10.7885
درا	-10.8244
▁أهلا	-10.6136
▁والسيدة	-10.6614
▁الإعراب	-10.7363
▁أجد	-10.6980
▁يقضي	-10.7281
تخذ	-10.7299
▁hazardous	-10.8160
▁للقرار	-10.7069
▁والأهداف	-10.7022
▁الشمس	-10.6136
بس	-10.5792
▁المنشورات	-10.7596
▁أغلب	-10.6886
mer	-11.1634
ze	-11.0146
ster	-10.9255
▁بالموضوع	-10.7658
▁أجر	-10.7046
ائح	-11.0247
▁beat	-10.6973
▁pursued	-10.7944
▁زاد	-10.7245
▁٥٢	-10.7327
ina	-10.8939
▁Luxembourg	-10.6328
▁wake	-10.7337
/2002/	-11.2027
بدأ	-10.6111
▁annually	-10.7740
▁proud	-10.7038
▁2014.	-11.5621
▁Former	-10.7786
▁الإناث	-10.7405
▁واستعراض	-10.7443
▁عمر	-10.6843
▁ويشير	-10.7837
ability	-10.9570
▁8,	-11.3272
▁الموعد	-10.7295
▁Transport	-10.8225
▁خسائر	-10.7259
▁ربط	-10.6959
▁العاصمة	-10.7017
▁cruel	-10.7988
▁يعطي	-10.7264
قود	-10.7255
▁harmonization	-10.7916
إنها	-10.6133
▁Yet	-10.7754
▁الجنود	-10.7054
ائق	-11.0665
▁respected	-10.8011
▁Last	-10.7087
▁السيادة	-10.7265
▁لغرض	-10.7554
▁applies	-10.8097
انه	-10.8252
▁يعرض	-10.7088
▁جنائية	-10.7433
▁مونتريال	-10.7662
▁مفصلة	-10.7627
▁productivity	-10.7763
شغل	-10.7231
▁بالدول	-10.7314
▁والمعايير	-10.7772
▁التفاصيل	-10.7146
▁وعقد	-10.7708
جماع	-11.1825
▁وهيئات	-10.7564
▁التعريف	-10.7305
▁والاستثمار	-10.7660
▁التسوية	-10.7415
▁assessing	-10.8219
▁تكرر	-10.7543
▁يبين	-10.7461
▁لحل	-10.7265
▁allegedly	-10.8142
بق	-11.0019
▁السفينة	-10.6603
▁orally	-10.8211
▁huge	-10.7084
▁كشف	-10.6993
▁للإجراءات	-10.7663
▁lies	-10.7738
▁والتسريح	-10.7336
▁/	-10.8856
▁كلية	-10.7966
▁الزمنية	-10.7448
▁الوقائع	-10.7364
-12	-11.4324
▁37.	-10.8657
شك	-10.6433
▁sounds	-10.7356
▁المرسوم	-10.7597
▁contractual	-10.8229
▁الض	-10.9457
▁38.	-10.8982
▁hundred	-10.7215
▁أيتها	-10.6482
▁الأوزون	-10.7394
▁مناسبا	-10.7431
▁حضر	-10.7414
▁للس	-11.0221
,400	-10.9298
zi	-10.9686
▁لق	-10.7219
called	-10.8135
▁احت	-10.9900
عق	-10.9381
▁’	-10.8160
▁continuation	-10.8100
▁تفعلين	-10.6231
▁Evaluation	-10.8186
▁يتجزأ	-10.7449
▁2`	-10.8618
▁الضغط	-10.7197
▁Army	-10.8022
سيل	-10.9016
▁الكلام	-10.6596
▁يتوقف	-10.6984
▁وتشغيل	-10.7300
▁مك	-10.8032
▁الضارة	-10.7641
▁تشريع	-10.7319
▁Sahara	-10.8277
▁المصابين	-10.7729
▁define	-10.7790
▁input	-10.8221
▁responding	-10.8045
.14	-11.3406
▁وإنتاج	-10.7768
▁currency	-10.8250
▁separation	-10.8383
جام	-11.3447
▁اللعين	-10.6027
▁relationships	-10.8541
▁pollution	-10.8186
▁الطب	-10.7117
▁إحصاءات	-10.7926
▁تست	-10.7052
باء	-10.8136
▁liaison	-10.8017
ذه	-10.6670
قيادة	-10.7411
▁worst	-10.7175
▁الأجواء	-10.7819
▁stronger	-10.8278
▁issuance	-10.8432
▁تع	-10.5739
▁يع	-10.6388
▁لحالات	-10.7647
▁seventh	-10.8599
▁اختتام	-10.7550
▁fired	-10.7648
▁شواغل	-10.7743
جرى	-10.7611
ez	-11.1472
▁Resource	-10.8306
اكس	-10.9367
ass	-11.0285
ذر	-10.8170
▁المد	-10.6961
▁اننا	-10.6677
▁consultants	-10.8218
▁النقاط	-10.7276
▁تفكر	-10.6394
▁recall	-10.8090
▁regardless	-10.8096
US	-11.1183
▁لتنظيم	-10.7629
▁millions	-10.9559
▁presents	-10.9916
▁spoke	-10.7903
▁منتجات	-10.7573
▁للتربية	-10.7634
▁حاسمة	-10.7721
▁العثور	-10.6564
▁المخطط	-10.7629
رور	-10.9553
باك	-10.9735
▁Recommendations	-10.8432
▁guilty	-10.7490
▁dance	-10.7002
▁اقتراحات	-10.7657
▁شخصية	-10.7237
▁purchase	-10.8147
وتو	-10.9188
▁defenders	-10.8446
▁Five	-10.7667
▁الخمسة	-10.7932
▁واستنادا	-10.7742
▁explosive	-10.8234
▁شهدت	-10.7643
)...	-10.7739
▁genocide	-10.7965
فريق	-10.9242
▁introducing	-10.8518
▁القارة	-10.7299
نتج	-10.9386
▁900	-11.0036
▁contacts	-10.8642
١٠	-10.7370
▁المعاشات	-10.7685
▁books	-10.7950
▁accordingly	-10.8292
▁المعتمد	-10.7570
▁الوفيات	-10.7713
▁ونظم	-10.7887
▁للعنف	-10.8049
▁زوج	-10.6511
حيل	-10.7615
▁الأسعار	-10.7563
احة	-11.1318
▁Audit	-10.8294
▁exists	-10.8325
▁يحقق	-10.7535
▁delays	-10.8949
▁لتطوير	-10.7721
ile	-11.1098
▁wedding	-10.7140
▁يقدمها	-10.7901
▁العلوم	-10.7456
▁ِّ	-10.6958
▁grants	-10.8709
▁1:	-11.4483
▁التشديد	-10.7285
▁Panama	-10.5906
▁foundation	-10.7921
▁البدء	-10.7079
▁للمنزل	-10.6250
▁17-	-10.7252
▁40.	-10.9823
▁amazing	-10.7137
▁توحيد	-10.7578
عاقب	-10.9890
▁ابدا	-10.6319
▁generate	-10.8289
▁تبرعات	-10.7624
▁objects	-10.8621
▁أحدث	-10.7292
▁ممتنا	-10.7401
▁(3	-11.5280
▁seemed	-10.7748
الات	-10.9978
▁جولة	-10.6912
▁Progress	-10.8633
▁ويؤكد	-10.7840
▁ودول	-10.7830
▁GEF	-10.8736
▁analytical	-10.8483
▁mobilize	-10.8423
▁الهجوم	-10.7403
▁king	-10.7456
▁بالمقارنة	-10.7614
over	-10.8811
▁السيارات	-10.7146
▁الصليب	-10.7356
CRC	-11.3883
/66/	-11.2264
▁963	-11.3563
▁نعتقد	-10.6866
▁أمس	-10.6555
▁متكامل	-10.7508
ko	-10.8958
▁cooperative	-10.8579
▁المجتمعية	-10.8273
tomic	-10.8114
▁applying	-10.8291
▁Transnational	-10.8237
▁للن	-11.0238
▁facilitated	-10.8510
ible	-11.2805
▁mad	-10.7002
▁خلالها	-10.9737
▁intelligence	-10.8247
▁named	-10.7561
▁التقيد	-10.7815
▁الردود	-10.7839
▁الإبقاء	-10.7756
▁كافيا	-10.7418
▁الأكاديمية	-10.7946
sh	-11.1188
تعهد	-11.0805
▁مستشار	-10.7530
▁تمنح	-10.7299
▁claimant	-10.8622
▁gain	-10.8223
▁twice	-10.7633
▁wrote	-10.7705
▁أسئلة	-10.7431
▁destroy	-10.7737
▁والمنظمة	-10.7803
▁قيمتها	-10.7624
vis	-10.9672
طور	-10.8317
▁VIII	-10.8434
▁comprising	-10.8176
▁يملك	-10.6987
▁تحرك	-10.6661
▁gains	-10.8284
▁ordinary	-10.8269
▁وتلك	-10.7380
زان	-11.3016
▁مساء	-10.6697
معمول	-10.7615
▁مراقبي	-10.7706
▁105	-11.3848
▁24-	-10.9559
▁limitations	-10.8408
.1/	-11.4602
▁اسمه	-10.6804
▁57/2	-11.4953
طالب	-11.0223
▁ملف	-10.7521
▁Iceland	-10.6455
▁والاست	-11.3450
▁المتزايد	-10.7716
▁٤١	-10.7184
▁المتصل	-10.7523
▁وتدريب	-10.7908
▁anywhere	-10.7459
▁discharge	-10.8540
صن	-11.2457
▁ضرب	-10.6197
▁worried	-10.7120
▁بصفته	-10.7560
▁للوكالة	-10.7854
▁Tajikistan	-10.7172
▁انبعاثات	-10.7781
ard	-11.1396
▁School	-10.7799
▁يعقد	-10.7587
▁الضفة	-10.7855
صر	-10.6466
▁dimensions	-10.8594
▁arbitration	-10.8554
▁notably	-10.8440
fi	-11.1140
▁calm	-10.7484
▁replies	-10.8410
.16	-11.4170
▁العملي	-11.0158
▁الأونسيترال	-10.8114
/1998/	-11.4258
▁السرية	-10.7431
▁removal	-10.8288
-15	-11.5580
po	-10.9877
▁التزاما	-10.7734
▁أوروغواي	-10.7692
▁الطائرة	-10.6846
▁متن	-10.6909
▁ضروري	-10.7339
▁سبع	-10.7425
▁إجازة	-10.7681
▁organizing	-10.8405
ارية	-11.2305
▁قم	-10.7879
▁فاسو	-10.8000
200	-10.9504
▁carefully	-10.8419
▁متطلبات	-10.7743
▁operative	-10.8732
▁carbon	-10.8218
▁lying	-10.7042
واجه	-11.0942
▁18-	-10.7649
▁وتتضمن	-10.7808
▁اضطلعت	-10.7824
▁اختبار	-10.7206
▁arrived	-10.7947
▁households	-10.8619
▁alternatives	-10.8687
▁المحدودة	-10.7695
▁هاتين	-10.7708
▁mercury	-10.8330
▁square	-10.8055
رابطة	-10.7721
▁مجتمعات	-10.8054
American	-10.9007
▁Russia	-10.8474
▁incorporate	-10.8373
ليف	-11.0314
▁anticipated	-10.8451
▁بعين	-10.7850
ده	-10.8943
▁الفائدة	-10.7254
▁flexible	-10.8229
▁خطير	-10.7140
طة	-10.9388
▁٤٨	-10.6683
▁Investment	-10.8521
▁dark	-10.7632
/30	-11.5205
▁عادلة	-10.7959
الية	-11.0462
▁disseminate	-10.8576
▁1949	-11.4080
▁جميعها	-10.9956
▁وط	-10.8524
▁أنشأ	-10.7472
▁بالأمم	-10.7612
▁الحين	-10.7465
▁broken	-10.7620
فون	-10.8511
▁واقترح	-10.7573
gen	-11.3099
▁correct	-10.8089
▁vacancy	-10.8647
▁عنهم	-11.0253
▁ratify	-10.8605
▁العجز	-10.7839
▁ضحية	-10.7637
▁Mozambique	-10.6315
▁وآليات	-10.8093
▁الانتهاء	-10.7553
ver	-11.1826
▁schemes	-10.8649
▁evaluations	-10.9071
▁يخضع	-10.7859
▁التنقل	-10.7821
ship	-10.9016
▁موظفو	-10.7967
امي	-10.9234
▁طلبا	-10.8415
III	-11.4513
ونها	-10.9661
▁lands	-10.9210
▁environmentally	-10.8312
▁السير	-10.7475
.2)	-11.4723
▁أخبر	-10.6066
▁التزاماتها	-10.7683
▁متزايدة	-10.7843
▁dimension	-10.8612
▁Estonia	-10.6790
▁سل	-10.8407
▁39.	-10.9352
▁الاتساق	-10.8018
▁ضباط	-10.7760
▁التحالف	-10.7857
▁صالح	-10.7218
▁historical	-10.8538
▁علمت	-10.6869
▁السلفادور	-10.7736
زال	-10.8984
▁استخدم	-10.7230
▁الطوعية	-10.8160
▁بالمساواة	-10.8138
▁بري	-10.8314
▁ومؤتمر	-10.7912
▁r	-11.2999
▁ترجمة	-10.7607
▁receipt	-10.8464
▁يضمن	-10.7865
▁Everyone	-10.7431
▁injury	-10.8274
▁بشأنه	-11.2231
▁client	-10.7993
▁إرهابية	-10.7869
سجل	-10.8242
▁الاحتفال	-10.7651
▁شاملا	-10.7989
▁Se	-10.7557
▁farmers	-10.8363
▁مخصصة	-10.7759
▁الاتحادي	-10.8855
▁صح	-10.6514
▁shelter	-10.8391
▁الهي	-10.6623
ائنا	-10.8872
▁ستعمل	-10.6800
▁maritime	-10.8750
▁Someone	-10.7538
▁صفحة	-10.8033
▁complement	-10.8584
▁deprived	-10.8689
▁freely	-10.8572
▁راي	-10.7507
▁تعالى	-10.5849
▁قلب	-10.7323
▁summit	-10.8543
▁وسأ	-10.7888
طار	-10.8964
▁subjects	-10.9589
▁elaboration	-10.8604
▁إيرادات	-10.7900
▁تترك	-10.6913
▁يحث	-10.8158
▁المستشفى	-10.7245
▁والمشاريع	-10.7853
▁خبرة	-10.7733
▁استقلال	-10.7766
▁اللقاء	-10.6920
▁Holy	-10.7785
▁accomplishments	-10.9007
my	-11.0535
أجهزة	-10.8164
▁desertification	-10.8681
▁اذن	-10.6777
▁reserve	-10.8327
▁يسمى	-10.7486
تو	-10.3778
▁وعملا	-10.8105
▁حوادث	-10.7908
▁mostly	-10.8275
▁كازاخستان	-10.7912
▁watching	-10.7245
/2001/	-11.1515
▁آلاف	-10.7558
▁الادعاءات	-10.8207
زة	-10.8012
▁allows	-10.9152
▁وشدد	-10.8190
▁بيئيا	-10.7857
▁اتصل	-10.6847
▁wastes	-10.8658
▁أرجاء	-10.7931
▁بغض	-10.7864
▁لإقامة	-10.7982
▁wonder	-10.7604
▁والان	-10.8476
▁speaker	-10.8886
▁آمل	-10.6492
▁رومانيا	-10.7452
يث	-10.8708
ودي	-10.7300
▁أمثلة	-10.7865
/2008/	-11.2298
▁Disaster	-10.8747
▁inhuman	-10.8831
▁وفاة	-10.7891
▁والمساءلة	-10.8324
▁mutually	-10.8449
▁يغطي	-10.7761
▁attributable	-10.8535
▁المتعاقدة	-10.8172
دول	-10.7834
▁قادم	-10.6742
▁بالن	-10.9112
▁متكاملة	-10.8133
▁بشيء	-10.6744
▁Captain	-10.7494
▁يعانون	-10.8175
قابل	-10.6243
شعر	-10.7836
▁الاقتراحات	-10.8014
▁جنسية	-10.7718
▁Uzbekistan	-10.7397
▁Emirates	-10.6737
▁emphasize	-10.8509
net	-11.0211
▁throw	-10.7373
▁treat	-10.7747
▁وإصلاح	-10.8318
▁saved	-10.7555
▁افضل	-10.6726
▁بموافقة	-10.7850
▁Benin	-10.6575
سمح	-10.7636
▁أنشئ	-10.8116
▁pattern	-10.8250
▁تتوقف	-10.7376
▁Namibia	-10.6447
▁صيد	-10.7885
▁lay	-10.7987
▁لتبادل	-10.7951
▁طرد	-10.7227
▁surveys	-10.8734
▁buildings	-10.9170
▁أتيت	-10.6389
▁وأثناء	-10.8076
▁حينها	-10.7544
▁pages	-10.8937
▁مستدامة	-10.8196
▁competitive	-10.8561
شارك	-10.9078
▁صناعة	-10.7487
▁والموظفين	-10.8315
▁exceed	-10.8416
▁nobody	-10.7407
▁٦٩٩١	-10.7838
▁terrible	-10.7377
هيا	-10.7592
▁الكو	-11.1279
▁الواحد	-10.7431
▁Region	-10.8713
▁journalists	-10.8658
▁الأسرية	-10.8206
▁dependent	-10.8565
▁العائلة	-10.7139
▁Consequently	-10.8639
▁ride	-10.7372
▁التقييمات	-10.8814
▁IT	-10.8220
▁والإدارية	-10.8118
▁لمنطقة	-10.7842
▁supervision	-10.8692
▁للمشاريع	-10.8193
▁المحضر	-10.8030
▁فأنا	-10.6871
1,	-11.0636
▁بنظام	-10.8036
سكي	-10.7995
▁تعلمون	-10.6830
▁الشحن	-10.7729
▁تتحمل	-10.7817
▁تفويض	-10.7903
▁Ocean	-10.8421
▁Move	-10.7309
▁Durban	-10.8670
▁بالق	-11.1796
▁patient	-10.7547
▁Relations	-10.8753
▁140	-11.3959
▁restructuring	-10.8656
▁تتعرض	-10.8015
▁assumed	-10.8555
▁تحكم	-10.7578
▁الرأس	-10.8328
▁والف	-10.8520
▁اليه	-10.7381
▁للسياسات	-10.8116
▁فض	-10.8168
▁tables	-10.8834
▁Sector	-10.8857
▁expanding	-10.8834
▁revenue	-10.8691
▁امر	-10.8092
▁والتحديات	-10.8070
حض	-10.9667
ماء	-10.9184
▁تدفقات	-10.7968
▁الحي	-10.8696
▁memorandum	-10.8596
▁كو	-10.5696
سيس	-11.1894
▁وسياسات	-10.8276
الك	-10.7508
▁proceeds	-10.9009
▁استخدمت	-10.7953
٠	-10.5545
▁استعادة	-10.7667
▁formulate	-10.9077
▁لعدد	-10.8152
▁بعقد	-10.7824
▁الأس	-11.1441
▁Tom	-10.7912
▁attempts	-10.8998
▁الأفكار	-10.7353
tion	-11.3299
▁تقاريرها	-10.8651
▁لولا	-10.8032
▁عالميا	-10.8482
▁مطالبات	-10.8049
▁balances	-10.9174
▁الأنظمة	-10.8246
▁بقية	-10.7539
▁فائدة	-10.7541
▁فع	-10.7937
▁للمراقبة	-10.7870
▁تعالي	-10.6821
2,	-11.1583
13)	-11.3355
▁auspices	-10.8731
▁leader	-10.8560
.19	-11.4668
▁الدستوري	-10.8199
▁41.	-10.9289
▁الدائمين	-10.8023
▁ثنائي	-10.8057
▁بالضرورة	-10.7704
▁تثير	-10.7909
▁اجتماعا	-10.8467
▁liberalization	-10.9401
▁19-	-10.7711
▁الدفيئة	-10.8032
▁بازل	-10.8362
▁تتوفر	-10.7891
▁بتطبيق	-10.8384
▁يدخل	-10.7430
▁العالية	-10.8333
▁تراجع	-10.7847
بيع	-11.2474
▁تحققت	-10.8084
ji	-10.9420
▁الفجوة	-10.8152
▁الاحتياطي	-10.8068
▁بإجراءات	-10.8046
▁المراقبين	-10.8437
▁قادة	-10.8088
▁العشر	-10.8226
▁باست	-11.0951
▁Equal	-10.8679
▁ادعاءات	-10.8837
▁deemed	-10.8919
▁لإيجاد	-10.8146
▁للبحث	-10.7580
▁والتكنولوجية	-10.8251
▁بالع	-10.9452
▁Situation	-10.8942
راب	-10.8512
▁seats	-10.8766
▁$7	-10.9204
▁حكومتي	-10.8272
▁السجلات	-10.7988
▁فعالا	-10.8365
▁كوستاريكا	-10.7999
▁الواجبة	-10.8661
▁beings	-11.1629
▁مدتها	-10.8344
▁preserve	-10.8636
حم	-10.7492
▁innovation	-10.8877
حضر	-10.7553
▁التجربة	-10.7959
▁تك	-10.9698
way	-10.8369
▁necessity	-10.8750
▁والذين	-10.7254
▁ومشروع	-10.8040
▁فقدان	-10.8103
▁thereof	-10.9136
▁تقديمها	-10.9019
▁موحدة	-10.8316
حام	-11.1673
▁زلت	-10.6935
▁فإذا	-10.7659
متلازمة	-10.8202
▁الضرورة	-10.8293
▁الزئبق	-10.9273
▁المستشار	-10.8006
▁Voluntary	-10.8742
▁اد	-10.7920
▁thinks	-11.0574
▁تدريجيا	-10.8124
▁وفرنسا	-10.8260
▁تقدمه	-10.8903
اتي	-11.0033
▁fit	-10.8161
ضر	-10.8877
▁convene	-10.8891
▁توقع	-10.7795
ST	-11.1348
▁النواتج	-10.8510
قو	-11.0297
▁أنظمة	-10.8098
▁السجل	-10.8000
/58/	-11.2802
▁offering	-10.8597
▁rapidly	-10.8988
▁تتفق	-10.8141
▁الإعسار	-10.7827
▁aspect	-10.8877
▁محق	-10.6707
▁للمستوطنات	-10.8345
▁صعب	-10.6812
▁reiterate	-10.9094
▁المختلطة	-10.9005
▁كهذا	-10.7061
سأ	-10.6840
personnel	-10.8901
▁القدر	-10.7247
مبنى	-10.9365
▁length	-10.8665
▁الخطأ	-10.7338
▁والرجل	-10.8223
▁وأوضح	-10.7924
▁بيننا	-10.7982
▁للتحقق	-10.7848
▁depend	-10.8667
▁species	-10.8767
▁عهد	-10.7852
▁الحزب	-10.8018
▁di	-11.0025
▁بمجرد	-10.7396
▁لشعب	-10.9276
▁الدورية	-10.8285
▁الطلاب	-10.8255
/64/	-11.3024
▁bag	-10.7559
ائب	-11.0348
▁للمكتب	-10.8518
io	-11.0893
التي	-10.8032
▁Industrial	-10.9120
▁plant	-10.8593
▁الآسيوية	-10.8046
▁التعسفي	-10.8361
▁الحلول	-10.8438
▁$5	-10.9185
▁بأغلبية	-10.8289
▁ومبادئ	-10.8028
▁Frank	-10.7729
▁وعرض	-10.8302
-3)	-11.5732
▁طويلا	-10.7527
▁وإدارتها	-10.8295
▁conducive	-10.9036
▁imperative	-10.8798
▁أسم	-10.8646
إي	-10.6828
▁لضحايا	-10.8279
▁فك	-10.7320
▁mining	-10.8961
▁organ	-10.8930
▁lucky	-10.7902
RC	-11.2051
▁fraud	-10.9088
▁frequently	-10.8767
▁Migration	-10.8908
▁mothers	-10.9387
▁talked	-10.7536
▁Hmm	-10.7861
▁وجهات	-10.8674
فاف	-11.3262
▁municipal	-10.8947
ضاع	-11.4120
▁لاحتياجات	-10.8520
▁تكافؤ	-10.8266
بحث	-10.7300
▁تنقل	-10.8472
حدد	-10.8864
▁والأشخاص	-10.8552
▁citizenship	-10.8862
▁110	-11.4328
▁استكشاف	-10.8492
▁Mongolia	-10.6868
▁السنغال	-10.8250
خطط	-10.7598
لماذا	-10.7250
▁marked	-10.8932
▁صحية	-10.8456
▁توعية	-10.8624
▁مؤقت	-10.7972
▁intensify	-10.8794
▁ارتكبت	-10.7838
▁Organizations	-11.1069
▁forever	-10.8112
▁ocean	-10.8456
▁ملاك	-10.8058
▁موريشيوس	-10.8635
بث	-10.8662
رسي	-10.9033
شاهد	-10.7046
▁forthcoming	-10.9014
▁لتقرير	-10.8005
▁المملوكة	-10.8295
صم	-10.8877
▁platform	-10.8823
نظم	-11.1010
▁regimes	-10.9784
▁رسوم	-10.8007
▁refrain	-10.9019
▁conviction	-10.8875
▁الجملة	-10.8427
▁استشاري	-10.8195
▁حكومته	-10.8098
▁valid	-10.8825
▁ويتمثل	-10.8267
ديد	-11.0392
Aligne	-10.9196
▁تلقت	-10.8270
؟"	-10.8515
▁characteristics	-10.9138
▁driving	-10.8100
-14	-11.7056
▁للق	-10.9490
▁والطفل	-10.8702
▁معيار	-10.8743
▁الأشهر	-10.8206
house	-10.8634
▁مستحيل	-10.6943
▁للرئيس	-10.7882
▁Expresses	-10.8888
▁أسرة	-10.8417
▁eligible	-10.9114
▁وضعتها	-10.8515
▁الشعور	-10.7476
▁ببرنامج	-10.8352
▁زمنية	-10.8637
lin	-11.0286
▁مبكر	-10.7825
▁ظهور	-10.7976
▁شباب	-10.7375
▁managing	-10.9045
▁دعمها	-10.8841
▁$6	-10.9372
▁بمشروع	-10.8199
▁والمجتمعات	-10.8486
▁وفريق	-10.8438
▁والحماية	-10.8588
صوت	-10.9361
▁degrading	-10.9093
▁آمن	-10.7447
طبق	-10.7977
▁+	-11.2335
▁wage	-10.9096
▁تنفيذه	-11.0557
▁reductions	-10.9601
▁دوما	-10.7437
▁Lo	-10.8912
▁Nobody	-10.7644
▁relates	-10.9305
▁42.	-10.9873
▁المتهم	-10.8412
▁زواج	-10.7433
fa	-11.1260
▁بكم	-10.6994
▁قطعة	-10.7420
▁أطلب	-10.6895
بغية	-10.8341
▁الذكور	-10.8515
▁والمصالحة	-10.8499
ki	-10.9259
▁مستمر	-10.8239
▁تنتظر	-10.7482
▁لعبة	-10.7042
▁مدونة	-10.8259
▁والص	-10.9364
تمتع	-10.8258
▁حملات	-10.8869
▁للمقرر	-10.8142
▁protocols	-10.9401
▁Has	-10.8641
▁pleasure	-10.8389
▁speed	-10.8359
▁أوامر	-10.7699
▁حذف	-10.8146
▁fees	-10.9017
▁الأمهات	-10.8522
▁citizen	-10.8750
▁أقوى	-10.8138
▁window	-10.7813
▁proved	-10.9145
▁العشاء	-10.7161
▁للحكومات	-10.8407
▁منتظم	-10.8153
▁سيء	-10.7039
▁سيجري	-10.8130
▁المرتبط	-10.8533
▁parallel	-10.9116
▁underlying	-10.9292
▁Ar	-10.8780
▁اتصالات	-10.8382
▁solid	-10.8761
▁أراضيها	-10.8200
▁والمرافق	-10.8185
▁مولدوفا	-10.8127
▁abuses	-10.9505
عكس	-10.8366
توق	-10.9326
▁Charlie	-10.7865
▁محطة	-10.8032
▁accommodation	-10.8609
laundering	-10.9253
▁ضع	-10.7020
▁accompanied	-10.8919
▁reaffirms	-10.9580
▁العامين	-11.0520
▁becomes	-10.9883
ضرب	-10.7252
▁مهارات	-10.8272
▁شعر	-10.7132
▁تكلم	-10.7849
▁عاجلة	-10.8285
▁المهتمة	-10.8266
▁Twenty	-10.8703
▁وأيضا	-10.7935
▁عمليا	-10.8218
([	-10.7430
▁وش	-10.7396
▁الانكليزية	-10.7933
▁الاسم	-10.8169
▁جين	-10.8400
▁sitting	-10.8317
أين	-10.8552
▁صناديق	-10.8614
▁reinforce	-10.9349
▁بنقل	-10.8191
▁اشتراك	-10.7978
▁2000)	-11.6521
▁أجري	-10.8527
▁كار	-10.7181
▁Ho	-10.9403
▁رجلا	-10.7442
▁وقواعد	-10.8486
▁الغير	-10.7711
▁رائعا	-10.7419
▁trials	-10.9563
▁Liechtenstein	-10.7309
يوني	-11.4964
▁<	-11.4007
▁دخلت	-10.7860
▁1992,	-10.9795
▁الشبكات	-10.8296
▁Ibid	-10.9217
▁تثبت	-10.8594
▁أصلا	-10.8272
يدة	-10.9822
دوا	-10.7047
Corr	-11.1804
انات	-11.0832
▁gold	-10.8518
▁انتظار	-10.7957
▁ويكون	-10.8208
خب	-11.4206
▁بتعيين	-10.8098
▁Consultative	-10.9027
▁أسلوب	-10.8371
▁devices	-10.8874
▁Ra	-10.8159
▁بالتقدم	-10.8515
▁الأمية	-10.8672
▁apartment	-10.8005
▁تكثيف	-10.8620
▁خصوصا	-10.8121
▁k	-11.0696
▁الأمد	-10.8388
▁نصيب	-10.8125
▁ملكية	-10.8190
▁ويعمل	-10.8694
▁وتدمير	-10.8364
اهي	-11.2732
▁بلغاريا	-10.8459
▁تعترض	-10.8461
▁وقرار	-10.8453
▁يبذلها	-10.8550
▁paying	-10.8743
▁الذخائر	-10.8664
▁العرب	-10.7873
ek	-10.9466
▁Basel	-10.9195
▁Mike	-10.7940
▁فنزويلا	-10.8579
طير	-11.0115
▁arise	-10.9373
اذا	-10.7364
▁بالله	-10.6987
▁الأبعاد	-10.8354
▁المنهجية	-10.8551
▁Business	-10.9315
▁restricted	-10.9080
ستي	-11.0550
الذي	-10.7878
▁لرئيس	-10.8368
▁مقبولة	-10.8675
▁تجارة	-10.8652
▁shift	-10.8377
▁يتحدث	-10.7259
▁أتعرف	-10.6943
▁نظره	-10.8316
int	-11.4397
▁observation	-10.9056
▁MONUC	-10.9323
▁facilitation	-10.9143
RES	-11.4783
▁قو	-10.9797
▁tribunal	-10.9220
▁ارت	-10.9234
▁plus	-10.8320
▁بالمسؤولية	-10.8449
▁قضاء	-10.8327
▁الشرعية	-10.8086
مول	-10.9532
▁Remember	-10.7903
▁صدرت	-10.8319
▁reaffirm	-10.9397
▁الماس	-10.8163
سلط	-10.9801
▁Di	-10.8853
▁Question	-10.9355
▁20-	-10.8497
▁prisons	-10.9664
,900	-10.9291
▁شملت	-10.8798
,800	-11.0209
▁ثقة	-10.8015
▁إريتريا	-10.8641
ator	-11.2623
▁entrusted	-10.9391
▁أطر	-10.8898
▁صيغة	-10.8423
AP	-11.2120
▁جئت	-10.7344
▁قراراتها	-10.8207
ec	-11.5942
▁Back	-10.8196
▁persistent	-10.9342
▁الثقافة	-10.8732
غني	-10.9623
▁نسيت	-10.6906
▁جم	-10.8560
▁مساعدتك	-10.7068
CEDAW	-11.4358
▁اني	-10.9717
▁الإجرائية	-10.8622
▁43.	-10.9693
▁Final	-10.9098
▁أبعد	-10.7734
▁الجمعيات	-10.8919
▁liabilities	-10.9230
▁fix	-10.7978
▁يقدر	-10.7792
▁Interior	-10.9158
رجع	-10.8881
▁showing	-10.9031
▁2:	-11.4420
▁prospects	-10.9289
▁السوري	-10.8813
▁إحالة	-10.8518
▁المصارف	-10.8580
▁threatened	-10.9199
بذل	-10.8470
▁نت	-10.8047
فجر	-10.9169
▁لإعلان	-10.8852
▁٥٩٩١	-10.8084
▁زو	-10.9939
▁Lastly	-10.9197
▁غازات	-10.8680
▁landlocked	-10.9591
▁فهذا	-10.7804
▁مثلك	-10.7683
▁harmful	-10.9135
▁Facility	-10.9446
▁surveillance	-10.8902
▁مستعدة	-10.7966
▁trip	-10.8023
▁CRC	-11.1821
▁translation	-10.8987
▁أمنية	-10.8558
7/	-11.3193
▁أصدر	-10.8831
غلق	-10.7765
والد	-10.9709
▁permitted	-10.9301
▁المشتبه	-10.8422
رقم	-10.8604
▁أرسلت	-10.7984
▁تفتيش	-10.8692
▁الجدار	-10.8164
▁بجانب	-10.7166
▁الدرجة	-10.8056
▁للمبادئ	-10.8386
▁المل	-10.8925
▁supplementary	-10.9033
▁الاستماع	-10.8224
▁Independence	-10.9080
▁بالتجارة	-10.8583
▁لوقف	-10.8534
▁بالعنف	-10.8810
▁Looks	-10.8826
.2/	-11.5949
der	-11.1170
▁النظيفة	-10.8480
▁ازدياد	-10.8615
▁accurate	-10.9205
▁busy	-10.8037
▁والبيانات	-10.8637
▁الدعوى	-10.8769
▁توصل	-10.8499
▁بيانا	-10.8949
▁meaningful	-10.9294
▁RIGHTS	-10.9507
مال	-11.1861
عار	-11.5069
▁انظري	-10.7373
▁agent	-10.8396
▁الأهلية	-10.8340
▁طن	-10.8172
3,	-11.1222
▁speech	-10.8704
روا	-10.7189
▁Statistical	-10.9271
tic	-11.0380
تجاوز	-10.8036
▁DC	-11.4928
▁المعترف	-10.8689
▁وبالمثل	-10.8686
▁القلب	-10.7672
▁عكس	-10.8003
▁حت	-10.7815
صاف	-11.0274
▁محاكم	-10.8620
▁emphasizes	-10.9536
▁Mary	-10.8388
▁الاستهلاك	-10.8735
▁حدد	-10.8988
▁النتيجة	-10.8307
ؤل	-11.0219
▁statute	-10.9363
▁الوزارة	-10.8817
▁swear	-10.8007
▁يتحقق	-10.8455
▁guided	-10.9075
تن	-10.8621
▁expulsion	-10.9339
▁تهم	-10.9440
▁جان	-10.8663
▁لمجموعة	-10.8726
▁appeared	-10.9452
▁للشباب	-10.8633
▁afford	-10.9008
طول	-10.9129
ندو	-11.3520
▁finish	-10.8154
▁SBSTA	-10.9713
▁60/2	-11.3639
▁wear	-10.7847
▁بور	-10.9149
▁سرية	-10.8540
▁أغلبية	-10.8813
▁نطاقا	-10.9793
▁micro	-10.9802
under	-10.9553
▁الإمكان	-10.8580
▁ملائم	-10.8414
▁آه	-10.7213
▁بالخارج	-10.7445
▁verbale	-10.9583
▁Bahrain	-10.7407
▁Pension	-10.9521
▁تكرار	-10.8604
ring	-10.8198
▁المتأثرة	-10.8489
▁derived	-10.9419
▁00	-11.1099
▁تدفق	-10.8553
▁loans	-10.9212
▁عددها	-11.0185
▁والمقرر	-10.9025
▁التهديدات	-10.8994
▁البغاء	-10.9066
▁سد	-11.0277
▁حياته	-10.7741
خرج	-10.6578
▁division	-10.9278
▁تقضي	-10.8473
▁afternoon	-10.8432
▁حم	-11.0090
▁Articles	-11.0819
▁GDP	-10.9398
▁القوي	-10.8521
ong	-10.9550
باني	-11.1337
▁necessarily	-10.9575
▁Data	-10.9214
hi	-11.2162
/1997/	-11.1725
دود	-10.8366
▁الستة	-10.8560
▁أفادت	-10.9208
▁Closed	-10.9626
▁Directorate	-10.9626
▁التفاعل	-10.8072
tra	-11.4052
▁removed	-10.9290
▁والقيام	-10.8748
▁Capacity	-10.9375
دال	-10.9967
20)	-11.5986
▁المنتمي	-10.9044
مفوضية	-10.8995
آل	-10.7612
ستعمل	-10.9393
▁زاي	-10.8486
▁لاتفاق	-10.8505
▁planet	-10.8546
▁العرقية	-10.8864
▁replacement	-10.9196
▁evening	-10.8412
▁تتاح	-10.8953
▁الارتياح	-10.8728
▁''	-10.8231
▁wearing	-10.8154
▁Christian	-10.9141
▁Senior	-10.9242
▁فو	-10.8262
▁1978	-11.5188
▁incentives	-10.9429
▁للبلد	-10.8652
▁James	-10.8370
▁Major	-10.8970
depth	-10.9533
▁بقلق	-10.9022
▁accelerate	-10.9204
▁cease	-10.9033
▁مغ	-11.1674
▁des	-11.1005
4).	-11.3922
▁سليمة	-10.8656
▁واصل	-10.8455
▁transaction	-10.9414
بوت	-11.1000
تتمثل	-10.8808
كسر	-10.9024
ap	-11.2131
▁themes	-10.9711
▁المقدرة	-10.8777
▁النقطة	-10.7925
▁المستأنفة	-10.8913
▁آخرون	-10.9016
ترا	-11.1761
▁dates	-10.9783
▁النصوص	-10.9394
▁Habitat	-10.9558
▁60/1	-11.5734
▁connected	-10.9125
▁بالقرب	-10.8315
قات	-11.1289
-30	-11.6537
▁والاقتصادي	-10.8947
▁suitable	-10.9137
▁Agent	-10.8271
▁mandatory	-10.9652
مناهضة	-10.9697
▁الممتدة	-10.9171
▁Welcome	-10.7920
ative	-11.6562
▁44.	-11.0365
▁عقده	-10.9515
ولد	-10.9011
▁دواعي	-10.8237
▁إنتظر	-10.7204
▁miles	-10.8661
▁macroeconomic	-10.9855
▁وأعمال	-10.8632
▁birthday	-10.8208
▁قضاة	-10.9014
جير	-11.0060
عون	-10.8920
حار	-10.9315
▁possibly	-10.9277
▁ضروريا	-10.8947
ستفيد	-10.9691
▁سجلات	-10.8172
▁Dis	-11.2477
▁فتى	-10.7233
▁الادعاء	-10.9075
▁طالما	-10.7960
▁ممكنة	-10.8939
lan	-11.0186
ورا	-10.7965
▁enshrined	-10.9251
▁وإنهاء	-10.8809
▁ومضى	-10.8546
الب	-10.9199
▁تهديدا	-10.8624
▁لأقل	-10.8876
▁clarification	-10.9615
▁الرئاسة	-10.8497
▁250	-11.3920
▁Men	-10.9342
▁الأقصى	-10.8809
▁Ombudsman	-10.9154
▁advances	-11.0212
▁signs	-10.9211
▁الرصيد	-10.8806
▁generated	-10.9387
▁consult	-10.9469
▁غاية	-10.8543
▁يقتضي	-10.8842
▁برا	-11.0094
▁بالصحة	-10.9077
▁قادر	-10.7783
▁Cuban	-10.9192
تبع	-10.9605
▁Washington	-10.9263
▁تحديا	-10.9242
وين	-10.9876
ru	-11.2445
▁eliminating	-10.9578
▁التغيرات	-10.8696
▁الانشطارية	-10.8980
سنا	-10.7755
▁industries	-10.9621
▁Relief	-10.9783
▁أنتي	-11.1654
▁وجوب	-10.8657
▁يوميا	-10.8719
▁الإرادة	-10.8706
▁المفروض	-10.8801
▁spending	-10.9014
▁ordered	-10.9651
▁أسر	-10.9146
▁زادت	-10.8640
▁كمية	-10.8702
▁العادل	-10.8645
▁1979	-11.5018
▁تعليمات	-10.8752
▁concepts	-10.9817
▁صافي	-10.9052
▁اللحظة	-10.7813
(3)	-11.1905
▁Dominican	-10.7309
▁missed	-10.8523
تعرف	-10.8488
▁thousand	-10.8846
▁closing	-10.9799
▁المزمع	-10.8752
▁جهودا	-10.9457
▁101	-11.4817
شت	-10.8390
▁Chemical	-10.9581
▁حالا	-10.7942
▁Participation	-10.9725
▁merely	-10.9276
▁tend	-10.9199
▁sentenced	-10.9506
▁بالسياسات	-10.8740
▁easily	-10.9174
حرق	-10.9288
▁والمتعلقة	-10.9131
▁مصرف	-10.8798
▁أحدا	-10.8859
▁والمشردين	-10.8722
▁Four	-10.8855
▁للتحقيق	-10.9152
▁ya	-10.8534
▁٤٢	-10.9099
▁الاغتصاب	-10.8955
▁تشاد	-10.9227
▁بصرف	-10.9357
▁نهجا	-10.9134
جهز	-10.9271
.20	-11.5278
ep	-11.2792
▁45.	-11.0339
▁collected	-10.9544
▁التنافسية	-10.8978
▁Order	-10.9360
▁وو	-11.0307
▁يقولون	-10.7487
▁Huh	-10.8366
▁sixtieth	-10.9752
▁الاعتمادات	-10.9034
▁والمكسيك	-10.9061
▁briefings	-11.0004
▁وداعا	-10.7446
▁assure	-10.9262
▁الجودة	-10.9526
▁سريع	-10.8281
▁للج	-11.0272
▁21-	-10.8653
▁حامل	-10.8298
▁الإرهابيين	-10.8858
ديس	-11.1282
▁المصرفية	-10.8882
▁108	-11.5256
ping	-10.8694
يتا	-10.8551
▁convicted	-10.9370
▁movie	-10.8212
▁وسيادة	-10.9070
Ivoire	-10.8716
▁بإمكانك	-10.8128
▁متفق	-10.8645
▁consequence	-10.9829
▁formation	-10.9809
▁penalties	-10.9524
PR	-11.1737
▁description	-10.9276
▁رأى	-10.8556
▁تحقيقات	-10.9771
▁٠١	-10.8410
▁تسهيل	-10.8767
دعاء	-11.2824
كافة	-10.9810
▁نعمل	-10.8763
اكي	-11.0131
▁machine	-10.8577
▁سين	-10.8389
▁المضمون	-10.8565
▁$8	-10.9717
▁imagine	-10.8548
▁heritage	-10.9848
▁عرضت	-10.9431
▁الروما	-11.0444
▁وجمع	-10.9308
/1996/	-11.4455
▁subregion	-10.9623
▁إطارا	-11.0786
▁لندن	-10.8725
▁hopes	-11.0252
▁favourable	-10.9748
▁عجز	-10.8973
▁آخذ	-10.8049
▁بوليفيا	-10.9137
▁لأوروبا	-10.8891
▁الإعداد	-10.8616
▁والنرويج	-10.9075
▁للحسابات	-10.9507
▁التنظيمي	-10.9402
ثني	-10.8954
ىء	-11.0365
▁متر	-10.9643
▁تنشيط	-10.8864
▁يثبت	-10.8833
▁favor	-10.8358
▁(2007)	-11.4369
ens	-11.2987
▁vast	-10.9458
▁لطلب	-10.8948
▁تري	-10.8496
ولكن	-10.7834
▁بديلة	-10.9054
▁Common	-10.9516
▁Punishment	-10.9345
▁Conflict	-10.9750
▁wealth	-10.9479
23)	-11.5710
▁المقررات	-10.9137
Upon	-11.0627
▁1960	-11.4402
▁الكاميرون	-10.9247
▁port	-10.9499
إساءة	-10.9400
▁المحامي	-10.8625
President	-10.9805
▁إلقاء	-10.8826
▁surprise	-10.8888
▁Conduct	-10.9855
▁قصد	-10.8255
▁healthy	-10.9341
▁وأفادت	-10.9347
▁الإثنية	-10.9219
▁FDI	-11.0102
▁appoint	-10.9782
▁بطلب	-10.9150
▁pregnancy	-10.9627
▁زوجتي	-10.7785
▁خبير	-10.8592
▁sectoral	-10.9989
▁تساهم	-10.8978
▁والاتصال	-10.9234
▁سادسا	-10.9087
▁المرتبات	-10.9013
صرف	-10.7946
▁الجماهيرية	-10.9057
▁Out	-10.8929
▁نفذت	-10.8968
▁لأني	-10.8336
▁وحكومة	-10.9020
▁chosen	-10.9558
▁boat	-10.8393
▁لفائدة	-10.9478
لقي	-11.0027
▁الشروع	-10.9147
▁الإسكان	-10.9063
▁Su	-10.9802
▁رفضت	-10.9214
▁متعلقة	-10.9277
ical	-11.2994
▁لبلدان	-10.8915
غان	-11.0455
2001	-11.3809
رحل	-11.0843
▁retain	-10.9639
▁الأر	-11.2146
▁depends	-10.9826
▁القائل	-10.8985
▁اسف	-10.7789
▁والحصول	-10.9069
▁observance	-10.9939
,600	-11.0983
▁villages	-10.9998
▁عادل	-10.8362
▁للأغراض	-10.9061
▁المحاسبة	-10.9059
ab	-11.3268
▁انتهت	-10.8459
▁والبنك	-10.8893
▁المباني	-10.9105
▁أولى	-10.8998
5).	-11.4006
▁المأذون	-10.8730
▁والعمليات	-10.9237
▁Car	-11.0898
▁التضامن	-10.9179
▁إمكانيات	-10.8984
▁الميلاد	-10.8190
▁بالالتزامات	-10.9430
-11	-11.6180
▁Honduras	-10.7404
▁TV	-10.8888
▁unity	-10.9674
▁immigration	-10.9867
▁فلت	-10.8196
▁لأعضاء	-10.9484
▁renewable	-10.9822
▁approve	-10.9310
▁models	-10.9793
▁Violations	-10.9757
▁بمقدار	-10.8995
▁الثنائي	-10.9225
ious	-11.4777
▁hide	-10.8634
▁يمنع	-10.8582
▁(5)	-11.5547
▁Ali	-10.9664
▁Commonwealth	-10.9756
▁العضو	-10.8735
سين	-10.8419
▁أطلقت	-10.9047
▁servants	-10.9528
▁أمك	-10.8199
▁Ko	-11.0065
▁للبيانات	-10.8865
▁أش	-10.8981
جور	-11.0563
▁والج	-10.9971
▁Mother	-10.8979
▁entering	-10.9502
▁normally	-10.9733
▁الآونة	-10.9141
▁literacy	-10.9783
▁والفقر	-10.6509
ابة	-11.2611
▁clarify	-10.9587
▁تهدد	-10.8965
▁اشت	-11.1072
▁beneficiaries	-10.9780
▁compulsory	-11.0101
▁الثقافات	-10.9229
كات	-11.1121
ran	-11.0433
▁clearance	-10.9664
▁وفعالية	-10.9133
▁كوسيلة	-10.9120
▁ويدعو	-10.9262
▁falling	-10.9087
▁الجدد	-10.8979
▁هجوم	-10.8772
▁salaries	-10.9874
▁providers	-11.0003
▁قي	-11.0128
▁حفل	-10.8167
▁لكون	-11.0106
6).	-11.4559
يلولة	-10.9262
▁مشاعر	-10.8278
▁أدخل	-10.7867
7).	-11.3503
▁لإصلاح	-10.9088
▁store	-10.8691
2).	-11.4270
▁الترويج	-10.9195
▁نسخ	-10.9011
▁التوفيق	-10.9166
▁نود	-10.8910
▁اليمن	-10.9239
▁consolidate	-10.9868
▁وتوفر	-10.9309
-2015	-11.3260
مها	-11.3636
▁٤٩٩١	-10.8214
طرد	-10.8530
وء	-11.2580
▁متأكدة	-10.8023
▁exceptional	-11.0134
راس	-11.0279
▁فردا	-10.9494
طي	-10.9905
سات	-11.1189
▁استثنائية	-10.9068
▁smart	-10.8596
▁بعضهم	-10.8506
▁يو	-10.7361
ادته	-11.1991
▁التصدير	-10.9499
▁بر	-10.8192
يهم	-11.2961
▁البرنامجي	-11.0067
va	-11.1399
▁telephone	-10.9603
▁المفيد	-10.8876
ظم	-10.8936
IT	-11.3257
▁التطور	-10.8755
▁أعدت	-10.8691
▁دوائر	-10.9210
فيد	-11.0258
▁النموذجية	-10.9563
▁صادر	-10.8860
Agency	-10.9899
▁أخبرت	-10.8263
-16	-11.7445
▁الصحافة	-10.8759
▁suspected	-10.9902
▁التغلب	-10.9312
2002	-11.4812
▁refused	-10.9890
قط	-10.9729
▁سباق	-10.8775
▁تشهد	-10.9158
▁presidency	-10.9793
▁يمارس	-10.9046
▁logistical	-11.0001
▁1973	-11.5903
▁Alliance	-10.9642
▁oh	-10.8337
▁التوجيهي	-10.9160
▁regret	-10.9055
▁sun	-10.8874
▁تحتوي	-10.9289
▁جهوده	-10.9623
▁targeting	-10.9901
▁المفهوم	-10.9153
▁تقدر	-10.8994
▁UNMIK	-11.0370
▁Biological	-11.0016
▁Think	-10.8966
OR	-11.4952
▁رفعت	-10.8952
ناها	-11.2036
▁بالدور	-10.9231
▁memory	-10.9321
▁regarded	-11.0249
▁تأخر	-10.8945
▁46.	-11.0602
▁excuse	-10.8987
▁تهتم	-10.8275
▁كبرى	-10.9222
sion	-11.6686
▁Responsible	-10.9740
▁generations	-10.9909
▁سنوية	-10.9419
▁تأهيل	-10.9406
▁manufacture	-10.9857
▁credibility	-11.0132
▁twentieth	-10.9752
روف	-11.0672
▁واختتم	-10.9239
▁Na	-10.9406
▁يسعى	-10.9337
راح	-11.1962
▁شهد	-10.9077
▁Corruption	-11.0251
▁للتعذيب	-10.9676
▁العم	-10.8959
حالة	-10.7610
▁excellent	-10.9768
▁هاي	-10.9480
▁التشجيع	-10.9143
▁buddy	-10.8612
▁killer	-10.8459
▁نمط	-10.9216
▁tests	-10.9802
▁تسعة	-10.9015
▁آمنة	-10.8874
▁الاعتبارات	-10.9461
▁Access	-10.9857
ابت	-11.5978
كتب	-10.8935
17)	-11.5822
▁ST	-11.4626
▁للك	-11.1788
▁بح	-10.9669
▁المرونة	-10.9413
▁addresses	-11.0063
▁الفني	-10.9297
▁غنى	-10.9006
▁مرتين	-10.8467
نه	-11.0178
▁الصياغة	-10.9562
ung	-11.0795
▁الأحياء	-10.9113
▁Paragraphs	-11.0314
▁أكره	-10.7814
▁Isn	-10.8729
▁103	-11.5373
▁إنقاذ	-10.8436
▁Perhaps	-10.8733
▁acquired	-11.0108
▁القديم	-10.8530
▁والديمقراطية	-10.9150
▁register	-10.9848
▁وحرية	-10.9156
▁الأمريكي	-10.8720
▁جبل	-10.8666
مدى	-11.1521
ريس	-10.7849
▁المستعمرة	-10.8813
▁فرعية	-10.9256
▁ألبانيا	-10.9115
border	-10.9967
▁المعيشة	-10.9317
▁houses	-11.0589
▁يسوع	-10.9165
▁president	-10.9210
▁Officers	-11.0252
▁تقييمات	-10.9936
GC	-11.5747
▁فقر	-10.9521
▁الأرجح	-10.8536
▁للمخدرات	-10.9270
▁مماثل	-10.9374
▁inequality	-11.0335
▁Leave	-10.8925
رية	-11.0516
▁نهر	-10.9544
▁ولما	-10.9768
▁حددت	-10.9444
نفذ	-11.0214
▁Hall	-11.0014
▁يقرب	-10.9366
شترك	-11.0593
▁وتعتبر	-10.9298
▁قلقه	-10.9126
▁eighth	-11.0109
service	-11.0130
▁مرت	-10.9568
▁Dialogue	-11.0356
q	-11.0995
▁Te	-10.9996
صير	-10.9664
تهيئة	-11.0481
▁escape	-10.9337
▁ويطلب	-10.9282
▁قاتل	-10.7768
▁21,	-11.3841
▁eastern	-11.0209
▁facto	-11.0284
▁الدومينيكية	-10.9552
▁بعدد	-11.0043
تقوية	-11.0392
▁exposure	-10.9942
▁والرصد	-10.9293
▁cancer	-10.9433
▁قضيت	-10.9072
▁promised	-10.8989
▁للأعمال	-10.9607
▁ساعدت	-10.9055
▁وممثل	-11.1025
▁اعتمدته	-10.9092
▁Between	-11.0123
عطي	-10.9094
▁supplement	-11.0016
▁truck	-10.8844
▁UNIFEM	-11.0560
▁المنقح	-10.9507
▁Still	-10.9085
▁chief	-10.9532
فرانك	-10.9788
▁ردا	-10.9447
▁spare	-10.9584
▁1325	-11.6889
▁Center	-11.0254
▁En	-11.2008
ise	-11.1607
▁التلوث	-10.9521
▁واعتمد	-10.9290
فكر	-10.8988
▁ceasefire	-11.0203
▁تترتب	-10.9550
▁inhabitants	-10.9989
▁بصفتها	-10.9311
▁ولأن	-10.9528
▁ملتزمة	-10.9909
▁minor	-10.9958
ably	-11.1645
▁والسلامة	-10.9408
بعث	-10.9032
▁eradicate	-11.0195
▁أعوام	-10.8870
غالبية	-11.3129
▁شريك	-10.8569
وش	-10.9228
▁التوسع	-10.9344
▁قرب	-10.8720
▁ميلاد	-10.8025
▁قيم	-10.9059
▁underlined	-11.0098
ip	-11.3983
▁مدار	-10.9388
▁حمل	-10.8445
▁الحيوانات	-10.8712
▁involves	-11.0163
/48/	-11.0763
▁Basic	-11.0429
▁ينتهي	-10.8557
▁الرق	-10.9459
▁ha	-11.0046
▁malaria	-11.0320
▁يبقى	-10.8591
▁الاستعانة	-10.9756
hmm	-10.8705
▁المتكررة	-10.9647
دمت	-10.9636
▁للأمن	-10.9354
▁gift	-10.9169
وزع	-11.0439
▁والتخطيط	-10.9419
صياغة	-10.9398
جيب	-10.9842
▁durable	-11.0402
▁والجبل	-10.9161
▁22-	-10.9157
▁سداد	-10.9286
▁expectations	-10.9951
▁الفتى	-10.8351
▁وكره	-10.9298
▁المرج	-11.0500
▁وقرارات	-10.9431
▁cultures	-11.0557
▁بكامل	-10.9308
▁بأننا	-10.9016
▁ice	-10.8925
▁clothes	-10.9013
▁لتنسيق	-10.9520
▁feels	-10.9993
وضع	-11.0654
▁punish	-10.9767
▁ومساعدة	-10.9645
▁الكفاية	-10.8478
▁يقتل	-10.7820
تز	-10.8317
▁tangible	-11.0294
شن	-10.8318
▁٤٧	-10.9007
▁آر	-10.9249
▁والتطوير	-10.9508
▁الروابط	-10.9239
▁soil	-11.0096
▁كلمات	-10.9123
▁بمناسبة	-10.9218
صحيح	-10.9932
▁بالاتفاقية	-10.9480
▁وسلم	-10.7993
نزل	-11.0865
▁الأرصدة	-10.9498
▁غرار	-10.9515
▁لغة	-10.9189
ضحك	-10.8233
▁fresh	-10.9443
▁ستقوم	-10.8736
▁يقومون	-10.8927
▁ديربان	-10.9712
▁صعبة	-10.8954
▁strictly	-11.0280
▁محدود	-10.9099
sen	-11.1757
▁ابي	-10.9101
que	-11.2046
▁competitiveness	-11.0146
▁ولكني	-10.9375
▁MDGs	-11.0511
▁blow	-10.8826
يتهم	-11.1545
▁interactive	-11.0124
▁روسيا	-10.9074
يئة	-11.0411
▁استمع	-10.8836
▁فوائد	-10.9536
▁50.	-11.2210
▁ماري	-10.8352
▁اج	-11.2949
▁الأخطار	-10.9781
▁Workshop	-11.0210
▁القريب	-10.9189
جيم	-10.9057
▁أعمارهم	-10.9652
▁اعتقدت	-10.8114
▁SBI	-11.0484
▁البحرين	-10.9899
رنا	-11.0530
▁dollar	-10.9815
▁الدوائر	-10.9446
▁soul	-10.8946
21)	-11.5297
▁دع	-10.9058
▁2003)	-11.6659
▁ملابس	-10.8375
▁استنفاد	-10.9565
▁رأت	-10.9494
▁القائد	-10.8447
▁كتابة	-10.9128
▁whenever	-10.9851
▁بمركز	-10.9679
▁يدل	-10.9348
▁counselling	-11.0432
▁appropriation	-11.0061
▁الانخفاض	-10.9898
▁23-	-10.8685
▁بالمساعدة	-10.9416
▁remarks	-11.0187
▁gratitude	-11.0164
▁بير	-11.0091
▁فم	-10.9441
▁ينفذ	-10.9298
ثار	-10.9837
▁هنغاريا	-10.8943
▁47.	-11.0770
▁أنتظر	-10.8150
جلس	-10.9059
▁revealed	-10.9987
▁employers	-11.0556
▁والالتزامات	-10.9492
▁بالش	-11.3072
tory	-11.1122
▁المعد	-10.9498
▁offset	-10.9814
▁whereby	-11.0434
▁التكنولوجية	-10.9549
بوب	-10.9281
دائرة	-10.9819
▁التعيين	-10.9444
but	-11.1028
نين	-11.1307
▁يترك	-10.8731
▁Disabilities	-11.0174
▁أطول	-10.8795
▁والنهوض	-10.9292
▁جن	-10.9872
han	-11.2574
▁٣٣	-10.9672
▁يعيد	-10.9411
▁التعجيل	-10.9688
▁الكلية	-10.8958
▁decent	-10.9773
▁Date	-11.0270
▁أحداث	-10.9164
▁الأمثلة	-10.9799
▁excessive	-11.0052
▁parliamentary	-11.0399
▁سيدى	-10.8248
▁1981	-11.6473
▁نظمت	-10.9743
▁مح	-10.9825
▁والمياه	-10.9696
▁sake	-10.9133
▁unlawful	-11.0500
▁attitudes	-11.0056
▁concerted	-11.0225
▁أخبار	-10.8194
▁إحداث	-10.9385
رجى	-11.0189
▁اقول	-10.8209
▁aged	-11.0401
عجز	-11.0872
▁arm	-10.9634
▁موجزة	-10.9414
▁(4	-11.7371
▁الفيروس	-10.9112
11)	-11.4636
▁Mine	-11.0237
برت	-11.0800
▁blue	-10.9166
قدر	-11.0342
▁مبرر	-10.9588
▁بلادي	-10.9208
▁وتمويل	-10.9491
cH	-10.9384
▁باللغات	-10.9835
▁ويعتبر	-10.9610
▁شخصيا	-10.8958
▁Paraguay	-10.7564
▁قدراتها	-10.9760
طاع	-11.4128
▁assurances	-11.0203
▁المدفوعات	-10.9435
▁بنفسك	-10.8171
▁أتريد	-10.7984
▁Branch	-11.0056
حتاج	-10.9018
▁Judge	-10.9894
▁الوظيفي	-10.9682
ائم	-11.4925
تصل	-11.0551
rate	-11.3129
▁والب	-10.9254
▁تسع	-10.9119
▁منفصل	-10.9757
18)	-11.6677
▁pool	-10.9604
▁دعوى	-10.9617
▁External	-11.0448
▁absolute	-10.9935
▁WFP	-11.0261
▁constant	-11.0212
▁mobility	-11.0379
ارا	-10.9239
▁emergencies	-11.0206
▁أعطني	-10.8355
/67/	-11.3508
▁acquire	-11.0358
وفا	-11.0155
▁شعرت	-10.8527
▁برنامجا	-11.1693
▁بعضنا	-10.9143
ضح	-11.3050
▁Communication	-10.9879
▁الكفيلة	-10.9812
اعت	-11.3450
▁مون	-11.3975
ey	-10.9283
▁تقتضي	-10.9572
▁ممثلا	-10.9959
▁الناجم	-10.9456
▁girlfriend	-10.9228
▁حث	-10.9422
كراهية	-10.9378
▁أمم	-11.0221
▁بيتر	-10.9181
▁adolescents	-11.0129
حقق	-10.9566
▁Serious	-11.0183
▁ثابتة	-10.9430
▁إرساء	-10.9797
▁للغابات	-10.9735
▁Ro	-11.0645
تأكد	-10.8579
▁بار	-10.9131
▁ينتظر	-10.9122
▁رحلة	-10.8802
▁لسنا	-10.8248
▁112	-11.5902
▁transmission	-11.0310
▁والشفافية	-10.9633
▁غيره	-11.5332
▁adults	-11.0163
▁جاد	-10.8541
ham	-11.1210
▁جامايكا	-10.9398
▁ومؤتمرات	-11.0119
▁للاتصالات	-10.9672
كاس	-11.2951
▁ودعت	-11.0008
▁2004)	-11.6853
▁Hague	-11.0252
▁تدعيم	-11.0001
منع	-10.9145
▁occasions	-11.0517
▁ثمن	-10.8832
▁recruited	-11.0264
▁المستديرة	-10.9762
▁تهديد	-10.9234
▁أفكار	-10.9116
▁ضابط	-10.9233
▁العاشر	-10.9659
▁teacher	-10.9390
▁سيحدث	-10.8407
▁المعنونة	-11.0267
▁Djibouti	-10.8025
▁الطفولة	-10.9875
▁ثنائية	-10.9650
▁العكس	-10.9258
▁واثق	-10.8524
▁لهما	-11.0570
ff	-11.5596
▁معني	-11.0996
▁والجماعات	-10.9876
▁restore	-11.0234
حمل	-10.9018
▁reserves	-11.0507
0,	-11.2313
4,	-11.3100
خدم	-11.0995
▁أوساط	-10.9798
▁48.	-11.1213
▁adult	-11.0077
▁methodologies	-11.0389
▁الكلمات	-10.9103
▁السريعة	-10.9800
جال	-11.0600
▁٧٩٩١	-10.9480
▁orientation	-11.0314
▁الجفاف	-10.9365
▁لأحد	-10.9106
▁الاختيار	-10.9442
▁الجهد	-10.9492
▁residents	-11.0499
▁تقريري	-11.1700
▁servicing	-11.0538
▁Li	-11.0291
▁cop	-10.9039
▁المحفل	-10.9516
▁تق	-10.8543
▁capability	-11.0514
▁enhancement	-11.0441
/1995/	-11.4634
مسؤول	-11.2525
▁Professor	-10.9527
عندما	-10.8561
▁الجوفية	-10.9455
▁granting	-11.0371
▁إسهام	-11.0001
,300	-11.1305
▁ومد	-11.0889
▁closure	-11.0279
▁mobile	-10.9924
▁أراد	-10.8537
▁الفيديو	-10.9137
▁باعتبار	-10.9458
▁اسمحوا	-10.9007
نيويورك	-10.8972
▁2014,	-11.0744
▁roll	-10.9380
▁Everybody	-10.9114
▁Legislative	-11.0662
يط	-10.9286
▁بالحاجة	-10.9763
الولايات	-10.9480
▁أف	-10.9614
▁لجهود	-10.9862
▁ring	-10.9200
▁وممثلي	-10.8863
▁District	-11.0242
▁deserve	-10.9451
▁بالتدابير	-10.9921
▁الأشكال	-10.9598
▁commodities	-11.0584
▁لاعتماد	-10.9952
▁Logistics	-11.0128
▁obtaining	-11.0577
▁بينهما	-10.9621
▁1977	-11.6011
▁nutrition	-11.0336
ana	-11.1233
▁marry	-10.9836
▁consists	-11.0952
▁complementary	-11.0438
▁أست	-10.9525
▁willingness	-11.0412
فان	-11.0612
▁بحوث	-10.9712
قاتل	-10.9539
▁Syria	-11.0182
▁Mark	-10.9584
▁firms	-11.0477
▁تقصد	-10.8331
▁1984	-11.6659
▁اللا	-11.0913
▁كثب	-10.9826
▁للاحتياجات	-10.9621
▁progressive	-11.0668
▁أولية	-11.0199
▁تقديمه	-11.1334
▁فعلته	-10.8655
▁بحالات	-10.9739
للاطلاع	-10.9391
▁urgency	-11.0504
▁الجمركية	-10.9636
▁Establishment	-11.0575
▁Somali	-11.0508
▁definitely	-10.9146
▁البنات	-10.9322
▁المواقف	-10.9893
▁Illicit	-11.0685
▁حقوقهم	-11.0398
▁للأونكتاد	-10.9474
▁hotel	-10.9136
▁massive	-11.0169
▁طرح	-10.9418
▁2002)	-11.6497
▁kinds	-11.1352
لع	-10.8863
ID	-11.3738
▁إنمائية	-11.0024
▁توجيهات	-11.0237
▁الفق	-10.9960
▁ير	-10.8548
▁1974	-11.5488
▁للع	-11.3566
▁العديدة	-11.0131
▁film	-10.9400
ble	-10.9675
▁توطيد	-10.9808
▁نداء	-10.9421
▁impose	-11.0443
▁coordinator	-11.0454
▁تف	-10.9208
▁التفويض	-10.9713
▁Round	-11.0326
,100	-11.1678
▁duplication	-11.0672
▁التسعينات	-10.9336
▁deprivation	-11.0591
▁وتكون	-10.9622
▁للوصول	-10.9474
▁Envoy	-11.0408
▁يسبق	-10.9264
▁الفت	-11.2833
نيك	-10.9598
▁العفو	-10.9500
▁104	-11.5989
▁الفكرة	-10.8988
15)	-11.4430
▁consistently	-11.0495
month	-11.0067
▁Jo	-10.9826
▁sales	-11.0445
▁الوجه	-10.9104
▁وباكستان	-10.9911
يلة	-10.9169
2.	-11.4752
▁ممتلكات	-10.9533
▁union	-11.0156
وارد	-10.9487
▁49.	-11.1306
▁قدرا	-10.9727
AN	-11.4697
فهم	-10.8517
▁بزيارة	-10.9416
▁مبنى	-10.9896
▁العادي	-10.9370
▁الموجه	-10.9969
▁ثق	-10.9366
▁elsewhere	-11.0117
▁owe	-10.9134
▁2014،	-11.1463
▁ضغط	-10.9224
und	-11.4310
▁الحملة	-10.9875
▁Ta	-10.9868
▁digital	-11.0030
▁للاجتماع	-10.9756
▁gained	-11.0640
▁RE	-11.5488
▁significance	-11.0774
▁Daddy	-10.8985
mar	-11.2128
▁لنشر	-10.9953
عمال	-11.1669
▁معقول	-10.9214
▁تسل	-11.0162
▁bought	-10.9354
▁authorization	-11.0556
▁إذهب	-10.8577
▁الكون	-11.0758
▁تفاقم	-10.9795
/1994/	-11.3132
▁بسهولة	-10.9336
▁Bearing	-11.0493
▁fail	-11.0058
▁اضطلع	-10.9720
▁الاندماج	-10.9809
حكم	-10.9392
▁1983	-11.5650
▁يتألف	-10.9920
ديل	-11.0667
▁سلوفينيا	-10.9969
▁Monterrey	-11.0774
▁حشد	-10.9885
▁المتجددة	-10.9875
▁مضحك	-10.8554
▁redress	-11.0605
▁النق	-11.0905
▁exploration	-11.0445
▁الزوج	-10.9519
▁المدقع	-11.0017
سحب	-10.9092
▁الكاريبية	-11.0073
▁والوطنية	-10.9958
▁متطوعي	-11.0280
▁فنية	-10.9527
▁مصطلح	-10.9894
▁المرحلي	-11.0113
▁يخرج	-10.8660
▁بدا	-11.1086
عات	-11.1127
▁via	-11.0694
▁Ja	-11.1249
▁teach	-10.9590
▁أسفل	-10.8899
ology	-11.4100
١٥	-10.9389
▁Christmas	-10.9148
▁بالقانون	-11.0053
▁بالنساء	-10.9940
▁سمحت	-10.8717
ثي	-10.8919
▁الشارع	-10.8965
▁prevented	-11.0486
▁كليا	-10.9238
▁للتحديات	-11.0392
▁motion	-11.0120
▁workload	-11.0618
▁الواسعة	-10.9900
▁تناولت	-11.0502
▁OECD	-11.0608
▁الحاسمة	-10.9780
▁referring	-11.0356
▁combination	-11.0894
▁resort	-11.0772
▁تعقدها	-11.0571
▁المنازل	-10.9650
▁أجرى	-11.0097
▁المدرسية	-10.9842
▁موحد	-10.9867
▁fiftieth	-10.9955
▁summits	-11.0921
▁ninth	-11.0774
▁اعتباره	-10.9619
▁خطرا	-11.0219
▁calendar	-11.0313
▁الأفغانية	-11.0440
▁الأونروا	-11.0103
نظ	-11.0943
▁تسمع	-10.8396
▁وسوء	-11.0120
▁candidate	-11.0177
▁تقليل	-10.9875
Women	-11.0295
▁أج	-10.8380
▁الذكرى	-10.9744
كانت	-11.0401
▁Proposed	-11.0764
▁compromise	-11.0424
▁match	-10.9497
▁بمعدل	-10.9829
▁العاملات	-11.0749
▁الجمارك	-11.0014
ثة	-11.0907
▁المبنى	-10.8973
▁sold	-10.9458
ani	-11.3133
▁وتكنولوجيا	-11.0220
▁chain	-10.9783
أل	-10.7879
▁restoration	-11.0675
▁بأقل	-11.0041
أخذ	-10.8887
▁لحم	-10.9763
▁وباء	-10.9953
▁تخبر	-10.9819
▁غانا	-10.9958
▁wonderful	-10.9871
▁eventually	-11.0054
وتي	-11.3105
▁1975	-11.6080
▁suspect	-10.9910
▁أواخر	-10.9979
▁disclosure	-11.0737
▁جزيرة	-10.9671
▁وأبلغت	-11.0132
ألف	-10.9870
بلغت	-11.0314
▁viable	-11.0819
tin	-11.3914
▁sufficiently	-11.0654
▁surface	-11.0360
▁محليا	-11.0006
تشر	-11.1863
▁٣٥	-10.9530
LE	-11.3453
▁طعام	-10.8730
يلي	-11.0058
▁apart	-10.9990
▁patients	-11.0142
val	-11.3746
ترجم	-11.0399
▁entirely	-11.0251
▁لتسوية	-10.9946
▁plane	-10.9659
je	-11.2876
▁للتصرف	-10.9695
عه	-11.0619
▁transformation	-11.0761
▁بوركينا	-11.0013
تطور	-11.0264
▁diverse	-11.0591
▁lunch	-10.9339
▁Kuwaiti	-11.0957
▁appointments	-11.1391
خت	-11.1491
aw	-11.2751
▁فرانك	-10.8970
▁العابرة	-11.0262
▁branch	-11.0499
▁إشراف	-11.0273
▁تصور	-11.0064
ذك	-11.0947
▁تفرض	-10.9701
▁الكتب	-10.9382
▁المنخفضة	-11.0092
▁التحكم	-10.9491
▁الاعتداء	-11.0164
▁Unity	-11.0755
▁وحلقات	-11.0258
▁Euro	-11.0552
▁وإعلان	-10.9994
▁hostilities	-11.0478
-13	-11.5966
▁الممولة	-11.0068
▁initiate	-11.0617
▁صرف	-11.0029
▁المتزايدة	-11.0147
▁مناصب	-10.9774
▁تخ	-11.0085
▁Survey	-11.0767
▁البل	-10.9606
▁كرة	-10.9144
▁153	-11.6412
▁زمن	-10.9210
▁وفعالة	-10.9876
▁participatory	-11.1026
▁للمؤسسات	-11.0007
▁يقد	-11.0272
▁divorce	-11.0205
gu	-11.2488
▁حادث	-10.9043
▁hospitals	-11.0735
تحدث	-10.8360
ju	-11.5138
▁المسار	-11.0004
▁jail	-10.9821
▁Efforts	-11.0757
▁Taliban	-11.0935
▁reimbursement	-11.0558
▁Stresses	-11.0977
▁وبعدها	-10.9005
▁بتقييم	-10.9972
ندي	-10.9204
▁تحفظ	-10.9972
▁sentences	-11.1156
زح	-11.3593
▁التابعين	-11.0278
▁systematically	-11.0595
▁180	-11.5652
▁questionnaire	-11.0561
▁فرادى	-11.0116
▁المحامين	-11.0100
▁survival	-11.0672
▁أحكاما	-11.0603
▁يحد	-10.9920
▁unto	-11.0279
▁داخلية	-11.0243
▁يعترف	-11.0239
UNDP	-11.0681
▁Reform	-11.0815
▁مخطط	-10.9608
▁فشل	-10.9886
▁user	-11.0690
▁منظم	-11.1140
▁للخدمات	-11.0055
▁Standards	-11.1264
▁filled	-11.0162
لعب	-10.9286
▁Case	-11.0515
▁جواز	-10.9767
ولات	-11.3282
شعبة	-11.0233
▁NEPAD	-11.1078
▁causing	-11.0668
▁بوصفهم	-11.2240
▁Sometimes	-10.9470
▁sad	-10.9912
▁106	-11.5762
▁107	-11.6156
▁إيجابي	-11.0158
▁62/2	-11.8607
8).	-11.4939
داي	-11.1468
▁Stockholm	-11.0911
We	-11.0462
▁إسهاما	-11.0048
▁تحقيقا	-11.1167
قى	-11.0263
▁بأني	-11.0933
▁إم	-11.0708
▁عش	-10.9873
▁2014-2015	-11.7626
باط	-11.6012
▁violate	-11.1001
▁disappearance	-11.0842
▁Light	-11.0422
[...]
